11111111101011101011010011100011
00000000001001011010011101110010
11111111101001001111111110111101
00000000000001110000111110101010
00000000011101011110100100000001
00000000000111100010110110000010
00000000000111011000110110011110
00000000010011010101001000111100
00000000000101111111110010010111
00000000000010011100011111111010
00000000011010110100100110000011
11111111011100110101011110001111
00000000010010111001110111001011
11111111001011011110110000011001
11111111110011000001111011011001
11111111101111110101101101001101
00000000000110101101110101001111
00000000010011011100100110010100
00000000010000011011100110100101
11111111111001100011111001001100
00000000011001010001010101111001
11111111111100010010101110011111
00000000010010010101001000011000
00000000010111011011100000110000
11111111111010110111001000000110
11111111110011000000010000100111
11111111111010001101001010100001
00000000011000111011101101101100
00000000001001111000000101111101
00000000000000011000110110000001
00000000000110010110100111111010
00000000001011110101000101010011
00000000001111100011000010111000
11111111101000011010110010101001
00000000001011110100110011000101
00000000000100100011000100011000
00000000000101100100111111010010
11111111111000000000000001110000
00000000001101100001100110111011
11111111101011110101001111101010
00000000000010101101000110110011
00000000010000101101100101100000
11111111111100111011101001000110
11111111111011010010110110010100
11111111111011101001101100001001
00000000011001001111110010111000
11111111111111010011001101110010
11111111111011010100001110111010
00000000000010010111101100111000
00000000001001010000001110000010
11111111101110100101000100110010
11111111110011101111101101101010
00000000001001011111001100000000
00000000100011111100110000101011
11111111110101011011000011000111
00000000001101010001000010010010
11111111100010001010100110100010
11111111111110101111101000010010
00000000000001011000100011100000
11111111101011101000110111100011
11111111101010101101101001101010
00000000001001001011001010100101
11111111110100000111110100111001
11111111110110101101100110111001
00000000010100101110000101000011
00000000000000101010100010010011
00000000000010011110101000010111
00000000000111101100001001111000
11111111010111010011110010000001
11111111111011011000010100110100
11111111111010010011011111100100
00000000100110000111111100000110
00000000000001110000001011110000
11111111100101101110100111100011
11111111110110011011100011100110
00000000011010001010111010001000
00000000100100000010001101100111
11111111011101100000110011100011
11111111101001000100101000010011
11111111111001000110001011110111
11111111101001110011011110000001
11111111101011100101100101111001
11111111010110010011111101100100
11111111111001000011001001111010
11111111101010101111110001110111
00000000011111011111000000001100
11111111111110100111011110000111
11111111100001110010100001000100
11111111100011110111000001001110
11111111110110110011010000101111
11111111100000111011100101000001
00000000001100001000110011100000
00000000001000100100101001101000
11111111111111111011000111111111
00000000101100000011111010100100
00000000001011100001100011101111
11111111110101101101000011100010
11111111101011001110110111001010
00000000000000000110110100101010
00000000000111011100111110001000
11111111111011111110101100101101
00000000011111101000110101110010
11111111101011001001001101011100
11111111111110101110000111111001
11111111101111010011110100100111
00000000011010010100110111101101
11111111111111100011100010000101
00000000001101101101111101010001
00000000000011100100001100010101
11111111111110110010111111111001
11111111111100000100010011001100
11111111111110010110001101110010
00000000101111110011000101011010
11111111111001110100110010100111
11111111111111100011100111001100
11111111110001001110001110001100
11111111110011111010111011011001
00000000000001110101101110011001
00000000011010110010011001001110
11111111110100101100010000001100
11111111111000011001100000101001
00000000000001011011111111000000
11111111111100110110001010111110
11111111110110111110110010110000
11111111101011110101010101010110
11111111111110100000000111010111
11111111111101110101110001110010
00000000000011011011101111100000
11111111110111001111010101100000
11111111111110001111010111101101
11111111111010110000111000000001
11111111001111111101100001101001
11111111111011101111100011000001
11111111101100100001100100111000
00000000000010110001010010111110
00000000010110001101101000110101
11111111111110111101110101001110
00000000101101000111100111010101
11111111111001101011100001000101
11111111101110011110111110011111
00000000100010111001100000110111
00000000000111110001110010100101
11111111111001110011001001111010
00000000001010010011100110001001
00000000000011100011101101101101
11111111101011001000100110011000
00000000000101111001010110100000
00000000011000101000001011000101
11111111101000001111100010011100
00000000000100001111100111110100
11111111101100110101011100011001
11111111111000101111010000000101
00000000001100111101010011100001
00000000011101110110000000110101
11111111100001111100110100000101
11111111100010110000100101110011
00000000001010001111110101001101
11111111101011101100000010101110
11111111110010111001100110010110
00000000000101111000000111101000
11111111110011100101101101011001
11111111111110011111101010101111
11111111110001011011010101100100
11111111100101111100011001111000
00000000000111110010110000000100
00000000000110001110101100100001
11111111111100101010000100101110
00000000100000110101010101010000
11111111110010010000000111110100
00000000011101001111000010010000
00000000000000000111111110000011
00000000001000010011001101010100
11111111110000101110001110111001
11111111111011101001111101000011
00000000001101001111100001011101
11111111101110000110001111011000
11111111100101101101100011011111
11111111101110011000101001110100
00000000000111011110111011000110
11111111110101111111011001110000
11111111111110001011111010011111
11111111101110111110101001000111
11111111100011110100010011111011
11111111110111000110001000001110
11111111110100011011001001111000
11111111100001110101100101111101
11111111110110010101110000110100
00000000011001101011110001010110
11111111111011001111111100101101
11111111111011001010001010001110
11111111101110010111101001111110
00000000010010011110111001001011
00000000010100001001001011011001
11111111110010011110110110010011
00000000011110001001100011011011
11111111010101101010101111111101
11111111010101100111110100110011
11111111111110000010011000010001
11111111110110011101010101001011
11111111110000111011111011111000
00000000000001000110010010111001
00000000011101011111111111000011
00000000011101000010101010101110
00000000000010100011011001101011
00000000000101011001110011110011
00000000001010000111111110111101
11111111100101011100000010110100
11111111101010010001111100001100
11111111010111000000111101110101
00000000010001101000000011001011
11111111110100000001101001001011
11111111001101110110011101111010
11111111110111100101101010011000
11111111100110100110000010110111
11111111110100010000110010000010
11111111010110001111110100100110
11111111110110101111001101110010
11111111111000000110110111010001
00000000001000101001001010010100
00000000001000111010100000111001
00000000101101001101000101101000
00000000001011110101100110011111
00000000101001111010100010101000
11111111110100011110111100101110
11111111110100111110010101011100
11111111101101111101010110100000
00000000000100101001011101001110
00000000000010011111001011101101
00000000010010111011110001000111
11111111111001010010001110100110
00000000011101011110110100001111
11111111110101100110100111011110
11111111110010110000110000101100
00000000000000011011101101000101
11111111110011100001000100111110
11111111110101110101110110100100
11111111101010011100010111011100
11111111110011001010010111011000
11111111100100111100100000100100
11111111010010011010111010110110
11111111011100111100011100001100
11111111101110010101111011111010
11111111001010111100011101101000
11111111111001110001111011010010
00000000000000001001101000001001
00000000000000100111111110110001
11111111110100101000101011000100
00000000001110110101110000110111
00000000100001011000011100110001
11111111110011000100010111110001
00000000011010010101000001010101
11111111111001111000101001000011
11111111011101011000011111111011
11111111011100000101000101000011
00000000010011000001010110111111
00000000001101111010100110111000
00000000000001001111111111111001
11111111110001101000010011000010
11111111110100011100011001111100
00000000000110100011100001011010
11111111100100101010110000000111
11111111110010011011100100110101
11111111100010011100011011100101
00000000001101101110110010100111
11111111101010101000100001001010
11111111011111010111000110111110
11111111100111000100001000001001
00000000001111000101101000111111
11111111110101110100011110011000
00000000001101111000001111101110
11111111101111111100011011001111
11111111101110101001000001010001
00000000000100111100110001110111
11111111101111010000110101010011
11111111110100111110110010001000
11111111111001111000101000110000
11111111111010111100101111010111
11111111110001010110111101111011
00000000001101011100000100110011
11111111101010011101101101000110
11111111011101011010000101011110
00000000010110101001111011000101
11111111111110010101010000011011
00000000010011111000011010010110
11111111111000110010111101010111
11111111100110110010101000110001
11111111101110111000000010001000
00000000000011100110010111010111
11111111111001100111011011111110
11111111101011111011000000000010
11111111101111100101110100110100
00000000010010001010100111111111
11111111111001111100111111100011
11111111101111110010001100010010
11111111011101010101011111001100
11111111111000000101111101001110
11111111110010110110100111111100
11111111011001010110010000110101
00000000010100011111100110111010
11111111011111010001011000001100
11111111100000000011010111001010
11111111111100000100010001000011
11111111111001101000100000000001
11111111101100100101001100011100
11111111111000100111010001010010
11111111110001110100000000111110
00000000000011000010110110101011
11111111110111110101000110011010
00000000001100000010011001111011
11111111110100111000110111011111
11111111100111010000110100011001
11111111101010001111011111100100
11111111101100111111001000101011
00000000000110101111110110100111
11111111110010001100110001001101
11111111101010110101101011101010
11111111011110000101010101000100
11111111101110111000101110110111
11111111100010100110111101110100
11111111101001100100011000010010
11111111001100001101000110110011
11111111101111100000010111010110
00000000001101010100101100011011
00000000000010101111101001000000
11111111010100100110111111110001
11111111110000000101010001001011
11111111011110101000000110110100
00000000001000001000111110010011
11111111011110001000100010001001
00000000001100001110110101100001
11111111110110010110011110010101
00000000000011100111111111100100
11111111101100101011100110110100
00000000000001000100111001101010
11111111111101001010110001110000
00000000001011011011100011010111
11111111101111111110110011000110
11111111110110111011011101100000
00000000000111100000100010010001
11111111101001111100001100001000
00000000011110111000111011101101
11111111111110100010010110010111
00000000001000111110100000100110
11111111110100001111100101110000
00000000001111000101001100110011
11111111101100111010100100100110
11111111110010111101010100010000
00000000001101101001110110011110
11111111100001100111100010011110
11111111010111110110011011000110
11111111111101101011100100100011
11111111011011011101000010000100
11111111111101000101001111100111
00000000000011000101100110000011
11111111111111111001010011101010
11111111011110010000100011111001
11111111101011000100111010100011
00000000010010111010111001111111
11111111111001100111101001111001
11111111110110011110100011011110
11111111101000000100010111001111
00000000001111000001111101101111
11111111100101100010101000101101
11111111100110010101011100100011
00000000000011000111110111000100
00000000100110001111110110001011
11111111101110110010010111000111
11111111110101101000010000010111
00000000000010101100111110000100
11111111111111100010000110111110
11111111110111111110100110001000
11111111010110000000110110100010
11111111011001110010101101011000
11111111100001011001101100000000
11111111011010101010110100011000
00000000001000111011100000110101
11111111110000100110111011111110
11111111100010100010111110011110
00000000000111110000101100111110
11111111101010111101001001000101
11111111110011100000011101001101
11111111100010000110101111110100
00000000000001010110110110011001
11111111100011101001000101101011
11111111110011111101101100101110
11111111101011110100110100110000
11111111101100111110101100010100
00000000001011011011101010100010
11111111110110001111110000000101
11111111111011001000011001001010
00000000101101010010100111100001
11111111100100011101010011101101
11111111110110010011010111101100
00000000010100000110110100110010
11111111100001001001101110010100
00000000000111011100110011100010
11111111100001000111010101001110
00000000010100001000100111010011
11111111111001000010110001011001
00000000011001000000000011010101
00000000001111101110010111110010
11111111111100000110011101000110
11111111101000001011000110010011
11111111111111001001100110001111
11111111111000001101101001011001
00000000000000001111111001011111
11111111101001100010101101100000
11111111101011011111010100010000
11111111100101001101010001011100
11111110111100010001111000100111
11111111101001001101110001110011
11111111111110000111111001100101
00000000000110111010010010001000
11111111110001000110110111101111
00000000010001000110010010001111
00000000001100010001110101111011
00000000000010110101011000010010
11111111101010010101001000000011
00000000001010110111010001111100
11111111111010101001011010101000
11111111101111111111100001000111
00000000010101111101000101001101
11111111100000010111101001110101
00000000000001101011111101000110
11111111110011101111100110110100
00000000001100001101111110111000
11111111100100001110001000110010
11111111101111110001110011001001
11111111001101000111101011101100
11111111101111001100110000111011
11111111101011111000000011001101
11111111111000100100111111010011
11111111011110001001110000110100
11111111111101000101110001111100
00000000011011001011111011011001
11111111000011110110001100100010
11111111100011010100011101011011
11111111101000000101101111011010
00000000000110111010110001111101
11111111111101000011110101111101
11111111110100011011111100100100
11111111111011010011100001111110
11111111110010010110111001101111
11111111110111000111110011000010
00000000011000001001111000010010
00000000000010011010000111110000
00000000011111001000010000010111
00000000010111010110101110111101
11111111110001110110001010110010
11111111110100110101100101010101
11111111110000010100001001101110
00000000000000000100110000010110
11111111010101000111001101101111
00000000000011001001111011100011
11111111101101110011101101110001
11111111111000111110111001111010
11111111101010001011011011000101
11111111101101101000001110100011
11111111010111010010000110101011
11111111100111111001100101100000
00000000000100110110010001000111
11111111001001101000011100110101
11111111011000111011001110000111
11111111011101001110110111011001
11111111101100010010110110100101
11111111010101101110011111000000
11111111100111111000011100111010
00000000000010010010101101001101
11111111101001000001001111001110
11111111110010100101111000000010
11111111101101010100011000011001
00000000011001110001111101000011
00000000000101101011000001111100
11111111101110100011001100000111
00000000001010011111001100100010
11111111110010001001101010110010
11111111101010011111110000001101
00000000001100010010011001101101
11111111010101001100101000001001
00000000001101101100010011110110
11111111101010000001101100101001
00000000101100100011101101000001
00000000000111011000110111001110
00000000000001001010100001111001
00000000011100111111101011100110
11111111110010010101110101010110
11111111100001011110110101001100
00000000001001100110011111010011
11111111111111001111101010100110
11111111100111011001011111110101
11111111101001011100001110110010
11111111011101111000100001101110
11111111100001110100101010101100
11111111011111011000000111011000
11111111111111100110010101111000
11111111101000111011000011101000
00000000010100001010011100010011
11111111101000111101001010110111
11111111101100111010100110110100
00000000101000000011001011111111
00000000000101111100100111000111
00000000001000000100011110001101
11111111111110111011001111000001
00000000010000010110110001100010
00000000001101010011001000110011
00000000000110011110100111101010
00000000010110101000111001100101
11111111011000000100101010110101
11111111111101101000110111110110
11111111110000101000101110101001
00000000000111010111011010101001
11111111011000011100011000001110
11111111011011011100010110010001
11111111111101111101001010100100
00000000011010011111011100001111
00000000011011101010000101110000
11111111001111101010110000111101
11111111100000110001110111000110
11111111100111000000110000011100
11111111101111010100101111100000
00000000010001011110000000100011
11111111101101101011110000000100
11111111110000110101100111011110
11111111100001001010111011111111
11111111111001010010100011000010
11111111110011111001111111001011
11111111111110010011001111010010
11111111100011010011010011010111
00000000010000101100110100111010
11111111111010110000110110000011
11111111001100011101010010000001
11111111111110100110101100000111
00000000010001011001011101110110
11111111101111111101100010101010
00000000000010101110111000111001
00000000000011101000010000000000
00000000010010011110110000000100
00000000001010111001001100011101
11111111101000111001110111000101
00000000010000001011011110011110
00000000000110111011110101000110
11111111100101010101000110100101
11111111101010011111100011100000
11111111110111000011011010011101
11111111100110000001010111100111
11111111111001111111010110101101
11111111010110110001010010101011
11111111100111111011110010000100
11111111111001001101001101100111
11111111111111100111111100111111
00000000000100101011101001100100
11111111011100101011010010100111
11111111100000000001001100110101
00000000000110001010100101111110
00000000000100100111011111000111
11111111101010001111110011001010
00000000010111001101101101011010
11111111110110111000001101110111
11111111101010000011101000001101
00000000001001100100111000011110
11111111101111100110101010011110
11111111010001000101101111101110
00000000000000001110101111101011
00000000011110111110010011011100
00000000010011001100110101101011
00000000000110001110101110100100
11111111111000100100101000001100
11111111010010100000000110010010
11111111111111011111000010111111
11111111001011111001000001010100
11111111101111101111111001111011
00000000001110001100100110000110
11111111100110001000110001111100
11111111010001101010111000110101
11111111101010100001001110010000
11111111000101100110100010101011
00000000000001001100010011110010
00000000001000010000101011100110
11111111110110000001000011011101
11111111100100100101001010010101
11111111111000110111110110110110
11111111110011001000110110001010
00000000001011000010010000011011
00000000000100010111110110010110
11111111110101111100011111101100
00000000010001000100000010001100
11111111110110100111000000011101
00000000000100010100010001101100
00000000000110101110110000101000
11111111111100101100101101101001
11111111111010101010000011101010
00000000001000110010100111001010
11111111110110101100001110100100
11111111111101101000011001001011
11111111111101010000101000100101
11111111111101111101001110110011
00000000011010000010010010001100
11111111101110000011100100001100
11111111100111001010010001111000
11111111110000100001000101010000
11111111101000100111100010001011
11111111101100110011001010100101
11111111100000010110001100011011
11111111101001110110011010010110
11111111101111111011110100000000
11111111100000101110000000000011
11111111100101110111110100010000
11111111110110000100110000101110
11111111101100001011001100101010
00000000010111000010011100000100
11111111101111100001110001101011
00000000000110001011101001111010
11111111101100011111110010011111
00000000000100101110011011011010
00000000001100100001100100101100
00000000100110001110000010111101
11111111101010100101010110000001
11111111011000110110110010011010
11111111111100000011011100001110
00000000000110100001111110001000
11111111111111001001010011100010
00000000010010000100110010000110
11111111111010010111101110101110
11111111111110010111100110001000
00000000011001000011001110011010
11111111111100110010101011000110
11111111100111010001000101001011
11111111101100110111010110010100
11111111110100100011011011010110
11111111100100000000100100100101
11111111001110001111001100001101
00000000000001100110111001110000
11111111111101010110011100011001
11111111111101101100111010000010
00000000000011101101010111111000
00000000001001011111000011101011
11111111101111001111001101001100
00000000001101111111000010011011
11111111101100101110110011011011
11111111101001011110100110011111
11111111110111000010010010001001
11111111100111101101100000011011
00000000010010011101111010101001
11111111110011100111010110100010
00000000011010001010110011011101
11111111111111010101111001101111
11111111101110111101101000110000
00000000000000010000001011110011
00000000001010010001011011010100
00000000000010001100001100000101
11111111110000101100010000001111
00000000011001000010000011010111
11111111110001011111111010101001
11111111111010010011000001101111
11111111101001011110000000011100
11111111010011000010010110010010
00000000000000000101101111100000
11111111010101010011110011110001
11111111101101111111000001011111
11111111011000100101000101101000
00000000011011111110100110000000
11111111011010100001001101111010
11111111111001001111000010110110
00000000010111100001010111001110
11111111111101001111110011001100
00000000000111111100000110001000
00000000001010101000110010011101
00000000010001100101101001001001
11111111101111110100100101101000
00000000100001000010001011111010
11111111111011011111000100010101
00000000011100011001010101001010
11111111111011010101010010100101
11111111111100101011110011001010
00000000000110010001001111101011
00000000101001011001100101011011
11111111111110010000111001010001
11111111111100111001011110111110
11111111110111010101101011010101
11111111100100011010001011111001
11111111111001010110110001011010
00000000011010110000101101111011
00000000001011100011010001100000
11111111111000000111101110010010
11111111111110111011101010101100
00000000000111101110010101011100
00000000011000101011010011100111
11111111101011000010101011111000
11111111100101100000011010011100
11111111111101000100011110111000
11111111110111100010101011010100
00000000011000101011001001101000
11111111101111011101110110111101
11111111110110111100010001011011
00000000100101011000011000101001
11111111100001111001111100000000
00000000011111001001000000111111
00000000001000111111110010010110
11111111111101100111010110101100
00000000010110101001101001011110
00000000001110000000001010100110
00000000010010111111011001011100
11111111111100000011101001000110
00000000000111111011010110001011
11111111101111110101010011011001
11111111110101110110110110011100
11111111110011100011000011000111
11111111101110101101111000111011
00000000001000011001011111000001
11111111101011010011100100000110
11111111110001101010111101110001
00000000001010101100110011100101
00000000000000111010110000001101
11111111111000111011100110111111
00000000000101110110111010101000
00000000010001001110001001111100
11111111110111011010111110101011
11111111101010100101110111110100
00000000010111011100110100110000
00000000001010110110111100011001
00000000000011000011011111001111
11111111100011000101001100010110
00000000000011111001001000011011
11111111101001000100011100100000
00000000011011010011100111010100
11111111111111101110011101011110
11111111101110010000000110111100
11111111101111001101111001001111
11111111110001100110011011010011
00000000001000101001001001010010
00000000011101110110011110001010
00000000011100001000000000001110
11111111111110000010111010101100
00000000010111010010001101110110
11111111101110101110001011000001
11111111101010101100000000010111
00000000001100101101010100001110
11111111110111010001111100111111
00000000011000000100100100001000
00000000011011101011110100000000
11111111101101101110110111000000
00000000001000110001101101100011
11111111101110101100000011100010
00000000001000111100011010101111
00000000011001101100101100110010
11111111110001101001100011000100
00000000101011001111010100011100
00000000001011100010001110000010
00000000000011010010001000111010
00000000000100111010100110011111
11111111101111110100001111011101
11111111111100011011100101010011
11111111111100100101100100010001
00000000001000000011111110011010
11111111110110100100001010001010
11111111111011111100100111010110
11111111111000010010011110000110
00000000000001101111011110011110
00000000001010010001101101011111
00000000101001110111000101101100
11111111110010111100010010001000
00000000001101110000100011010001
00000000000110100101001101110011
11111111011001100111101101111101
11111111110000101101010000110100
11111111110111000011110100000010
00000000000000010111011100110100
00000000010110100011011010010100
11111111101111010011001011000001
11111111110011111110001000111110
00000000000110100100001101011110
00000000000001001111000111111100
11111111111111111011110110001000
00000000000100000000100101010111
00000000000000100000011100100010
00000000001101110011110010011001
11111111111101000111111001011000
00000000010010010110001111110011
00000000000100100011001000110000
11111111111010000101001110010111
00000000100110010100000111000000
11111111011101110101010100101000
00000000010011111011010010001100
11111111111101000101011010101010
