11111111100011111110110001011011
11111111101111110010001100010011
11111111110100110101001111100001
11111110101100101010001001111001
11111110100101010100110100100111
11111111111011110001111000011011
11111110101010101011101010001100
00000001001101000110100010110001
11111110110101111111111010011100
00000010001100000000100101000001
00000010100110100111000110100110
11111110010111110100010010011101
00000000010000001100010001100110
11111100100010110110101111010010
11111111000000101101011101111011
11111111101101011000010111000000
11111111111100110110011010110100
11111111111000000001111001011110
11111111101010011000000101101011
11111111010010111001100011111101
11111110110110010111101111011000
11111111101011110100010101110110
00000000101100011111101000111001
11111111011010110101110100011100
11111111011010111101100000001111
00000000100000100001010011100000
11111110110110010111101111001010
00000000010011000111011000000011
11111111100101010011010100101011
11111111000000110011101111011100
11111111010001011111000101001001
00000001011111010110001000000001
11111110111011100100100101101000
11111101010101100010010101101001
11111111101001101011111101010000
11111111010100001111111101011010
11111110001100001010011001110111
11111101001001010100011000110000
11111111011010100110110010100100
11111100110011000000110000001001
11111110101101000100011010100001
11111101111011101111010101100100
11111111000010101011111101011110
00000001011000000100000101111011
11111110010011111110111100110011
11111110101001011001001101000000
11111111111011101010110101101101
00000001000111110101100011100001
00000000001100001010010110101100
11111110110000100100110111011010
