11110110110101101011000101110011
11111101001100101100110110100101
11110111100001000001100111101100
11111110011010101011110001010100
11110111111100010001110101111101
11111011000001011101100010001111
11111110001111101110101010110001
11110111111000110100100100011000
11111000101100100111110100101111
11111101101101100001101101111111
11111011111001110101101011101110
11111101001100100011111011101100
11111110001100100111010111010101
11111011010110100111000011100100
11111000010010010000011011110000
11111100001001101111110011011011
11111101000101010001001000010101
11111101001110100111101110010110
11111110111100101000111011011000
11111110010101001100110000010011
11111110111001001011100001110010
11111110100101100010011001100111
11111001001011101011100111010000
11111110000110011110111101100001
11111000101110001001000101011001
11111111001000100110100100000101
11110110010110100010010111100010
11111111000000101101000101111000
11111111000010000111011001000001
11111101100100000111000000000100
11111000100010010111100101010001
11111110000110001011001110110011
11111110101100010100110111010011
11111011011101011110010101100011
11110101110111100101000101101000
11111110011001101011011001000100
11111011000101000001010010010011
11111110011010001001111010111001
11111001111000001111110100011010
11111100001010110000100101000100
11111110101111100100111111111100
11111110111010011010010000001100
00000000000100100000100111100100
11111110001101101101101010111000
11111101101010110011000100000010
