11111001010000011000110100100101
11111111000101111010100100100110
11111110001001100001011110011000
11111101010110101101111101010010
11111010111001011011100010110101
11111100001100100011111001100100
11111110000101101111010100000111
11111000001010010100111111011000
11111011100101001101011110001010
11111101000000100000010001111011
11111100111111010110101011010101
11111110100010100001010101100100
11111111110000101000110101010001
11111101001000111010010000111011
11111011001000111000111101110001
11111101111111000111001011011011
11111110100111000011111011011101
11111111000111001001110001100110
11111110110011100000100100110100
00000000001001001001101010001111
11111111000111000011110100011101
00000000001111001001000100000001
11111100100011100010011000001011
11111100001100101101100101100111
11111001000101000110100100011000
11111101110010011011001100100110
11111000001100110101111111100010
11111101100010100110110010011100
11111111001110010111101011101010
11111101100110111010100100110001
11110111010101110011110100001110
11111111000001101110010110000010
11111111001111110010100001000011
11111101101011001110100111100101
11111001101110000010111001000001
11111100110110101100110001110101
11111001110011110010011111001011
11111110000011110011111100000111
11111001010100111101111101111001
11111011111000000111010001000001
11111101010000011001100011001110
11111100011101110111100001001100
11111100111111011110101100101010
11111111011011001010100010101101
11111111110110011010111101010010
