11111001110111111001111011000011
00000000011000111001100001110111
11111000011111011000110111000110
11111011011110110010101101110110
11111000011100110101010110011001
11110101011110011100011101011100
11111111011011000100011000001000
11111000010101110010010111111000
11111000111000101101000001111100
00000001001110000001111011110111
00000001111001011000100011001001
00000000110110010010001010111110
11111110111111100010000110001001
11111111111010011111111111010100
11111000010100010101011000101110
11111010000101101000110010110010
00000001001000010111000001101101
11111110000110001101010010111000
11111100011001011010100111111111
11111111110001000000010010011000
11111101010000100110100000000010
11111110111001000110000000001111
11111001100101011000110111010000
00000000100110101111011111101010
11111000010000011110010110100001
11111111000100101011010101011100
11111000001000110011011010111101
00000010111011110111000100011110
11111111111010001110101011110100
11111111100011110001001110100001
11111000000111010010111000110010
11111110110101100110111110100011
00000000101011110000000011000100
11111010100010110001011100001000
11110111111011011011010110000000
11111110111000010110001101000011
11111001011101011110100010110100
00000000110011001000000010101010
11110110101101111101001001011000
11111001010110001011000011000000
11111011111011100010100101011111
00000010000101011100000010011111
00000011010000011110100110010000
11111110110001110010011010110000
00000000101110010010100001000110
