11100100000111111100010010011110
00001111110101101101110010011001
11011110100111010001110100001010
00100110000000111011100001000000
00110111010001001100111001000111
11110101010011100000100011011101
00001011001101000110110001010110
10111000111000010110000011001001
00000001101100101111011011000011
11101101110001000011011010001111
11101011100110110110011010111101
00000000000011111111111000110010
00001011010111001000010111001100
00011011010111111101101000110110
11011011111100010101001111011011
00101100000100001110000110010001
11101110110001101010010100110111
00100111110100001010001001000000
11111001101001110100111100000011
11111110000000001001010010001110
00100010011101100100000011111110
00001101111011011111100011011010
00010010001001110111101011010111
11010100000011101100111011110110
11100001101110111000110110101101
