11111111101000001001110010010100
00000000011011001000111110100111
11111111000011010100001101001101
00000000011000001100110011000000
11111110110100111000100000110110
11111111011000000011101101010000
00000000001010110101101110110010
11111111010100110100111011010111
00000000100000011100011100011010
11111111101101000010010011110000
11111111111100001001111110001101
00000000010101101010100001101101
00000000101100011010011101000000
11111111111000001100101001000100
00000001000011110110000100001110
00000000011101110101001001111101
11111111001100011001001111000100
11111111001011101001001011101111
00000001000111000111011110110001
11111111110111110001100100011010
00000000100000011000011100000101
11111111111100111111001001010011
11111111101001110010011100111101
11111111111001001100111110011101
11111111110000101101110010101010
11111111011000001010111010000101
11111111111101000000101101101011
00000000111010001111101010001110
11111111101001011000011011110110
11111111100111111111010111000100
00000000001000010000001001000000
11111110110110110000100110100110
11111111101010001100101111001010
00000000100111101011111111001010
11111110111011010001001010011101
11111111111001010110101111100111
00000000001010011010011110101110
11111111101111000001001101101010
11111111110110110010010011000101
11111111101001011011110011000100
00000000110011011011111100111100
11111111011111000111000100001101
00000000100011000111011001010011
11111111101100001111101100000111
11111111111111010111000011001010
00000000101000011011010111111111
11111111000111000000100001000011
00000000011010001111110110101011
00000000000011101001110000101000
00000000011010010100100110101101
00000000000011011001111110011001
00000001000001110000111001010111
00000000001100001111000110111111
00000000011101011011001001010001
11111111101111001101001001101100
00000000001010110111101110001001
11111111100110100110100100010101
00000000101100101100110011010001
11111111011011111101001111011101
00000000001001101010000110100110
11111111110000100100101011001001
11111111111111010000000101010011
11111111111100000111000010001000
11111111100010100010110100111001
00000000010010100111001010001101
00000000011100011111011011110000
11111111100000010100110011111101
11111110111100011110011010000101
11111111000001110010101111000100
00000000111101100010100000111000
00000000001001011011101010101001
00000000010100111110011011000011
00000000010010110001100100010010
00000000010111110011000000000000
00000000110111110111001011001110
11111111101010101111010110110001
00000000011111100010101011011111
00000000010010011100110000001101
00000001000001000111111100011010
00000000101110100111010010110100
00000000000100101100000000001111
11111111100100100011010111100100
00000000010011111000010100111101
11111111101111101011111010101001
11111111100010001011111111110011
00000000001000011101011100000111
11111111100101110110000110110100
00000000101010010000010111110100
11111111100010110101010101110111
00000000000111000010001011111101
00000000101010000001100101101010
11111111110010110111010110111001
11111111110101001101001010111011
11111111111001010100010010110111
00000000010000001110010110001000
00000000110011000000011100001000
11111111101101110011011010110000
11111111100101010000101001001101
00000000001101011110010100111110
00000000001110100101011001001001
00000000001110111101100111111011
11111111000101100001100101100110
00000000001011111110011110111001
00000000100000110101101001101110
00000000000011010011100111010010
00000000110011111010100010001001
11111111100100001011010100011101
11111111001110100000010010111010
11111111111001111010110001001010
11111111001000001000110010010111
11111111110011011101000111010001
00000000001110001111100000000100
11111111000111101010001011101000
00000000011111100111111111101100
11111111110110100111010010110100
11111111100001101011101001111100
00000000011000001000000000111100
11111111101001011110011111101011
11111111100111000101100000001110
00000000000000010010110111000011
11111111001111011011000101001011
00000000000101011101100101010000
00000000100001010011101010101101
00000000001100011001000110000011
11111111111010011100101001100011
11111111110101110000101100001011
11111111001101100101111011011100
00000000001011110100101010111001
11111111011000111100000110110010
00000000000101011111001001010101
11111111101100010110101010001000
11111111110110000011111000011111
11111111111111111001101101101011
00000000011110100110101001010010
00000000000101101011010110111100
11111111111100000010101011000010
00000000010100011000111100110110
11111111001110011000011001010101
11111111110110010011001010010011
00000000000100111110110110110001
11111111011000101101100001111001
00000000010000000010111100110010
00000000100001100011000110000000
11111111001101101111001110001011
11111111101110001110100110001011
11111111101101001000111001011000
00000000001110011001010100011001
00000000100111111001111101101000
11111111000011001111010101111100
00000000101000011010011011010100
00000000001010111000010101111111
00000000000101011100000000101000
00000000001101001011101101010111
00000000010011001000000010101111
00000000000001110010010001001100
11111111101110001101100110000010
00000000011010011110010001100010
11111110111001000011011010111110
00000000000111100011010000000001
00000000010101100011000111100101
00000000000001110000000111110010
00000000001010101100001010010011
00000000001011000100111111011010
11111111011001011111100011001111
11111111101100001000011011000100
11111111010110011111001001010010
00000000001000001011010111010110
00000000001010010000110100101001
00000000110111011110101111111101
11111111110111111000101110000000
11111110111101010101110000111010
00000000000111000101101110111011
00000000100101101100010010110100
00000000000001100111000111100111
00000000110100010011110101111111
00000000000100000001100100111100
00000000001000110010111101001100
11111111111001111010101000000000
11111111011001111011010001000010
00000000000101001001000100000001
11111111110101001110110010100001
11111111010110110001011100111110
11111111011101101010100011001000
11111111111101100101100110011011
11111111000111101000111100011110
11111111110010110001001111100000
00000000010000011010010110001101
11111111110001111101110101100011
11111111011100001001111010101010
11111111101011000001000110010010
11111111000110010101000111011101
11111111100001101100000001000101
11111111000000011111101011100000
00000000010110101110100000000000
00000000100110000001101111111010
11111111111000101011101100010011
00000000001011100010111100110010
11111111001110001011100101000011
00000000110110010001101010011111
11111110111110001001111001010110
00000000101001100101100100111010
00000000001100110110011010111100
00000000000110111000011111000101
00000000010110000011000101101010
00000000101010001111000110010111
11111111110110011010001011110011
11111111100011100100011110101110
00000000000010001111110011100010
00000000111010110011101100010011
11111111110100010101001111101110
11111111011100011011100110011110
11111111100001000100001011001000
00000000010011011010001100011100
11111111001000011111001011101001
11111111010101000001100100011010
00000000001100010100010011010101
00000001011010111111111001000011
11111111001010000011010101011000
00000000100011110001110110000111
11111110101010111001010110000101
00000000100010100111101101111010
11111111111100011111111001000000
00000000100000000000100000110011
11111111110100000000000111010000
00000000110000110110001000110001
11111111010100110010100110101010
11111111111000111101001100001000
11111111101011111001000100100101
00000000100101110101000001000001
11111111111110100010000101010111
11111111011100001010111000011100
11111111111101001011101100100110
00000000100010000101011000100111
00000000100000111101010111000111
11111111010011010110011111011101
00000000011001101101111011101000
11111111110100001011101010101101
11111111010000000100100010100111
11111111101001000110111101011010
11111111101000011100000010100100
00000000100010101101111000101110
11111111110001100010110101010000
11111111100100101110011011000101
00000000011010111110110100000000
11111110111111001001010000000101
00000000000101011100100010100011
11111111001001101000010111111011
11111111100111111111111101001000
00000000100001110010110101010001
00000000000111010000100001001111
00000000011010000011101101101000
00000000110000000110110101001110
11111111011010100100100001110001
11111111100010101010011000011110
11111111110110000100001001010100
11111111111000000010111100101101
11111111101110110111101001011001
00000000001011111001100111010110
00000000001001101110101110100111
00000000100001100100010101011001
00000000001000100011010110000001
00000000010000010010011011011011
00000000000011100001110111111001
11111111011000011100001000110111
11111111100110110001011000010000
11111110011110011000101111101011
11111111011011010010001011110101
00000000011011101110000101011100
00000000100111101100100110011111
11111111101101101010110011001111
00000000001100010001010010000100
11111111100000111001001001110100
00000000011000101001101000111001
00000000000011000100010100000111
11111111011101111000001010010101
00000000000100100000111101011111
00000000010011111000110101000000
11111111011110101001110101111100
11111111111110010001011001000111
00000000010100011110110010111110
11111111010111110110110100101011
00000000010100101111011101001110
11111111010001100001001100011111
11111111011011110100000110101010
00000000001101000101110110000100
00000000101001111011000101110011
11111111100011001111100001010000
00000000010111010110110111101100
11111111110101001010110100011010
11111110111010001110000001010110
11111111111000101110011111010001
00000000010000010111000111110000
11111111111010001100110111000111
00000001001000110111110110000010
00000000000010011010000000100110
00000000000001110100111000110110
00000000011011110110011110001000
00000000101010011110100111100111
00000000111000111101100000011011
00000000001001111101011110110010
11111111101010110010101010100110
11111111011110111001000010001100
00000000011010001111001111010101
11111111100100011011110011110110
11111111100101011000110100100100
00000000111000110000001011111000
11111111101100000011010110011110
11111111100000100010101100011010
00000001000111100001101100010001
11111111111010010111110010111110
00000000001100100110100011011100
11111111111000100000111101010000
11111111101101101111110010110101
11111111011111110111010000101010
00000000010000101111000010000110
11111111110111111111010101100001
11111111101100000110011001011100
00000000000001010110011101010001
00000000101100110001011001100000
00000000000011010011010000101101
11111111100100000001010111110000
00000000001001011101011110010001
00000000011000001100001110100010
11111111101110000101111000111011
11111111110010010010100011101010
00000000000110011011101000010001
11111111011000100101000100100010
11111111100101000101101011000011
11111111000111001111011011101101
00000001011001100110101110010110
00000000000100110101010000101010
00000000101000011010011010010011
11111111101101001110101100011110
11111111100001010001001100001111
11111111101010110001111010001100
00000000001001000111011100111010
00000000110010010010010111111100
00000000011010000010101111001000
11111111110100110111111000001011
00000000111100000101110000011001
00000000001010101011011101101010
11111111110110101110101100001001
00000000010101011001000111100101
00000000001011110111100100100110
11111111001111111001011110100010
00000000101110011111000000100000
00000000010110111101010010110011
11111111110101100100101001110010
11111111011010011101100011011010
00000000000100101010101010011010
00000001110011100110010011000100
00000000001011001001011110000100
00000000101101011110011000000111
00000000001100000101000011000011
11111110110111000000110101010100
00000000001111001111010101110011
11111111101101011001101010000100
11111111101100011110110101010010
11111111101111110111011111110100
11111111100000011100101001101101
11111111100001000000111101010101
00000000000110100001100101110000
11111111110001100001001100110001
00000000011101101000110010100001
11111110011111001001100111010111
11111111110000000110011001101110
11111111101110010110010100001101
11111111111100100001110101110001
00000000010001110110110001000110
11111111111001000100111111000011
11111111101111011111001011110011
00000000001101101101001101010011
00000000011100010111000111000110
11111111101010110011011000010001
00000000001101100001111110100011
00000000110001001011000010100011
11111110101001100100001110011011
00000000011001100011001001011101
00000000101101001010110011010000
00000000110111100011111011110010
11111111100100000110111010111011
11111111010110111011001100010000
11111111110010110010110111010010
11111111111010100110010001110111
11111111110011110001110010100011
00000000010010111001110010011101
11111111010010001101111101010101
00000000000100010110011011110100
11111111011011000000100100111001
11111111011110000110111000011110
00000000000010111110110000101110
11111111000101100110111111101111
00000000111001001000100111000110
00000000000011000111010001000001
11111111011110000110011011110011
00000001000010001100000110010011
00000000100111100110100111011101
11111111011100100001001110000010
00000000010000001110010010001001
11111111011011101001000110000010
00000000001001111100101001111110
11111111000110100001101011101001
11111111011100000110110101010000
00000001010010110010011000101101
11111110111011001100110100000001
00000001000000010110110011100101
00000001010111111110001101010001
11111111101000100101100000101100
00000000010100111011000001111001
00000000011111010011100111000000
11111111110011010101100010000001
00000000010011110101110100001000
00000000011001110101101110100010
11111111011101111111011011100100
00000000101000000110101000011001
00000000010001000110101010011100
00000000100001001000101110110100
11111111001000110110100101100010
00000000010011111011010101011010
00000000001101101110010101100000
11111111011010000011100001011011
00000000011111100101101010100010
00000000101010111111001110101000
00000001001010001001100010110100
11111111110000011001010010110100
00000001001011001101001001110100
11111111000111000111000000000000
11111111010001100101110001101110
00000000110110100101000100010110
00000000101110010101000011010100
11111110111101101100111101101101
11111111101010110101011101000011
11111111100000000000111011110011
00000001010111100011100001001011
00000000001011010001000101100100
00000000101101111000100001000011
11111111110101101111001110101010
11111111111110001010001110100000
11111111101101101110101111000011
11111111010100001111111000011100
00000000101100110001110101000010
11111111111101001100110110000111
00000000010011100100101011001001
11111111111011001101010000100100
11111111110101000110101100101110
11111111101001110011101000110000
11111111010110011101110100101000
11111111000001111111111100101110
00000000001100100101110101101101
00000001011100100110111010010010
11111111111010110011010001001110
00000001101001111001110011001111
00000000100101010000110000101010
11111111111011101010110001110010
11111111000110001111001100001000
11111111110010010111011101110011
00000010001001011110110011000011
00000000100101100011111000111100
11111111111000011001110011111000
00000000100101011000100110101111
11111111010001000010111010101101
00000000100101000001100100110100
11111111110111110110101000011111
00000000110100000100111110101001
11111111011000001001100101000111
11111111001011101000101110011010
11111111101010111101000100011010
00000000100011111100111010101010
11111111001110001011010000010011
11111111010000001100100011101011
00000000011011000110101110100011
00000000010110110111110001010110
00000000101001111001110011110011
00000000011110100000101001011001
00000000010001000000010111110101
00000000010010011001011100011101
00000001000010011001110111101010
00000000011101100100011010110000
11111110011100000011110001010101
00000000101011011000101100010011
11111111111111110101110011001110
00000000111000011001110110100000
00000000000010000100010011111101
11111111111000111111010010001001
11111111111010010011000110111001
11111111100101101110001101100110
00000000010010111110110100011011
11111111000110110111010110001001
11111111110101110010110111001010
11111111101010001010110010101110
11111111110101000110010111010011
00000000000011111011011010000100
11111111100101111100001011110101
00000000011101001101011100001111
11111111010100000010010011110011
00000000001111011110101101001010
11111111111110010010011111000100
00000000000110011100011010010001
00000000000100100000011111011010
11111111010000111010111101111101
11111111000000001011011010001001
00000000100101010111011101001011
11111111110101100110101100000011
11111110101110001101011100100011
11111111001010111110101000111011
00000000000101010010010000111001
11111110110111111010001010110101
00000000101001000110100001110111
00000000010000010001001110110111
00000001011010101010110010010111
11111111101011111111011001111101
00000000011010001110011000011010
00000000000010110011001101000010
00000000100011001011001111011001
00000000000111110011000101110011
00000000000011010100110111100100
00000000010110011101010001011101
11111111110011001110000110000011
11111111101100100001011000100001
11111111101000100100100011101100
00000000010101101110001010100110
11111111110111011010111101001110
00000000000110010001000000100000
11111111111000001000111001100100
11111111011000010111010010111111
00000000000010111011011001011110
11111111111110001001101001000000
00000000110110001010111001001000
00000000110101110111001001001001
00000000010011011010110100001000
11111111011101110010111011101011
11111111000111101011100101010111
11111111101000100111000101000010
11111110111001100110011001110010
00000000000000110010110011110101
00000000000100110110110110110011
00000000011110011010100111011000
00000000001111001000011110001010
00000000100001011011000101100000
11111110111111100101101000011111
11111111001110001010011110100110
00000000011000000001011101100110
11111111110111011000000100110100
11111111010101001011010101010010
11111111110011110100101111111110
00000000011010111110111110010101
00000000100100110011010101000100
11111111011011011101011100101111
11111111111100010111100101110100
00000000101100011111101000110010
00000001010011100011101101101100
11111111101000110010101010100011
11111111111100011101000000100100
11111111111011000001101111110010
11111111111111110001001011011110
11111111010100011010001000000110
11111111100100010000001011010001
11111111110001010101000000000110
11111111111111010010010000000101
00000001110100011101001011101100
11111111100011101010111011111110
00000000011011111000001101111100
11111110110101110001000110010110
11111111100110110010101001101100
00000000101010110001111111011011
00000000000010111100100001011011
00000000110110101101101101010100
00000000011001110100000001101100
11111111001101100100001001011001
00000001000110110011100000010111
00000000011000100001011111010101
11111111101000110111001000100011
11111111101011010101011100001111
00000000011100010101100001111011
00000000000000001110001000101110
11111111101000110011001000010111
11111111110110101000000100100011
11111110100100100101100101000110
00000000010100010110101001010100
00000000001000111000011000101011
00000000000110010010011000001100
11111111011101110100000101011110
11111110110110000011101110001010
11111111110110111110111010111001
11111111011101100011100001011111
11111110110101000000001101110111
11111111100100010100011000101011
11111110011101101101100100101001
00000000011100010001101101111011
11111111101000110001001110100001
11111111111110100111100101110000
11111111011011001110100110101101
00000000100001101111010111111100
00000000001101100111010010110001
00000000100110101100011010000011
11111110110010000101100001001010
00000000010111011111010000101001
00000000001011011110010100100001
00000000000111000101000010010100
00000000001101001100110100001001
11111111110010111011111100000110
11111111100111110000011001100010
11111110111101101111011011001010
11111111100011110011110011010100
00000000010100110110111011011000
11111111110000011000111101000110
00000000100000011010010001001110
11111111110000101111101110001010
00000000001001010000001000000111
00000000111111001011101010101101
11111111011110011010011000001100
00000000000111001100101011000010
11111111111101000011001010110101
00000000001001000111010100101000
00000000011001101010000110001100
11111111101010000100100101101010
00000000110110110001011111101100
00000000101011111001110100010110
00000000100010011110111100111010
00000000000000100000100100011101
11111111100100100000010001100011
11111111100010100000111010011110
00000000111111010011001011110000
00000000001011100010010001100100
11111111100111100101011100100111
00000001001010111000000101011001
00000000011001010111011110100011
11111111100100101001111010010101
11111111111010000110101111101100
00000000011101110001111100110011
11111111010011101110111001010101
11111111010111111111100111110111
11111111001110110110100001110010
00000000000111011010110100011001
11111111111111110010001001000001
00000000001110110011111111001001
11111111101100100011100100011011
11111111001000110001000001000110
00000000000100000001110100111100
11111111000011110100110101100011
00000000001011111010001110001100
11111111010110001010011100010010
11111111111111111010011011010010
00000000010011001101100001110100
11111111011001111100000011011010
11111111111011000010111000010011
11111111011110001000101001101111
00000000000100100000011110101100
11111111111100010010111111001101
11111111110011101000111101000111
11111111001110001001100001100010
00000000000111000101010110101110
00000000100000000110111100010010
11111111000111001011111010111110
11111111111001001110101100111011
00000000011110010010001101100000
00000000011111100001000001010011
00000000011000001010011001111110
11111110111100001001111100100100
00000001011010111010010010001011
00000000000001011100001000111110
00000000001001000001011000010011
11111110101110010011011110010111
00000000001001100001111110001100
00000000100000111010000010011001
11111111101110011111101011001111
11111110111101110111100111011100
11111111101100010000110000010010
00000000010000001111001111101001
00000000101001011000011000101010
00000000100010000111001000011010
11111111001100100001101101011101
11111111100001011111111010001000
11111111100001010101110100110011
00000000011100101111010100101001
00000000000010101110111111010000
00000000011001001100111101110100
11111111110010000111101010001000
00000000010000111011101000110101
00000000000001000011101000100110
00000001000010001001110010110001
00000000011111010101101010110010
11111111111001010111100010010111
00000000011001111101100100000001
11111111100000000100010000101110
00000000011010101001000000010011
11111111101001101000101100100011
11111111110000001111100000101111
00000000010010010100111111010101
00000000111010100000110101000100
00000000011100101010100010111000
00000000110011100010101111010011
11111111101011011111011110111110
11111111100110010100110000100101
11111111101001011011001110100101
11111111001100001010110000101100
00000000000011010000001111111101
00000000000011001001010110001111
11111111101000100101010110101000
11111111100111110011110010001111
11111111101111010001000010111011
11111111111100001101101101101111
11111111011010100011001010011000
00000000000100011111011011010111
11111111111100100001010111111101
00000000011110001110111010001000
11111111100110001111101001101011
00000000101100101101001010100001
11111111111101101011000001001101
00000000011000010001100111100111
00000000100110111011111110001000
00000000000101010111110000101101
11111111000011100011110010001100
00000000000100100111111000101000
11111111101010001101000011100111
00000001011001101110110010110001
11111111101101101101011101000000
11111111010111110110001000000100
00000000110000000110110001001011
11111111100111010101011011011000
00000000010111010111011011011011
00000000110110001001110001001100
00000000000010010010111001001110
11111111001010000100000001001010
11111111010111000101110001111001
00000000100010011001110110000000
11111111111101010100010011110000
11111111011101001101001010010010
00000000001111100111101110101100
00000000101101010100010111100000
11111110110001000101000111011100
11111111001011101101010000111000
00000000011000011110010101110000
00000000011011000000101111100100
00000001000100110010011111000000
00000000000111111001110111010100
11111111010011101000010111010110
11111111101111101011111101011111
00000000010111011000000111011101
11111111011000010111001101101010
00000001100101111110010111111011
11111111100111001010100100011101
00000000001110110101010111011101
11111111100001011101110111001111
00000000011001001010010100100001
11111111011011011100101100100110
00000000110000010001101000100011
11111111111100100110100000010101
11111111101000110000100100110110
00000000001010001111110001111001
11111111000111011010101110011101
11111111111011101001110110100010
11111111001010001110011100000010
00000000100000111001101101111001
00000000010111100001111101101110
11111111000000000010010110111000
00000000011001000000111000110110
00000000000000000000001111011001
00000000101110001100010011100011
11111111000101010010000110001011
00000001000111011011001011011010
11111111010001110010010110000110
11111111001101100101111101001000
00000000100001100000000010001100
00000000100110101101010011000000
00000000011010110011001111011110
00000000000011011010010111001101
00000000010011011110111101101000
11111111100011000001111100011000
11111111000011011001011100101101
00000000011000100001111011100000
00000000010100100011100010110011
00000000110001001111101100010100
11111111101111101000011000001000
00000000000010101100111000100010
00000000100000001010001010010101
00000000000001101100111010100010
00000000000010000000100101000100
11111111101101011010111101011001
00000000110100101000001010010011
11111111111100111000001101001001
00000000000111100010010010010101
00000000010010010011001010001101
00000000001100011010101100101100
