11111111011101110000110010111000
00000000000111110100001000110110
11111111110010011011000011101101
00000000011111000111010011000000
11111111110100001100001000010010
00000000000000010110001100010001
00000000110000100010101001110100
11111111110100000110011000111100
11111111100010011101010000111011
11111111010100110101010110010110
11111111101001001100111100111101
11111111011111000110001111101100
11111110111111010011100111111010
00000000000001110001001111010111
11111111100000011001001011001011
11111111101111001010001100110000
00000000010010110000011101010000
11111111011000001000111000100011
11111111101001110001011110011011
11111111000111001100001000100001
00000000110011010000010011100000
11111111011001010001101101001101
00000000110110101000001011111100
11111111100101001100000000110101
11111111101111100100100000011101
00000000011111101110011001100001
00000000101010110101000100100111
11111111110011011100001000000110
00000000011011001010000111110011
00000000000000110000110011011100
00000000100000001110000100001101
00000001001001000110101000111011
00000000000110000111101000100101
00000000010110000100101111110110
00000000010001101010101011001111
11111111111110011110010101101010
11111111101100000001111100101001
00000001000101101001011000001110
00000000110111000111010010001001
11111111101011110101001110011100
11111111100010001110010010110101
11111111010111001101010011011001
11111111011011011010111101011101
00000000011110100011011000101100
00000000111100000000101000010111
11111111001111111111000111010100
11111111100010111011110101011110
11111111111001100110100101011111
00000000001110010110110011111010
11111111110001110010101110111101
11111111111111001010110001000101
00000000000010010001100001010101
11111111001110101110010111100110
11111111100110111110101100110011
11111111011010101110100011100100
00000001010011011001101111001110
00000000001111011101111110100100
11111111111011001001110100110010
00000000000100110111010000110111
11111111110101010101110111110001
11111111010100001101111011110011
00000000010000110011111001000000
11111111100010110110101011000010
00000001000000001001101111011000
11111111111011110100000111011100
11111111110001011110101001011100
11111110110110111100110101010110
00000000011110101111111000111011
00000000001100010111011101111111
11111111010010011000010110010011
00000000100010110111110101101010
00000000000110100110001111000001
11111111010001100010010110101111
00000000001010100101101011100100
00000001000110000110110110110111
00000000000010010011100100101011
11111111101101101010000001001100
11111111110010110000010110010010
00000000110110011101010001000000
11111111011001110010000000100011
11111111010011110111111000000011
11111111111000001101010011000011
11111111001100101000100111011110
00000000010010001011011111111000
11111111111011100101000110100000
00000001001100001011111001000000
00000001000000110111101000100001
11111111100011000100100110110111
00000000011010111110001001101110
11111111110001110111000100100101
00000000010010100111001001001001
00000000010110001011000111011011
11111111100101001000100110100110
00000000011100011010000111100101
00000000001110100110100111000000
11111111011011000110010110101110
00000000011110101011101001100111
11111110110101110011110000101110
00000000001000010010101010010011
00000000011001011101011001010001
00000000001011000101000011001010
11111101110101010010001100011100
00000000000101001111110010001111
11111110010000010011111010011110
11111110111100000010101011110011
11111111100111111000000110011000
00000000101000001111010111010100
11111111011010110000100110010001
00000000100011011101110100100000
11111111111010100100101101001001
11111111110001001000001110101000
00000001000000001101101111101101
11111111011001111110111010000111
11111111101001011000110010010000
00000000010010101111100010010010
11111111011110011010101110101101
11111111000100110011001110100001
11111111101000110100010001100000
00000000010001011110111000101000
00000001011001101001001110010101
00000000110011011001000010001111
00000000010011100111111101011100
11111111001010111010100011000000
11111111101110111000101000000100
11111111100110010000011110100100
00000000001011000010011110111101
00000000111001010101011111100111
00000000011001001000010101110100
11111111111000010001110101010001
00000000001001100111110100110100
11111111111010001100101011011101
11111110111001010100100000010011
11111111100001000000111111011011
00000000100111111010001110100011
11111111100111001010010111011011
00000000011111100101111100111010
00000000000000101011101110001100
11111111100100110011010001110100
00000000011001110000001110001001
00000000000010110111001000110010
00000000001010010100010101000110
11111111100010100110000111010110
00000001011010000111100010001001
00000000110001001010110011010101
00000000011000011101100001110101
00000000100011001000100111111011
00000000100110101000100100000011
11111111111000010000011001000001
11111111110000111100110011101001
11111111101100010001011011110111
11111111110001010011101100011101
11111111010100001011011000101110
00000000011011101111111001011011
11111111101000001101101001101001
00000000101001010100011100010001
11111111011000000000001101000001
00000001010100101010110110110111
11111111011001101000011111001111
11111111100100100110010111011001
00000000100100111001101110101100
00000000000101101100011111110100
11111111101010010000101011110001
00000000011101110101100100110001
00000000110001000101011010110000
00000000011111111000010110111101
11111111011110111101110100001001
11111110111101101000010011000110
11111111111100000100100100000000
11111111101101010010100111000111
11111111100100100101100111000001
11111111111111100000110000101100
00000000011101000101101111001000
00000000111101001101101010100000
00000000011100110010101011100110
00000001000010010001000101100111
00000000100111000000011100011011
11111111100010001000010101001101
00000000011111000011111100001100
11111111001000100001001011111011
00000000000011001001101000000110
11111111010100100100011110101010
00000000001110101010111100000000
00000000100010101011010100100110
11111111000110000001001000001110
00000000000000110111001111101110
11111111111011100110000001100100
11111111100000110100101000110011
00000000010010111011101111100100
11111111001100100111111100010001
11111111011011000000110100100101
00000000100110011110110101111110
00000000000100001111010001101001
00000000010100011001000111100000
11111111111000011011101001100000
00000000000010011101111000100101
00000000001000101010100000011100
00000001000011101010000000101001
00000000100001000000111011100011
00000000001010100100100100001000
11111111100000001101111010011011
00000000010010110011110101000101
11111111101001001100001010010111
00000000000111011111000001000100
00000000011000010001100011111011
11111111110101001110010010001111
00000000010100010101011100000000
00000000000110100000100001110100
11111111100001111011110011101011
00000000000001010011111110100111
00000000111001101010011101110111
11111111011101010101011110101011
00000000010001001001000000100110
00000000110011110010111001001100
00000000000110101001100111111110
00000001000111100110110000110000
00000000011111100111011110100111
11111111110111110101111011101111
11111111100110011000001010101010
11111111010100000011000100100000
00000000001000000010010100000011
00000000001011011110010000111010
11111111111000110000010000011100
11111111100101101011001110001010
00000000101001100110010101011110
00000000100001110000101010010000
00000000011111001001011000001000
11111111010000110111100001001011
11111111100110110110000111110100
11111111110110010010011101001100
00000000011110011001001111011110
11111111010001110001000101000000
11111111111000110101101000110111
11111110111100101100111001101101
00000000100010110110101101100111
00000000111001101111110100111100
11111111111111101100110000111111
00000000000000010111010011011010
11111111111100000101000100011011
11111110110010000000011011011010
00000000001001110110001010001111
00000000101101001000000110000001
00000001000100010110001100011100
11111111100000111001001001110111
11111111100110000010001110100101
00000000111010111111111101110001
11111111111111001110111010110010
11111111110110100001010111111001
11111111000011010101100001111111
00000000010100111100111110011110
11111111100100011110100000110110
00000001000101000000110011110100
00000001010111101001000010111011
00000000101111100010001101011101
11111111111000111100110100000001
00000000010001000100110110111110
11111111111000110011000111011101
11111111101110100111100110100011
11111111111011011011110010100000
00000001001010110001111001001000
00000000001111001010101111110101
00000000001010110010110010101100
11111111101101110110111010010001
11111111001011010000000111110101
11111111010101101110100001000110
00000000101010010000101111001001
00000000100110010011000110010111
11111111101001001010111000100001
00000000011101000001011100110100
11111111110111010111000110000011
11111111100010111101100111101110
00000000100011001111111010101101
00000000110110101101000100100001
00000000011010110000010101010111
11111111100011110100100110110000
11111111000010111001101111111110
00000000101001011100001111110111
00000000100000000111001100010001
00000000011100010111010001110001
00000000101011010011000011110100
11111111101000101000010101011110
11111111011001011111100111111000
00000000001010010101101111010011
11111111111101000100011011000000
00000000001000001100010110010010
00000000000100011000110111111001
00000000011100100001111011110010
11111111101101011101100100101100
00000000010000111110010110110100
00000000000100010100110111010100
11111111111110000001111101001010
00000000001110000111001010000110
11111111111000011010101000110101
11111111101111111010000101001111
11111110111001100001101011000110
00000000111000100101101101100100
11111111111000011110110010010010
11111111100001100001001010011000
00000000001010000011010110001110
00000000110011010001111010100010
11111111000011101110011000111011
00000000000110101011101111100110
11111111110100001111001000100001
11111110111101111101111110110011
00000000001011101111110111101000
00000000010111001000110010101011
11111111110000111001100010011001
11111111100100100110010010010100
11111111011101100011001011110000
00000000011111111100101001111010
11111111101100001001001110000011
00000000100111010001010010101110
00000000100111011101100101111110
11111111011000001110101000111110
00000000111001101100000001110011
00000000001001001001100001010011
00000000110010101000110101110100
11111111010111110101010001110110
11111111010101100101011001001010
11111111000010001110001100111001
00000000000111001011000001101110
11111111010011001101001000011100
11111111111111111000011101011000
00000000110100111100010010110001
00000000001100111111101000001100
11111111010111001011010011100101
00000000101010011110111111000011
00000000000100110000010111001011
11111111001101111111000010001001
11111111011000100011110100011111
11111111110011001100011000011110
00000000000100101000000000100101
00000000001111010110101110011110
11111111010101010100010001110110
00000000100001001100110011011101
00000001010000110101000111011101
00000000100111101000110111000100
11111111110010100111111010110000
00000001001110101101100110010100
00000000110101000000001111011111
00000001001000011010101011010000
11111111110000111110111110101010
11111111111001001111100101111001
11111111101110001110011011010111
00000000111111011010100010011000
11111111100011010011000011111000
00000000100011001000001001001101
00000000100110000111110010111111
00000001000011111110000111101011
00000000001001101101110100010000
00000000001001101011001100010101
00000000101011011000101111110011
00000000011001011100110111101010
11111110100011111010101011111100
11111111011110101100010101111000
11111111100110101111000000111110
00000000001110100000011110010001
00000000000000001000010011110110
11111111111100110100111111000100
11111111110011000010110000010011
11111111110111010011011001110001
00000000111011101110100100111101
11111111011110101010101010111110
11111111101110101010011101010010
00000000101011001100011001111110
00000001001001001100100010101110
00000000001100011011000100101010
11111111001100101000000100101011
11111111111001100010111010010111
11111111111010001110001010011010
11111111111010100110111001000110
00000000011101100110010100101111
00000000011010001101001111111111
11111111100110100011010110101000
11111111100010000111111100011011
11111111000101001100100000001011
00000000001101001110110001011000
11111111101011100001111000111001
00000000000001011001000001110011
11111111110101110000010001100010
00000000011010110010011110010010
00000000000110100011000010101010
00000000011110010011100011001010
11111111111111110001100001001110
00000000111010010010111000101001
00000000010000110000001100110010
11111111100100110001011101001100
00000000010111111011110111101010
00000001000101010110110010110111
11111111011001000101100000010111
11111111110010111101100110101011
11111111101010001000001101110111
11111111001011010101000101001100
11111111111111001000011101001110
00000000101100011010011100110110
11111111111011101101100110111101
00000001000100011011000100000100
11111111110101100010011001000100
00000000001000011100001111000011
11111111111110011110001101001010
00000000011000100000110001101100
00000000010000101101011111011000
11111111011100110110111101000011
11111111101001011111101010101000
00000000011010001111100101111010
11111111101011101000101101001000
11111111110011101111111010000101
00000000001100010110110011110000
00000000000110110000001010000111
11111111110001001110111100001001
11111111110010100011001011011101
11111111001010110101110101111011
11111111011001000000001111100110
11111111111111011011100101010000
11111111000010011000111001111100
00000000001101101101110110110110
00000000001100111000011100100010
00000001000001100000100111110011
00000001001110101110101111110110
11111111110100010101010001001000
11111111111101011111100110110101
00000000110010100000101110011100
00000000010100010011111101111111
00000000011111011010110000001000
11111111000110011010010101110000
00000000000101111100001000010110
11111111110110100100111111110011
00000000011000001111100011100101
00000000000011011111010110000110
00000000000000001000110101000100
11111111101110010010100000011100
11111111111001011010111101010001
00000000011111010000010000111000
11111111110001000100001001111100
11111111011110010100101010110111
00000000001100011000010111101110
00000000011001011111001110111101
00000000100000010000010010100110
00000000001001110010100111111100
00000000001011010011110100010001
00000000111000010101011110011010
00000000010010100101100101001110
11111111110010111101001101001110
00000000111101111011100000100101
00000000010001111000000101100101
00000000000100011101011100110111
11111111111000011000101011101100
00000000000110011110001100001010
00000000100111001100010001111010
00000000000011111101100010100101
00000000001101100101110000011110
11111111110011100100100111011101
11111111110110111101101001001110
00000000001011001000100000101100
00000000000100011011001111110111
00000000010010110010101001001000
00000000100110001110011011111100
11111111101101011111011110101111
00000000000010101011110001011001
11111111011010001010110101110111
11111111011000110100000100101100
00000000110110011100111100011000
11111111011011110100110110100100
00000000010010111011100111110000
00000000101001001101011001101110
00000000000111001011000110101001
00000000110011100101001000111000
11111110111110101001110011100010
11111111101100111001110100001101
11111111001101101100010111110110
11111110111001110101011101011001
00000000001010101011111001101010
11111111111000010101100111000101
00000000011000111001100011011001
11111110101110000101011010001101
11111111001100101111110001101111
00000000010000111100010010011011
11111111011011001110111001000000
00000001010101000100011110101000
00000000110001010000010011111101
00000000001110110111011011100110
11111111100111110100110100101100
00000000000011000101100011010110
00000000001010010100001010110000
00000000001001100100011000110001
11111111101111010101011000010100
11111111100010110011110011101010
11111111111111000110011100011001
00000000011010111001100101001011
00000000001100010110011000111001
00000001010011001010010010001001
11111111101010111001110100110010
00000000100111101001011011000000
00000000111110111100011111000100
00000000011011110011011111000010
00000000100100000111011101001110
11111111110100001010000011100001
00000000011111001100000000111011
11111111010001111100010100111000
11111111001101011010101111111100
00000000011000011101100011100010
11111111101010000100101001110011
11111111110010010010110111101100
00000000010101110100111100010010
00000000011100010100010010000100
11111111101100010000100010110000
00000000011101101111001011000101
11111111001001111000111000111101
11111111100001101001111010011000
00000000010110111001010011010010
11111111011110000101100101000111
11111111011110001101100000010011
11111111111010110010110011000001
11111110001111100011100000000110
00000000011000110100111010011110
00000000100000101011000010101001
11111111111111110111001111010001
00000000111101111110001010100001
11111111010101100010010101111111
00000000110010010001001100000111
11111111010111111101101101010011
11111111100110011001110001100111
11111111110101111010101100110101
11111111110101001111011110110011
11111111101101100001110001111010
11111110011100001110011011110101
11111111001110100010011100000000
11111111110100011100011110001100
00000000001010101111100000000100
11111111111111010000010010000010
00000000100111110000110010011100
11111111110101111011011110011100
00000000001010000000000101000101
11111111001110110000010110110010
11111111011000010010011000001011
00000000010111000000010000110011
00000000000001001011100110100001
00000000100100000000010111000110
11111111111110101101111001000110
00000000011000111000010100100011
00000001001001011011011011000110
00000000110100100110010010100111
11111111101111011111101101100010
00000000111010010001101111011001
11111111011011101010110000011110
00000000000100011001010010001101
11111111011001111110110100010011
11111111110011010110111101010010
11111111110000100011111010110101
00000000000110000101000110110010
11111111010110001000101011010110
00000000001100010101101000111000
00000000101011100100010100010111
00000000010000010001101111001101
00000000111101101010101011100101
11111110111111110111011110011100
11111111110101011110111100111001
00000001000001001111110010101011
00000000011100000010100110010000
00000000101111001011100101110111
11111111101011011111111000000101
00000000010010010010000011100111
11111111100100111010111000010110
11111110100001100100011001111101
11111111111010110110001101000101
00000000101111000011001011110000
11111111100000011001001110011000
00000000000010011001100100110010
00000000011100100101101011010010
00000000011111011111110100100011
11111111011100100110010111101001
00000000100101000110100110100001
00000000110000001110010010101111
00000000101101100111001000101101
11111111100100111000111010111010
00000000101011101000110100000101
11111111110110110110011110001011
11111111010010001000111000001010
11111111110001011010111001010110
11111111011101110101010000011111
11111111111110001000010000110010
00000000001010100111101111010111
00000001001110000011001101100000
11111111010010001010100100101101
00000000001001001000111010000011
00000000110001000010111010010100
11111111100110001101100000101101
00000000010111010010100000010111
00000000100011001110110101000100
00000000010010101001000011001111
11111111001110010010101101011111
11111111110101011010000100000101
00000000010001100000000101111010
11111111111100111011001000100010
00000000001011001101100010110101
11111111100111111000001110000101
00000000010101010010000101000110
00000000100001100110100111001001
11111111111100010000101110010000
11111111000101001011001101010010
11111111111000010000100011110000
00000000011011010011101001011001
11111111100111000110001001011100
00000000101101010001101110110001
11111111000100110110111010010010
11111111101010110010011101010100
11111111101111101000011001101011
11111111011110110011110001010101
11111111100000001110111000010110
00000000100101011101010100011101
11111111110110011100000100011101
11111111110011000011100100110010
00000000000100010110001011110000
00000000100000101000111000011010
00000000010101101111001011100010
00000000010110110011100011111101
00000000010101011100111101010010
00000000110000100011010011010110
11111111001000101101100011101111
00000000000011110111001010100000
11111111110001111001111110111010
00000000011010100001011100100011
00000000000010010010000000001000
00000000001101000001100010011010
11111111111101000111110100100100
00000000011110001010000010011001
00000001001100111101110001001111
00000000011000110010010000001000
00000000001010110010011001001001
00000000111100100101100011101010
11111111001001010011101111000001
00000000000111101101100101101010
11111111101111110101110110011110
11111111011000111010011010010100
11111111010000010010010100110100
00000000000111000111111110100001
11111111100011000100011101101010
11111111101010101001100011110100
00000000011011000000111010101111
00000000100001111110011011001111
00000000101111010111101100000111
00000000000111111011101010100111
11111111111110111110000111000011
11111111001011110010000100010010
11111111110011110010110111100010
11111111110111101010101010001111
00000001010010011111000110001011
11111111100111110000011101111011
00000000000000100001001010101000
11111111111011110001011100000000
11111111100010000001010110001101
00000000101010011001010000111001
00000000001010100011001010100001
00000000000000000101011100110111
00000000101001010000010001011011
00000000110001101101001101110111
00000001000011010111100000110001
00000000001100011101101111111000
11111111111001111010000010111011
00000000111100101001000101001111
00000000111010101111100000010000
11111111101011110111110100111110
11111111110011000000111001001010
11111111110101000011011100011000
11111111111110011110110100011101
11111111101001000000101000010010
11111111011001111000110001101100
11111111001110010011101101111011
00000000110100110111111111000001
00000000000010000010010100111101
11111111101111100011101011110110
11111111111011001100011011101011
11111111011100111100000000101010
00000000010000000000000110111010
00000000000000101010001011011110
00000000111101101000111110111100
00000000111100101100100111101010
11111111100110110110101010100001
11111111110011001010010101000111
11111111101010001011000100101111
00000000101100000001101000010011
00000000011111010110010110101101
00000001001101111111010101001011
11111111101100110110001000011001
00000000010010111110010100010100
11111111100110000101110100100001
11111111000010110010010001110010
00000000000101001011110011000011
11111111100101110000101110111110
11111111101001111010011010100011
11111111011110100001010100001101
00000000011010110100111110011110
00000000000101110011000110000100
11111111110100100011100101110110
00000000110110000110010110111001
00000000000011110001011100010000
00000001000000110101000101000010
11111111111100100010001010111001
11111111100000010101100100101000
00000000000011010110011111011010
00000000101010010100000100101100
11111111110011011111100011010010
11111111100001011100000011011100
00000000001010001111001011010010
11111111101111111010000000100100
11111111100111110001010100001010
00000000100010100010010111000000
00000000101100111111101111111100
00000000001000101010110010001110
11111111011000100010101100110110
00000000100100001110101010100010
11111111000011011000111101010100
00000000101000101100100000011101
00000000001001000011010011101101
00000000000111001011010111101100
00000000111001001111000010101000
11111111000100110011100001110111
11111111101111110111100011111111
11111111101001011001010111101100
00000000010010010111001101000000
00000000100110000011010100100010
11111111111001010100011110011011
00000001011100110001101101110111
11111111010001101011111100111100
00000000010010011001010100111100
11111111001100111101011011101001
11111111110000101011010010001101
00000000001111010001001010010110
11111111100101011011111011100010
00000000001011111010000111110100
00000001010100001010110010000001
00000000010010000011100001110011
11111111101100010100101101011111
11111111100001101010100101100001
11111111110001111111000000010000
11111111101111000110001001000100
00000000110101100010011101100000
00000000100010100111111010110111
11111111110001101110010000111011
00000001000010010001110000001110
11111111111000100010100110101100
11111111101101100000010010100000
00000000010000000100000100100100
00000000100000110100001010001100
00000000000111001111011100000111
11111111110110110010010010000101
11111111110010000110110111110010
11111111011001100000100110010110
11111111100001010010010010111111
11111111000100010110111000010111
11111111110110010110000111100100
11111111001011101101011111101110
11111110110000101110110110000000
11111111110001000011100000000010
11111111110000100110011001111011
11111111101100100011100001000100
11111111101100000110111000010110
00000001001101111110010111011111
11111111101011001111011001001110
11111111001000000100110000010110
00000000001000100011101110111110
00000001010000100011010011001111
11111111000111111001011101000001
00000000110010010011000000011000
11111111010010010011001010010110
11111111011101110010010011110001
11111111111110011110110111001100
11111111001100001100100111011011
11111111110010111101000011010100
00000000011101011101001100000110
11111111101110010100100111101100
00000000100101110011001111101100
11111111110100111010110110101110
11111111110100000000011100001001
00000000010100100111100100100000
11111111100101110101100000101001
00000000100011111000101000110001
00000000001110110001110111001101
11111110111011111100101001010110
11111111100011001000111100001010
11111111111011101101110010101110
11111111001000001100011001101111
00000000011111001010011001010100
11111111111101000000001000011111
11111111111100011101100001101100
