00000010010111111010001110110110
00000001101001100100111100011001
00000011000000001000011000101100
00000010010001011111110100001110
11111111101011100000100100010011
00000000001100111110111110100111
00000010101010100011101101000000
11111111001001011100111101100110
11111100100100100010101101011010
00000010101001100100101110111100
00000000001110110100100011010110
00000000100011010101100011100100
11111111111110000111101000001110
11111100101010101110110000100111
00000000000111110110000111010001
11111101001010110110101011110111
00000101100000011110110111010101
11111100010111000011101101010011
11111110111110001010010000011010
11111111010000101011101101101101
11111111010001000000000111001001
00000011000001001101111011010011
11111111100000000110111000111010
00000001001010111000000111101111
11111110110111100010110111011011
11111001101100100001101001001111
11111101001100111011110011110111
11111110010000010101011000110001
11111110101100110011100101101110
00000001001010001010111111011010
11111110001001110101010011000001
11111111101010101010100000011001
00000000001111110110011001101111
11111111100010101110010111001000
00000001110010111001011010001001
00000011000010111101000100111001
00000101000000100010000101100011
11111110010110001001110100100001
00000000100111010000111000110011
11111110001011000111010000000011
00000010101000010101010011101111
00000001010010010101110000101101
00000001110110111101110011101110
11111110000100001001110010111001
00000010010101101001000010101110
11111110110111001111000000100001
11111111000101011001001010100010
00000000001001000011111001101110
11111111101111101110110000000000
00000001010100000010001010101011
