00000011011111101111111100111000
00000001001000000110001101000110
00000000110101101010101111000001
11111110111011111001111100000001
11111110111000101001011100110111
11111111001100101001010110111001
11111101101100011010100001000001
11111111011111101100110011011111
11111111101010101100001110001010
11111011001000011100111110011001
00000001011100111001111110000100
00000000000010100010110011110110
11111110101101110110011101110010
00000000100100011110111111111111
00000100101000000111100001001001
11111110000000010000110110100000
11111010101001101000111010011001
11111111000001000010101110011110
11111011101000001011111001100101
00000000110101001001100011111001
11111101110110011000011000111011
11111101101110000110110011000011
00000001101010001000111010111101
00000011011111010111100001010110
00000000111100111001100100001000
00000000101001000000111011011001
00000101000001001011111010110111
11111111011111101001101001011101
11111111111110110101101110011011
00000011100111010000011000100101
11111110110011100110111010100110
11111010110100000001011010110000
11111111110100001100110000001000
11111110010000111000101111101100
11111111011011010010101010001111
11111111010010111110000000000100
11111111000000010111010101101100
11111111101010110110101111000111
00000000001101110000101000100010
11111110010111101110111111010011
11111110111010111000001000001001
11111100100110010001010100011101
11111111111101011010101001001001
00000000001111001100000100011011
11111011111010101001111010100011
