11111110011001110101110100111111
00000000101111110111110101000000
11111110011000100001010110111010
00000000011001010111011101010110
00000001000011110010010010000101
11111111001000100000001011100100
11111111000010110011000001001111
00000000111011101111010010010111
00000000110010010011000110010010
11111111001000011010111111111110
00000000101011111100101011111101
00000000010100011011001110000001
00000001000100000100111011110101
00000000000100011111000110100011
11111111011101000100110010101110
11111111111110101110110110011010
00000001101100010110010011011110
00000000010111011000100101010110
00000000011001001011011000011011
11111111010111000110001010000110
11111110000000000110110101000000
11111111000000101110111001001111
11111110010101000011110001011111
11111111110100100001001110010011
00000000001001110001110110001010
11111111101001001100110010110001
11111110110001100110000110000110
11111111010010001010001101111010
00000000111010110100000111101011
00000001100111001010010100001101
11111111101000101101101010100111
11111111011110000111100101000100
00000000000110101000110000110110
00000000111101000101010111000110
00000000011111101011100110011011
11111110100010000010001100010010
00000000011000001101000011011110
00000000111010110010011010111100
00000000000110001011000000100011
11111111101100001010011010100110
00000000101111101111011010101001
11111111110110001100110111001011
11111111101010101001101000010110
00000010000000110001011011110110
11111111110100110111000111101110
11111110011111001010100000001011
00000000101001001100100001101011
00000010000010001100101100011010
11111111110001011110011101110011
11111110111010100011100100110011
00000000111101001000010011101111
11111111011000011100011110100000
00000000011100100010010000001101
00000000100011010010100001110011
00000000011100111111001111000001
11111110100111100001001110010100
11111111100100111110100110001011
00000000010011101100110010110100
00000000011111111110010011010111
11111110110000011101101001011000
11111111000101010101111110000110
00000000100111010110011100001011
00000000011011101000100011111001
11111110101011111101000110000011
00000001011100011101001111110011
11111110011101110101100101100000
00000000001110101000111101100010
00000000101010110000000110001010
00000000111100100001111001001001
00000001010110111000000100010110
00000001111011111001001011100101
00000001101010001111111101100101
00000000111000000100100110100100
00000001011010111001101101010100
00000000011110110100010001101001
00000001010001110011100000011111
00000000010010100011100101000010
00000000011111110000001001101010
11111101101110101001110011001110
00000011000100111010001100010000
00000000010101110100111011100001
00000000010001011111001001101101
00000000111100010000001100101000
00000001001111010111110100011010
00000001101001100101001001000011
00000001000001111111110011100011
00000000011010010101000001110011
11111110001000100101101110101100
11111111101110101010101100101010
11111111100011100011111111011011
11111110010101101011001100111001
00000000101010000010111111111100
11111111101101110010000101011100
00000000011010101101010011010001
00000001101111101010111011011000
00000011001010110011100001101100
00000010000010100000010100011101
00000001011111110001011001001011
00000010110000110100011110111011
00000001100001111110000000001011
00000011010000010000111001110100
00000011011001100000100101111000
00000011110111111111001010001111
00000001110001001111000111110001
11111110101110100010000011110111
00000000111011011101011110111011
11111111001010011001010001110010
11111111000101100111011011101100
00000000011000000100110000101000
00000001100000100110110000111111
11111111000101010001111101011111
00000000100100010001000101110011
11111110010100101100000011011101
00000000101010101011100100001100
00000000100100011101010011000100
00000001101011001101001000100100
00000010000010000111000010001101
00000010000110101010110110100111
11111110011110010101001000110000
11111111000110011011110100100100
11111111101010111100011001101111
00000001100000101010100111111010
00000000101001000101111110001101
00000000011101111110000100101101
00000001000011011001001100001010
00000011010001100000000010000101
00000001011100110101001111100111
00000010011111001000000111110011
00000010101001100100011011110011
00000100000100110011111011000110
00000010110100000100001010000111
11111111111000000100100001001000
11111101110100010110110101000011
11111111111010001001010100001110
00000001101011100111110011111100
11111110111101011000000011100001
00000001110101001111000010100010
11111111101110111111110101100001
11111110111100011101111111001001
00000001110001000101111111100110
11111111011100110110110100000011
00000001000010100001001110011011
00000000001111001011000110000110
00000001010001101110011101001010
00000000101111111101101111000101
11111111010110010001001111100011
00000000010101000010011011010110
00000000010000100011111110001100
11111111111010000101100000101100
00000000111011101000010100010101
00000001111111001110001001010000
00000001100001111100111011000000
00000011011010001110101000011100
00000101110010110000011110101110
00000001101101000101100001000000
00000100000010100100101111101110
00000010110101001000011001111000
00000001111000111101000111011111
00000000010000000101010000000110
00000000110110000110111001000100
11111111011001010100010000010101
11111110101100100011100010110101
11111111100010001110011001010101
11111110001100100000100001000101
11111111011011100000111101100110
00000000100001001111000100011110
11111111100000110101000011100111
00000000011101100001010111000100
11111111010110000000001111001110
11111111010101111100011101111101
11111110001111111110010011100100
00000001100010001100011011101010
00000000001110010101011110000111
00000000001001111011000010001010
00000000000111000010100111000011
11111111101111110000101100110000
11111111101101011111100001110101
00000000100111010001011111011110
00000000010100100001000111111111
11111111111011000111010101111100
00000001100011011110100011101000
11111111101010110011111011011010
11111111000100010011101010101111
00000010011000000001110000111010
00000001001001000001111100000100
11111111010110001111001001000011
00000000011111001010010110010000
11111111111011001101101101111000
11111111011110110100101100100111
11111111111101000000001011101101
11111110000010010000100011100010
11111101011110010011100001101000
11111111100000000011111100001111
11111110100111011101100100101011
00000000011000011001110101010010
00000000100100111110110010011001
11111110100010000010011101010011
11111100111100011110110001101001
11111110011010111010101011111000
00000000101111111111000110111010
11111110110100100110101011000111
11111110110111000100001110100110
00000000101100000111011001001111
11111110101100011111101010001010
00000000111001101110111101000000
11111100000111100001010000001101
11111110100111111101001000000000
11111110110011101001110001111111
11111011011010011011011010000111
11111100110100110101000011001101
11111111011110010011011011111001
11111111110011111110001110111111
11111111000101100110110101010001
11111111010111101001011010100100
11111100010100101000101100111100
11111101011011000101101000100011
11111101100110111111000000011011
11111110000111110000111111111100
11111101011100000010010110010011
11111100110101011111100101000010
11111101000100010100010100011000
11111111111001010101100001010001
11111111001110110110000011000010
00000000111011000100000100110111
11111111110011111111100100111100
00000000110111011100111000101111
00000000010101100001000011000011
11111101111100001100000001110100
11111111010100000100000101101011
11111110110110100101110010100011
00000001000010100100000010101100
11111111000110000111010000001100
11111110000100111000101100101111
11111110011010001111111001111110
11111101010001010111000000010110
11111100110000000000111000000001
11111011110101010010100101110100
11111101101010000000010000101100
11111100011110110111011000111111
11111111110101010110010000001101
11111101000111111110101000110011
11111101010100111110000000010000
11111011101000100010000001000011
11111011110011011011110000000001
11111110000011101000110110000111
00000000010011011001100011001011
11111100101101010011011100010011
11111110011000111001111010011111
11111110111011100000000010011100
00000001001001111000101000010110
11111111010110100000111101010111
00000000000111010011000001101111
00000001100000000101010001000011
00000000011010111111000010111110
11111110011111110001000001111001
00000000010011001101011011001101
11111111101001100010011111000011
00000000101110011001001011111110
11111101111000001110110011010110
11111110100110010101101010011110
11111101010111100011011101100000
11111101011100010001100000010000
11111100100100001111111101011000
11111110010111111111001001101110
11111110001101011100011110000011
11111101101011010010001001110100
00000000100111101001000000110110
11111101101101111000111000100011
11111100001111100001010001110101
11111011011010010010001101110010
11111101100010101011000000011100
11111100101011100001100000101111
11111101111001111110001010001001
00000000001001110000100100110011
11111101010101011000011101101101
00000000000001010001001010100010
00000000001101010100111000000010
11111111101101000101001100111001
11111111011101101001010001101010
00000000110111100110101111010111
11111111111001111010110001101010
11111110110110111001001111101010
11111111011101111101011010100011
11111110101000011011101011111111
11111111000101111100010101010110
11111100000000101011110111100011
11111101110100110011110100011111
11111101000111111010000010010110
11111100110010000111111110110000
11111101000010000111101001101000
11111101101101000100010000100010
11111101011001111010110110001000
11111110111111001100101011111011
11111111000100111011000100101101
11111100101111011010111101010111
11111101001111110001111001001001
11111100111100011000101011110110
11111101010101100000111000010000
11111101100101011011000000100001
11111101101100100010010011010010
11111110101101010100001001001010
11111111110011001110110100010101
00000000100000101001011100011111
11111111000111010100110001010100
00000000101100111110001011111100
11111110100010100111111001100001
11111110001111111000001100011000
11111110110001110000011000010101
11111111110000010001000000011111
00000000010111101110000100101011
00000000000101111100100101100101
11111111000111110101000110010011
11111101101101100100010001111010
11111110010000001010100010101011
11111110011001101110011100110011
11111100111000100101111110101101
11111101110010100100101110010011
11111011011100001110010001101101
11111100011110111101010001011010
11111110000001111000100001001111
11111011111011010110011110101101
11111110011100110101010011111100
11111100100001101001011111101000
11111011110001111101100001111110
11111010111010011011111001111111
11111010001000001000110001100111
11111110000111011100100011111000
11111101110001100011100001100011
11111111010000111011100000011111
00000000011000001011110011111101
00000001111111000000001000000011
00000000100010001110110000000010
11111111110110100110001000000101
11111111100000111000011011110100
00000000010001011100110000110011
11111111001111110001000000101001
00000000001011010100000101101010
00000010101000110110000110011001
11111111100100100100010111000110
00000000111111100001001100011000
11111111110011111110000011010111
11111110110001010010010111110101
11111011111110100110100100000101
11111110111001010111000101110011
11111110011011110111010000001010
11111110101001111101010110100001
11111111100011110101001101101010
11111100011100001111111111010010
11111110110001011111101100011111
11111011111101001011111111101001
11111010010101110000100010001010
11111011100100111111100011011110
11111010111000100111001011000111
11111100010011101011110010101010
11111110000001101110101111110111
11111110101110011100100011010101
11111110101001011100100111111011
00000000111100011001101010010000
00000001101100000110101000000101
00000010101110100011111111111100
00000001101011011010011001100011
11111111011010101111000100000000
00000010001110100110111001111110
00000000001101100011001000000110
00000000010110001000011110100110
11111111010111010010111110001111
00000000000101101000011000110000
11111110011010110100110011000101
00000000010100100001010011101110
11111111011000010011001011100011
11111111000000001001001110000001
11111111010100100010110001110001
11111111100011001010110010110101
11111101011010000110000100000111
11111110110111001100100100000100
11111110110110010001100001100000
11111110010101111111001001011011
11111010001000001010001000110101
11111011110011010001010000010001
11111010010010111001101011010000
11111011110101010011000010000011
11111011011101010001010010110111
11111011111000000100110001010011
11111111100011111010110010000111
11111111101001001100101100000001
00000011100001100101000101111010
00000001100111101100100000101010
00000010011010111110100000000010
00000100110100001100001000101111
11111111110011111110111100100001
11111101110101111111100011000010
11111101110110100101001110001011
11111100011100101110000101110001
11111111010000011001101000101011
00000000010000000001110010110001
11111111110011011000100110100001
11111111010010101001100001001110
00000000010001010100101111001100
11111111100100001011010110100010
11111111100010011111001111010111
00000001011100000111110001000011
11111111000100111010110101001000
00000010001111100010101111000010
00000000101111011011000000111110
11111101100110101010101010111100
11111100000011101110010111010000
11111100101110101100010110001101
11111101100011101101110100010000
11111011100101001101001110000011
11111101010110011101011010000101
11111011100101100101011101111100
11111101000101110001101110100101
11111111010010011001101100111101
00000011111000001010011001101101
00000011100110011001100000100001
00000010101100101101101010100011
00000001001010100100100001010110
00000001000011100101001011000110
11111110011011101110011000100000
00000000011111000010001010001010
11111111001000000100101001111010
00000000101110010110001100101010
00000000001100111100111101000110
11111111010011100101111101101010
00000000001010100110111111100011
11111111101001010001010111000010
00000010001110100001101011110110
00000001101001011111101011111010
00000010011110101111010001101100
00000010100110100011001010110011
00000011111000100000111000100001
00000010011101000000100010100001
00000000101011000001000101010111
00000000011000010101000011010100
11111100101101100100101000000001
11111101110111010010011011111100
11111100011101101110010010011010
11111011000101000001010110100111
11111010111100110101011001101010
11111111000001110111000100100001
00000001000010010011110101001110
00000001000111110001011101110011
00000011011010010110101010110101
00000011000010010111010000100111
00000011000001000110110001000000
00000000100001101110101011110100
00000001000101100101001000011001
11111111001111000001000101100000
11111111011011010111101110111010
00000010011000000111110001001111
11111110100101100101010001010111
11111111110011110111011101001010
00000010000101000111100100101111
00000001110001011000000110111010
00000010100001010011011101111010
00000010110100000100100100001110
00000011100111111011111000111101
00000100010011111011111001000111
00000100101110110001011101100010
00000010101101010110111011110100
11111111110110001111111101011011
11111111011101010011100110010110
11111111000110000101100111000100
11111111101100111101011010000101
11111011111101011100011010011100
11111011111110100110011001011001
11111111000011110100100000101001
11111110110001010110110110101100
00000010000100101011000010001100
00000010011001001000001000100110
00000001100010100010010101110001
00000100000000000111000110101100
00000001010110111001110001101011
00000000101101000101111000001100
00000000001100100010001100010111
11111111100000001001000011111101
11111110110100100111100011010110
11111110000010011111001100101100
11111111111010101000010010100110
00000000100010001111111000001110
00000000111110100001011110110100
00000010010100000010100000100101
00000001110011000100011101010011
00000001111111101011011100110001
00000010010100110110001000111011
00000100000110100110010111010011
00000100100000010001111100010110
00000011110110001010000111111101
00000010010111100101101000011111
00000000111110110100001101000010
11111111010111111001111010001001
11111101100000101010010000001111
11111111111101011111101000100110
00000001010001110101111110101111
11111110110010000111000100001000
00000001010100011010010101011110
00000000000100101111110100001001
00000010011010111010110111000001
00000000110011000111110100001111
00000010110001110010100101010110
00000010011000110011101000000011
00000001001000101000001111110011
00000000100001000010101001100001
00000001001110011000010100101110
11111110101001000010011001011011
00000000101100111101001001100101
11111110100001001101111011111100
11111111101001001101000011101100
00000001101110100001010111000100
00000001001000110111010100111100
00000001100101111000110010101010
00000100111111100110000101110110
00000011011100000001111010010110
00000010111001101100011001011111
00000010100011001000100000110111
00000100101000101101110100000000
00000011000000110010100000010011
00000001000001101101011010111001
11111111110101010010001110111101
00000001010101001111010100010100
00000000110011001111111101100001
11111111100010001111101111000000
00000001011111101000110011011100
00000011000011111111110000110000
00000010111010011100101100000110
00000000101001101111010100010010
00000001110001101001111011101110
00000001010001000000100011100010
00000010011101100000110010101101
11111110110001111110101001010101
00000000001011001010001101111001
00000000000111111111110111011001
11111111100011110100101000100001
00000000010000000111000000000011
00000001000001110100111010010111
00000001100111111010111010001111
00000000110111001101001100110100
00000010000000001001110000111001
00000001111011000111110111011010
00000101000011110111110011101001
00000011101011110001101101110011
00000011000000101100001001001010
00000011110000111010010000111111
00001000010111100000101010100110
00000011101110001010010011011001
00000000111101101000101100001010
00000001100000111000111101111111
00000100011100001110111111101001
00000010101110000010001110011011
00000011110110100001110010000111
00000000111101011101111101110111
00000000110110011111011011101110
00000010110100001111111011101010
00000011100010110110010111001011
00000001111110000001111100101110
00000000100110010101010100000010
00000001000100111101001000000001
11111111100010010011001110100111
11111111100111110101011000001110
11111111001111000010000011110010
11111110111101000000001100000010
00000001110000100111010001011111
11111101111101111011100000010110
11111110100000011000110010101111
00000001001100110101111101100111
00000001111100111101000000000000
00000011011110001010111100001000
00000010001000001111000010001010
00000011001000110111111100001000
00000100010110110001010000111011
00000101000000110111101001011001
00000100111101101010110000111001
00000110001101100000011111011011
00000100011011110101001111001000
00000011100101111111100101011101
00000011001100011001010011101110
00000010000111010111000111001101
11111111100110100010011100000111
00000010100011000011000101001000
00000000011010001011110010110010
00000001011101100111111110111101
00000101001101101010101011110111
00000001010110101100010110001101
00000010001001011101110001110101
11111111110011101000001000111001
11111111010000100001000110000101
11111111111010100100101000010101
11111110011011000111111100011101
11111111111111100100101100000100
11111111110011100110100101100010
11111111110100011010111010010001
00000000100011000001111010110101
00000000101011000001010010101010
00000000010001011111111101011100
00000000101000011110111111001111
00000001101100111111110011101100
00000010100000100100101110001010
00000000000110110010001100100110
00000001101100101100110101000111
00000001111011000010101111101111
00000010101010011000101100011000
00000100011010110110100000010010
00000001111111101110011010100010
00000010100001000101101110101000
00000010101011111101011100111000
00000001110110000111001010100010
00000010000111100100011000001011
00000001011110000111101011001100
11111111110110110011000000101011
00000000110111011110111000000100
00000011010000010001111011001101
00000000010101111101011100011101
00000001011000011011111011110110
00000001011010110010110101111101
11111111000010100100011000001000
11111111110000101101101101110111
00000000100000100001110110111100
11111110110011000111001011000010
00000000100110101110101100000000
11111110100000001001000011101001
11111111101010011001011101011110
00000001000010000010000101000000
11111110101000100010001000111011
11111111101101101010000001100110
11111111110111111101010101000000
11111110101010101111011100001111
11111110110001011111011111011000
00000000111000000101111000110110
00000000011000110011001011011110
00000000110010001000001100110010
11111110101001011111011100111010
11111101101011110101100000011111
11111111110101001010000010101111
11111111001100100101110111010100
00000000111100000010111000100111
00000000000010000010011010101101
11111111100100111101100010001000
00000000101010001001100001011101
00000001111011110011101111111110
00000000110000110010110110000011
00000001100010101000111001111011
00000001100110100100111000100110
00000000011010111010111101111011
00000010000010011110011000111000
11111111101001110001000000011010
00000010100011000100011110000010
11111111001110101101110001100100
00000001000011001110011001100110
00000010001010111110101010110110
11111111111100101010011111101000
00000000000010000101001101000110
11111101111111100111011011010001
11111111010110111010001100011111
00000000011100000110001100001110
11111110011111101100010011001110
00000001010101100101110001000011
11111100100111011000111110111100
11111100100001100001010001011010
11111110000110100000111001000100
11111110010011010110110011001000
11111011001111000101000000011000
11111101000010111010110100100101
11111101001011001000101110011011
11111111110010010101101110101011
00000000101000111011001000101001
11111111100001010000110111101000
11111111101111000110110111011101
00000001101000011000000011000001
00000000101110010100100111100101
11111110111100111001100110011000
00000000000110111000111010100001
00000000110111101100001010000011
00000001100100001111000001100001
11111110001000100010000000011110
11111111010101000011000111010100
11111110111110110000000101110011
11111110110111111101101010000000
00000000000111111100001000010111
11111111100000011010000011000001
11111101110101000100111001100100
11111110101000001011110010011111
11111110000000001101011110000101
11111110001110000010100000101011
11111100101001101101000010100000
11111110100010100110110000001000
00000000001101011111010010111111
11111110101110111110101000110111
11111101000011111000111100011101
11111101110000011101101010110011
11111111001011100010001111110001
11111100111101001101001101100101
11111101101010010011101011011100
11111110100110010111110100100001
11111101111011111101100111001010
11111110011010111101011101100110
00000000000110100110111101111000
11111110101110100101001001111001
00000000011111110110110001011100
11111111111000110111111111101110
00000001000110101010000111110111
11111110111110010110110111111001
11111110001010011001111111100111
11111111000101000010111011111101
11111110011011000011000000010110
11111111101011111001000100110011
00000000010001100111010000100101
11111100100010100100110000011100
11111111101111000001100010110010
11111011111010010011001100010011
11111110101110011011011111000110
11111111000001111011110000111000
11111101100110001101110101110110
11111101101110010001101010110001
11111100001101110111010100010111
11111101011111001101101100010001
11111011101101010010111100100011
11111101000100101011111101101001
11111110001110011000111111111101
00000000001111111101111101011110
11111110101010111111000001000100
11111111100001110111001001100001
11111101111101110111101001111101
00000000011000010001101110101100
00000000101010110010111100011001
00000010011100001000101000000000
00000000110010101000111011010100
00000000001111000111111111110011
00000000110000110100001000011000
11111111100110101101100011000110
11111111100011100111011111101100
00000001010001000111011010001001
11111110001100000101100101001011
00000000001110010101000101001101
00000000101110010010100110001011
11111111111100011000011000000111
11111111100111000111001011000101
11111111010001100110001110111010
00000000111111110000000110000000
11111110111111100110001001111100
11111111011100101111001000011001
11111110110010101100010100101111
11111110001000001010011101010001
00000001011011000110100010011101
11111110000100001001101011000101
11111111001010101111000111101001
11111111001010001101010111110101
00000010000110000101101110111111
00000001001010111011000010111101
11111111010001101001000111000010
00000001011011100101110010110100
00000000100001000001100000110111
00000000001001010101010011100111
00000000011111111110110100101100
00000001101101100000100001000000
11111110001001101010011100110100
00000000000001000011101010100110
00000001001100001100111001000001
11111111010100001011010111010100
11111111011111111100001101011111
00000000001100100101110110101111
11111101101001111101111110000111
00000000011000111001010111101101
00000000010011010101001011000110
00000000111010111001011000010111
11111111010101010111001101011110
11111111100110011100111010111101
00000000001000000010111001101000
11111110110000100110110101111011
00000000110111000100000101111000
00000001000110111000011011000011
00000000001001101011111111011010
00000000101001000010000011000111
11111111011111010100101110110010
11111111110001110101000110010001
00000001110100011100001001110011
00000001111000110111100000001101
00000001001101100000110011011101
11111111000101010101000000000000
11111111110011011110000010000110
00000000100001000101000100000101
00000000000010011110110100101010
00000000110100010011110010000100
00000000110110001110001011111001
11111110011001000001100110010111
