00000010011000110001100110011111
00000001101000011001010010100010
11111111010111000110110110111011
00000000111000100110010000010111
11111111000001110111000100000101
00000000001110011001011011110000
11111111110100110111111011000100
00000000101100000000011101010010
00000010010011011111010101011000
11111111111110100000110011011000
11111110110010010111001110000011
00000000110100101111100011100000
11111110110101001111100010011010
11111111011110000000010110011010
00000000110001000111011101110100
00000001110010110100111000111000
00000000101111010001010110010100
11111110000010000111111010011000
00000000000101110001001101111101
00000001011001101100111001000100
11111110000001010111000111011000
00000000111011101001110000101110
11111111110100110111101000101100
00000001101010000011110010101010
00000001000001010000111010001010
00000001001111100000111000001000
11111110101110110011000110101110
00000010000011011100101011011000
11111111110000111001110100001101
11111110101000111110110011010110
00000001011011111100001010110000
00000000000111100110100001100100
00000000111110010100000111000100
00000000100111100010111110110000
11111111110111101110010010010001
00000001011100001011101000010111
00000000110110111100011100011000
11111111010110111011011001010010
00000000001110010010111011111001
11111111101110111110000011101011
11111110001111101101100011101100
11111111010011010000010001101111
11111111001110100111100001110010
00000001000110000110111010100011
00000000110100100010111000111101
00000001001110111100010000111010
11111111111010100010101101001110
11111110011100101110001110010011
00000010010000100010100001110000
00000001101010100011000110100110
11111111110010010101001111110001
00000000101000011011010111101101
11111111111001100101000000110000
11111110100111110011010100011100
00000000100110100001001111111011
00000001000010111100111110110111
00000001001111010010111111010000
00000000001000100110001100101111
00000000000011011100101000001000
11111110011001111100001010111111
11111111101010011110010111100011
11111111101010101101001110001111
11111111111001111000001010001111
11111111000111011010111001110110
11111111111011001111100010110010
11111111110001001111111001110001
11111110100100101110111011110000
11111110111110000001010111111111
11111111110110110101110111001101
00000000001110000001111101010010
11111110101100111000001110000000
11111111001001110100011111000011
11111110101000010011011010001001
00000000001010111011110111011011
00000000100111110101111110100101
11111111100101111101110100110110
11111110101100111010111110001010
00000000000001001001100100100110
11111111010100101110011101110000
11111111001011011010110111000100
11111111101111101000111100011010
00000000011001001011111110100111
11111111100000111001010110001011
11111111001111100110010111010010
11111110101010000011101110001101
11111110111011010000111100110001
11111111011000111110100110111010
00000000001101100011101000101101
00000001001011001111000001100110
00000000111001110101011010011000
11111111110001101111100101101110
11111110101011101011101110100100
11111111000001000011000000011111
11111111101101111111010100100000
11111111111011000101010001010110
00000001111100111001000111011111
00000001010010000100100101010100
00000000110001001101101101010111
00000001010111111010000100000001
00000000011100111001000100011001
11111110000000010000000001110100
11111111111111110110110111001111
11111110000010101011011000000100
11111101101011011101000110000000
11111111011001100111011010110111
00000000000110010110000100110011
00000001011100010101001100010110
00000001000100110111100001001111
00000000100100111101111011011100
00000000010110011100001001001100
11111101011010001100111001010100
11111111110101011110110110010100
00000000111100101011000100000110
00000000101010100000001100110000
00000000001000011011000001000010
00000010101110101111001001100110
00000001111111100100000001110110
00000001111011010001110111110101
00000001010000011110010011001001
00000001010010110000000010011110
11111111101100111010110110001100
00000001111011000110111001000100
00000010011001010100111010110110
00000010100011100010111101110001
00000011010101111100100000000011
00000101011100010101111110110101
00000001011000110010001111011110
00000010101000010000110110110101
00000000001101110010011111011010
00000001100000001100010101010110
11111111010000010100011000010111
00000000001001001101111110010001
00000001001011000011011110110110
11111111100101011010001010100011
00000000011010110001011101001101
11111111110111101000111001101000
00000000000101001001000111010111
11111111010110111011110111011001
11111111111001110111001000100000
00000001000110010111001001110100
11111111111100011000011010100011
11111110100111011001001010100001
11111110010101101100010111101101
00000000011011001110101000110101
11111111011011101011100111101010
00000000010111000110001111011001
00000010000110100110101011000000
00000010110111111001000100000101
00000100100100101011001100010110
00000011010000001111110110101001
00000100111110110001001001110001
00000100010010011011001100010111
00000101100000101011101100011011
00000101000010001110111101010100
00000011001101111100000011000011
00000010010101000000110100011110
00000001000101000010101100010010
00000001000010100101001111000110
00000000011011011010111011010100
00000000100100101110101101001000
00000001101010111001001111100101
00000000111010111111000101110101
11111111101111101111011100101111
11111110010100000100011110011111
11111111100000110100001010111100
00000000011001010000000010000010
00000000111110010000100010101011
11111111010000101011010011111101
00000000001101001001111001011010
00000001100101011011010001101110
00000001101001101001111100001110
00000000110000011110110001111011
11111110101100000001011110010100
00000000011011101000101001011010
00000010100010101010101101001111
00000011000000001111100000010111
00000011010100100101110110101010
00000010011110010010000010101111
00000100110101100100100101000000
00000010100111010110111011011011
00000010100000101010100000111000
11111111001111101110011111101011
00000000110100101010001001111000
11111111110110110000001001111011
11111111011001110110110100100011
11111101110000100101100011111111
00000000111000001110001100000110
11111110010011001101000001011000
11111111111010010111101000010101
00000001101011001110010000110110
11111110010000011000110010100001
11111110001110111000101010000111
11111110011011010110100111101010
00000001000011101011011111110000
11111111100010010011110001101111
11111110000001100111001000100001
00000000101010101001001111010010
11111110011000101110100010001000
11111111110000111011111111110000
00000010100001100001010110011100
11111111100001010100010100100011
00000011010010011000001010111111
00000001111110011110001101011000
00000001100000010000101111001000
00000001101101001110001011010111
00000001100010101101110110000111
00000000011011000110111011000101
11111111111110010111101101000011
11111111110001001011010110111111
00000000100011110100110000110111
11111110011101011111000011111111
11111101001100111100001110111010
11111110001000001111001010000111
11111111010100000111110111100001
11111101001011111110110010101110
11111110111001011110101101111101
11111111011111101101100010100011
00000001101011101111001111100111
11111101100001010010011100001101
11111100100110100001110000110001
11111110100100000001001000110111
11111101101000010010001010011110
11111111100111110110111001001101
11111110010101111010010101001010
11111111101100000010001010000010
11111110000101100100110010010011
11111110110101000101000011001011
11111111000101011111011010001100
11111111111000000110101110011001
00000010001100001100111111011101
00000000110110111101011011011111
00000001110101100100100110011111
11111110010100001110110010000010
11111110011111100100010011101011
11111101111000101011110010101110
11111101110100000001000011111000
11111110001110110100100101000010
11111011111101001110110101110001
11111100110100010001100111100010
11111011010010111100111101110000
11111110100100100011001111101010
11111101010011011101011011011011
11111101011111111000110010010011
11111101100000010100000001010011
11111111011110011111100000111111
11111111111110100111101111110001
11111011111101010010010000010010
11111011110010011000010110000010
11111110001011101100010100000110
11111111000001110001011011111011
00000010010111111010101011101110
11111111000111110001111011010101
00000001001010000111000011110011
11111101101001010001010001000010
11111111101110000110110111111101
11111111110111101100100100111100
00000010100100111111001100001011
11111111111001011001011000100001
11111110011100100111110100011010
11111111011100000011100000000000
11111101101111010110101011110110
11111011011001011000100101000101
11111011001100110000010111010100
11111011010001100010000110000010
11111100001011100001100111000110
11111110000101000101100000101110
11111110010111011101100110101011
00000001000101100100000001101001
00000001111000000100101110011110
11111111011001001001111001000100
00000000100010001101011110111011
11111111010011011101101010101000
11111110110000111101001110001010
11111110010101011100001111111001
11111101110110001011101101101100
11111100111010011011101010100010
11111010111010101000001011111001
11111101111010111001110011000011
00000000011001110010000000010100
11111110111010010111101001000011
00000000111110101110100111101101
00000001011000010110111100001100
00000001000111001010000100111110
11111111011011001100010010110011
00000000101001000101110000101010
11111110100101010001001011001010
11111101111110111111000001001000
11111100001010010010110111101001
11111100001110101101001101111011
11111100110110010010001011100101
11111100101000110110001000101011
11111011010100110111100011111001
11111001101100100110100000111111
11111011011100101101001001010110
00000001001010011010010001000100
00000011101011101001001101110101
00000001011010100111011011000011
00000000110110011110110001100000
11111111100010111100100101110000
11111110010011011111001110000100
11111101011101101100010010110110
11111110000110011110001010011111
11111100011100010011010011101000
11111010110110101011000100011011
11111111010111101001010000110111
11111110001110100100111100101001
00000001101000110000010001010111
11111111011011001111001101010001
11111110111001000101001001111110
11111101101011000100011010110101
00000000011101011110111110010101
00000001100000100000010110001010
00000000110001011011100000111110
11111110111001101001011010000010
11111100000111001110000011100111
11111100001111000100000000100010
11111001110110110111011101111111
11111010111011010101100111000000
11111011000100111111010001010100
11111001000000101001011101111100
11111001000111100111010111010000
11111101011000101100011111100001
00000100101001000000100101001101
00000100100011000110110100111110
00000101000110101011100001010001
00000010100101111000011111011000
00000001001111100000101010101001
11111110011011100010111010001111
11111110011110110111110101001010
11111100111010101011010101001101
11111011101001001100011011001000
11111100111100010011101100001111
11111110001101001101011111011110
00000000011001111111101100101100
11111110000010101000101000110001
11111110111100001000110100000001
11111111101100111110101010000010
11111110101001111001011010001011
00000001011011111011010111010011
11111110101000111111001100001011
11111111111101110011001100011100
00000000010010110000001000110000
11111010010001011110001011001011
11111011100101000101010111110010
11111000000000010101000110110101
11111101110010011001000001100111
11111001100010101001011100111000
11111010110100101011101010001100
11111101101101011110000110001001
00000010011011111000000011011010
00000101100000100010101011011011
00000011111100100000110000110011
00000100000010111100010100101000
00000000110101101011011111001111
00000010001101100001100101001111
00000001010110010001101111100010
11111101011011001010101110111111
11111101100110011011111111100000
11111011111110000010010111001001
11111101111100001000000001101010
00000000000011010110111100100001
00000000001000110000010100000110
11111111011011101101101101010011
11111111000001110100010000110101
11111111100011100111011000110010
00000000111111100001100011100111
11111111001110011011111101100101
11111111011100011000110100110000
11111101101000001010111011101100
11111011111100000001101111101011
11111010100010111011110101011101
11111011001011001110001010000110
11111010011101100000000000001100
11111010111110010011111011100000
11111010110001110111001001000010
11111000100011100101100110000111
11111110100101000011111001000000
00000010101000010101101011111001
00000100100000011001010100010000
00000001011011000000101101110000
00000010010001100111000011010111
00000010111001010001110011100010
00000010001000000000001001111000
00000000100101101101110000110111
11111111100000110010110000101100
11111100110101000110101001110101
11111011101101001001011001010111
11111100000010101001110110100000
00000000110100110101001010101011
11111111111011000110111101010100
00000000100101101101000011101111
11111111101000010100100011011101
00000001010101011010001111111001
00000000111010000101100010000110
11111111111100001010110111100110
11111110001101010001010111110001
11111111110111000111000111001101
11111101010001100000001011101011
11111100100100100011001010111101
11111101010110110111101010101100
11111011101011101100010001101010
11111110000011101111011010010010
11111011111110110011000011000010
11111100111101011000011001010010
11111111000011101101101000111000
00000011111010010111011000110001
00000100010001111110011111010011
11111110110011011000000110110010
00000000010111110011001011011110
00000001011101111000100100001110
00000100101111100101110000111110
00000001111110110001100110100111
00000001101100000100010000000100
11111110001011001101100100010010
11111110000000111110001111100111
11111101000000100111100100110010
00000000101000100101110110101100
00000001010110101110101111100110
11111111100000110011111110100111
11111111101110001111110111111111
00000000000011111100100001111010
00000010010101111100110011001100
00000001000011111011110100000001
00000000000010101100100000010010
11111111101001101111010110100111
11111111101110101101111010010000
11111101010010000001010101001101
11111101011111000111110000001101
11111110011000110000111011101001
11111110100100001010100111011111
11111011101010011011011001101001
11111110101101010110010000101101
00000001011000100101100111100101
00000100101001010101010110011110
00000010011000110111001110101110
00000001111011111001011110111100
11111110001010010111010000001010
00000011101110010101111010101001
00000011001100010001011000101000
00000011010100010001110000101010
00000001001010100001011101100000
00000000101010000100111100010101
11111100010111010011110011110111
11111101100011011100010010010010
11111111010110011011010000010010
11111111111101100001110001001010
11111110110111000110100001110011
00000000001011011000010111011110
00000001011111000011010001000001
11111111001001010010001010001101
11111111011000010101011000110101
00000000100100000110001111101100
00000000100100001111001001101001
11111110110110011100001001010010
11111111101111000100101010100000
11111111010100010100110101111010
00000000110010011011000010001011
11111110101111001110100001100001
11111101001101111110011011110100
11111111100000010010010100100001
00000001100000110011110111101100
00000010111011110100101000000110
00000011101011110000011110011101
00000010101000001001101111110001
00000010010110101001000111111110
00000010101010101010011000001101
00000010100110100110100110001000
00000100001101110111101101000100
00000001001011100100111001000111
00000000001011110111001101011000
11111111000010110111110110000100
11111111101011101010110011000101
00000000101001110110111000101101
11111111011111100001010110100100
00000000111111100110001111110100
00000000100111111000111000101011
11111110100111010010010000100010
00000001101100101000011011101101
00000000000101110011000111001101
00000000001001010001011100000101
00000010100001110011011010000111
00000000100011000010101101010101
11111110110010000010111000010000
00000000000110111111011110000001
11111101111110011110101000010111
11111101000011001010011111010010
11111101010001000101100010001100
11111111001000010111110111101000
00000011001110100001011010000011
00000100111010111001001111101011
00000100001100111110111010000000
00000011100000010010010001100111
11111111110010010000000100011101
00000010011011110101101001101000
00000001110100011010100111101001
00000001001100110100011010010111
00000000011110101010110010111010
00000010110010011000010000101110
00000000101110001010001010010011
00000001100100010000000100001000
00000000001111101101011000001000
11111110011101111110011000011011
00000000010110011010110011000110
00000000111011110110011101100110
11111111011110111010010001011111
11111111011110001010110011111100
00000000110011001101010110111000
00000010111001010001110101000011
00000010000011101110001000100010
00000000001001111101011000011101
11111111110110001111110001110001
11111111100100001000011000001111
11111111110000001000111110001111
11111100110101111000110100010001
11111011111001111111000010110000
11111110100101010000010010111011
11111110001101001001010011001001
00000011011111110111000001111111
00000000001111011000001101001101
11111111110001001011100100100111
11111111000000001111111010000110
00000000100101001011000101010011
00000011000011101100001011010001
00000001110011101110010001000110
00000001110000011101101010100110
00000000011101111111001011010100
00000010110110100000011110011000
00000010110011101110101010010101
00000001111100111100000101011101
11111111100101101001100011010100
00000000010001010101011001000101
00000000011000100001111111010010
00000000010110101001010001110001
11111101111110100011111101110000
11111101110111101100011101001000
00000001010000100100010011100100
00000001001001110010101110000101
00000011100011010100011101101000
00000001100001000000111010010110
00000000100010011111100110001000
11111101001010010101100010110110
11111111101001110101010100110100
11111110111110011100010011101101
11111101110110011001011001101101
11111110111000100110110101010010
00000000101101110101011000110000
00000000000001101001101111100110
00000000010110110100001110001000
11111110101100111111001001100000
00000011001001011000101001010111
00000010100111110110101001001011
00000011010010011001010111001101
00000001110100001100101110001011
00000010001001000101101010100000
00000011011101010100100000101100
00000010000001100000010010001010
00000000001111110010100000010101
00000000001010011110011000110010
11111110000011010111100101010000
00000001111010101111100011101100
00000000010000010010111011110010
00000000111001000000111110100011
11111111000110000111100011010001
00000010001001000011101100001000
00000011110000000010011000010110
00000011011110000011010001100000
00000011010110110100110010010000
00000000110101001101110001101100
00000001001011011100101010101011
11111110111111100001001100001100
11111100000011101111000101110001
11111101010100101101000001001001
11111100101011010100111111011010
11111111001101011010001001100001
11111110011011111001011001101111
11111111010101001011111110010110
00000001111100000001111100101001
00000010110101101011011100111110
00000001011101011000000101111111
00000011000011101011101100101011
00000100110000100011001001110100
00000011000111111001001011000010
00000011010010010100011110100101
00000100000111011111101001000010
00000000010110101011011100000110
00000000110011100100100001010001
11111111100111011110011000010111
00000000111111111010000000001011
11111111100011001001001111001000
00000000101011101100001111100000
11111111111100010001010111111100
00000000001011100000010011100011
00000010110011001001010100111100
00000010011101010001010011110111
00000011010001011001001000101101
00000000110111100101001011111010
00000000111101100101101010100000
00000000010010111110111011011101
11111101001110111000101010101001
11111110011001010011101010011100
11111101001100010100011100010000
11111011100111001010110111111100
11111111101110000011101001110011
11111101101111000001001101010001
00000000011111110111100011100011
11111110100101101000100101111001
00000010000001100101011011011110
00000010100100011000010100100110
00000001110101111101011111111101
00000011100010001000111110010000
00000011001001011101010001110000
00000010010010111111001101111110
00000000000111100101100111010001
11111111011111100001100111100000
11111111000101101011111111011111
11111110101110010000011111001100
11111111000011111001011101110110
11111110110100101000101010100111
11111111010011101010111111110101
00000000100001010101111011101010
00000010000011010110001011001010
00000010011001000000011001001010
00000001000010001000100000110100
00000100001010000100011011010010
00000000101110000011100101111010
00000010000001100110110101011100
11111110101111011010100010111001
11111100111101100111010101111101
11111011111000100100101101111111
11111111110110000100100101100010
11111101111000100010010011100111
11111101110010010101010101111101
11111110110000010101111111001011
00000001101011000100100111101001
00000000100101100101101010111101
00000010011000101111100000000100
00000000110101101000100000110110
00000010001100000111110111001010
00000000110110111100011111110010
00000000010010001110110100111111
00000010001111010101001111111101
00000000000111101100111111000000
00000001111110111110000001110010
11111111100010111101010101011001
11111110011001110010001011011011
11111111011010100100111010110110
00000000100000110011110001001101
11111111001110011111011111111111
00000000011101011010100011001111
00000010101111111100001111011110
11111111010011000010010100001000
00000011001010001110110011011000
11111110100011111111101101001001
00000000000001111100011001100111
11111100011101110111100101010111
11111100011001100010000111010010
11111101010110011111110001011001
11111101110010110011101001011101
11111011111110001010110001100000
11111011101111110111010110010101
00000000000101000100111010101111
11111100010001100111110100110010
11111111101000101100101100001110
11111111100110011011101010000110
00000001111100100110011100111001
00000000100000100010001001000001
00000001001010101110100001011000
11111111100101100001001001001010
00000000100000110100010001000100
11111111100110101100011101011011
11111111111000101111010010100000
00000000000011011110001001001011
00000001100111101110000010110001
00000000000110001010001111110010
00000000100100000000110011110100
00000000000111011111110101000011
00000000111110111100001001111010
00000000111010001000100011111011
00000001000100000111011000010011
11111111111111111110111010101100
00000000111101011100111101100100
00000000011001011000110011001101
11111100011111111000101010010100
11111011100000011101000001011110
11111101010001100100100011010101
11111101110000000111001101011011
11111110000101011111011010011111
11111111000000101111001101100101
11111110001100000010111101101100
11111110001011100011010100100001
00000010000000101011010100010100
11111110100010010100010110101101
00000000010011011011110001100110
00000000010101101110110011010111
00000001011010100101001010111000
00000001001000111010000110010000
11111111000111110001010001001001
00000001111010101101011100111110
11111110110101101111110101001101
00000000010011101010011001110010
11111110110110110110111100110010
00000001011000010110101111100110
11111111111011110010010110110101
00000001000011110111100011111101
11111111011111010100001111000000
00000000111010111001010110101000
11111110111001011110111000010000
11111110001000010001000011101010
11111111111110100010010101110000
11111111110010110010010100001000
11111101110101011011100011110011
11111111101010010100110101000111
11111110100111000111100101111101
11111110100110000000110010101001
11111110101101101010100001010111
11111110110111110000110010110011
11111101100000100010111101010111
11111111101101111110000011111100
11111110100111000110111001001001
11111110111010001111101111101101
11111111010010000111001111101110
00000000110111011001010101110111
11111111111111001101110000100011
00000001000010010000010110111110
00000001011010011010110110011000
11111110100000110101011010100111
00000000001101110100000110111111
11111110110001111101000100110000
11111111101000110110011010101101
11111111101000010110001001100100
11111111101010100111110100110001
11111111000000000011011001001001
00000001001110000110111001111010
11111101000010110011011011011100
00000000001111100010001011001100
00000000101100011010110100111000
00000000100011000100101100111000
00000000111001101101100010010110
11111110110010101011000011011111
11111111011110010110100110100100
00000000000000100100100010011011
11111110011000011101110000101101
00000000001010001111000110011101
11111111100100011101000110111110
00000000111011110111111101001000
11111101001101110100100101010011
11111111101100001000100110010111
00000001000001010001000101010010
00000000101000000101111110000001
00000001011001010010011100110110
00000000100110011100101110011100
11111110110110111011101110000010
00000000100010110111001000101011
11111110001100001000001000010011
11111111111110100011101101100100
11111111111101101011011011001100
00000001010011011010001000110001
00000000011001000100100010011011
11111111101010111001010101001101
11111111110111010100011001011011
00000000001100000011010010100110
11111111111111110101001101000011
00000001000101001101011110010111
11111110011001101110101011000010
00000001000111111000100000100011
11111111101001010110101010010111
00000000100100011110010100000100
00000001000111011010110001101011
00000000101011111010111110000100
11111111100110110010000010011110
11111111011010101010110110101010
11111111111011001011010100000010
00000000101101111101010010110100
11111110101010111010100001100110
00000000111111110111100100001100
11111111001011000000110011111110
00000000010000000000010010001001
00000000111110000010110000110011
11111110011100010110001100000111
11111111001110101110000010001100
00000000111011011111000101001001
00000000110111000110100010110111
11111111011000100101001100000010
00000000111001000101010010100010
