11110011110011110101100001011010
11111111101011100001000001111101
00000111011011111000000101010000
11111110011100011010000010000100
00000011110100111011100011101000
00001010001101100100111001001011
00000110110101100010111010111010
00001101111101101101011101101111
00000100111001111100100111010010
11110100110010001100001100110100
11111100101001101111110111001011
11111111001010001010001111110011
11110001110110100111111111111101
11101110101010010100111101000110
11111110111000010010111100110010
00000000000100001110001010001000
11101010011001011010110011010010
11111111111100110111100011000001
00000100101011001101110111111101
11111110001111000011101111001010
00000001001011100010001001001011
11101001100011010111001010000000
11111111111010001100000010001100
11111111101101101110100101110000
11111101111101100110000111111110
11111010100010110100110011101111
00000000001110001100110100110001
11110100000110000100101000001110
00010111011111100000000001101111
00000000000010101101110011001000
11101100011100111101010011101011
11111110000100011010110110101101
00001000100111101101000001100101
11111101100010011001011010110010
00001000101111000000000000011011
00000111000101100110010011000010
00000000101101100110001011010111
11111011100000001010011100111111
00000110010101010110001100011110
11111110110010011000001000100111
00001010011111100101110001101001
11111100110001111101001000101001
11111011111011010011001111011110
11111001101100110111101010010110
00001001100110001000001011001010
11111110000001001111111101110000
11110111010100001110111110001101
00010000010010000101010011011111
11111100011111010001100010110100
00000000010110011101010001000011
