11111111100111010011000011011010
00000000010000000110001111001010
00000000101001000110000110100010
00000000011110100100101100110100
11111111101010111000000001011111
11111111001000100000110010111111
11111111001110100100001111101100
00000000000110000001100101010111
00000000010110000010010000110100
00000000101000001010001101000000
00000000001110110101110011010101
00000000001010010011001111001110
11111111111000000110101000000010
00000000000111111010010010010011
11111111101111100001100000100111
00000000000000000110101010100011
11111111000101101001010011111011
11111111110110011111000000111101
11111111001110100111110111111101
11111111001101110001001111111001
11111111111011111100010000000111
11111111011010110100110111111100
11111111100100011001111000111100
00000000101100110011000000011111
00000000000000101000100011101001
00000000000101010110011101110011
00000000001011101101011111010010
00000001100101011101011111111001
11111111110111011011011110101000
11111111101100111110111110001111
00000000000011010011100100001101
00000000001010101101001110010101
00000000011001111000000111000110
11111111011111101110111001010010
11111111111101101001010011011100
00000001001000111011101101110101
00000000101111011011010010101011
11111111000111110010100101110110
00000001000001010000110100011111
11111111000001101111001101010000
00000000001101000001110101111001
00000000100011000001010100100010
11111111111111110111001101110011
11111111110000111001000101110101
00000000010011010011011100010001
00000000001100110010011101011101
00000000000010110100010100001001
11111111101010010011100011100101
00000001010101011011011011000000
00000000010010100100011110100010
11111111110000010000100011100111
11111110100101001100110110001000
00000000011000101011100001010111
00000000010011011010010010001110
11111111010100110100000100011011
00000000011000100001100010010101
11111111000110000111001001100110
11111111101111101010101100110010
00000000100010000110111000011111
00000000001110100100011110100100
00000000101110111000110011000100
00000000001100010100010010001011
11111111101101001010100000110101
00000000110101111001110100000001
11111111010010011001010110111110
00000000010000110110010010110100
11111111110101111000010001100100
00000000000010001110101010010101
11111111011011101000001111010111
11111111111000000101010111101110
11111111111001100110001101011001
00000000011001011010110000101110
00000000000101101000010111001100
11111110011111110000111000100111
11111111001011100011010001010100
00000001000011110010010000110001
00000000101101010101110110110010
11111111110110101000111010111011
11111111001101011111000000100011
00000000000011101011011100010001
00000001000011001101010111001100
11111111000110000000001111001100
00000000011010000011011100100110
11111111100000110110011011101010
11111111110111000111101000101111
00000000000110010110101011111101
11111111100000101001110001111111
11111111101010101000101000011100
11111111110101111001111010101000
11111111011011001111011101110011
11111111111000010111000001011011
11111111001000111101011011100110
11111111101111100010010100010110
11111111101000111000110100110001
11111111100111000101110010101111
11111111010001110011100111111001
11111111110000110100111110110110
00000000000110111111000001011000
11111111001100111111101101001100
11111110110111101001111100001110
00000000100000110000100011111111
11111111101111001011110000001001
00000000000010001001010110010010
00000000111000011000100100110001
00000000111011001010000011111010
11111111110010000111111001011010
00000001000101011101101111111110
11111111000101011010110010000010
00000000010100111001011100111100
11111111111100010100010001011001
00000000111000111111100000011011
11111111110110110001000111011000
11111111111010010101010111100011
00000000100000001111100101101011
11111111111011010010000001000101
00000000101000001111110101011010
00000000000100011000110111100110
00000000100110001101111100001001
11111111111010111000010101011010
00000000010001010001001000110100
00000000101001100000111000000011
11111111100001010101101110100011
00000000010110010100100011110101
00000000110011011010000010100100
00000001001110000010011101111111
11111110000010101101010011010100
11111111111010101000100100000110
00000000000000101111101101010111
00000000001110111101010110001000
11111111110110001001001011000110
00000000010010001011100111101111
00000000110001001010000010110011
11111111001000111101110110001101
11111111101001000110111001010001
11111111110010110000010100011111
00000000010100010101000101010010
11111111010111100111001011001111
11111111111000001010001000000001
00000000010011000101000101111101
00000000000100101110110100100000
00000000011110011110100000101101
00000001001101001000010110111001
11111111100100100100000111101111
11111111100110001011011000111110
11111111001101100111101111111001
00000000001000111010111000101011
00000000010010001000011011110011
00000000010101010101011001001100
11111111011010101101010010000000
11111111001011111001111010111110
11111111101000011100101011111010
11111111010101011111011010010011
11111111111011100101100101000000
00000000000000110111111110101111
11111111000011100111110000101111
00000000001110100000000010001101
11111111111011101110101111111001
00000000010101000110011111010010
00000000000001100011001101011100
00000000000001101111111110110110
11111111110010111111000111111010
00000000010111101000011110000010
00000000001011100011001101110000
00000000101000100110011010100011
11111111101000111000010000100011
11111111100000010100011000100010
00000001001101011011110010100100
00000000101011001100011011101101
11111111111011010000100110111010
11111111110111010010101111011100
11111111110101101000000010010101
00000000101010100111001011101100
11111111110100100000000100011110
00000000110111011001001101110010
11111111111100000111011011000011
00000001010100011101011100011101
00000000000011110010110001101100
11111111101100000010111011001011
11111111110111011001101000010100
00000000100101000011101001110010
00000000101100000010011101111100
11111110111100100101111000011001
11111111101011101000001101101100
11111111111111010000101101110110
11111111011011000000001011010111
11111111101000001100000000101111
00000000010101011001110010100111
11111111111001001111001011000011
00000000110010011111100001101111
11111111111000010000111101110110
00000000110110101001110010100011
11111111000100100111101011100001
00000000001011100101000001110101
11111110111100101011011000100000
11111111011111001111110001011111
11111111101010101110010011011100
11111111001001110110110111011010
00000000010111001110101000100111
00000000011111011101101100100000
00000000101011100001110101111001
00000000011011001111001010111110
00000001000011110001011101110100
11111111010100101111011110000100
00000000001000101101010101001110
11111111011010010000100111110000
00000000101001000011110001010111
00000000000110111011110001111010
00000000111110111110010110110101
11111111100110110111101010001011
00000001110100011011000011111000
00000000001010101010110110011101
00000000011011011110001011111101
11111111011011100110000010111101
11111111110001101110000000001111
11111111100001101101111000000100
00000000111101000000011001010000
11111111110110001111000101001100
00000000100101110001011100011111
11111111100010010110011100010011
11111111101001110001100111111000
11111111111010100100110110111101
11111111101011110010010000011110
11111111101111011001011101110100
00000000010000011010000011101111
11111110111011011001011101010110
00000000100111101000000110110110
00000000100010001000001111001111
00000000101011010110010110100010
11111111000111001001000011101011
11111111101010100110111010111001
00000001011101111000110000100110
00000000001100100100111101001001
11111111111010000010101110110000
00000001010011101101011101010001
00000000100101101010110000010001
00000000110000011011000010001001
00000000010010101110101010100001
11111111100010110011010011000010
11111111111101010101011000000010
11111111011100100011111110011100
00000000011000110101010001010000
00000000000011101101000010000111
11111111111011100000010001010101
11111111100110000111101110010111
11111111110110111001001101111100
00000000001010101100011011100001
00000000011000111010110010000110
00000001000011001101010101100100
00000000000011010100010011101001
11111111101000000010100010101110
00000000000111000111111000111011
00000000011110111010011001011010
11111111101011010001110001011100
11111111111110010110011000011101
11111111100110101000000101101001
11111111011000111010101111101101
00000000010110011100100001001100
11111111100010111100000011110111
00000000011111100000010000000010
11111111100001100110110110111001
00000000001010000110010100011101
00000000001101010101111111001101
11111111110110010001001010011011
00000001100111011110100001010001
11111111101000100101011000011101
00000000100010001111110001100010
11111111100100011001000010001101
00000000010011010110111100110011
11111111110101010000000000111010
00000000010001100111101101111101
00000000100111110111101101010100
00000000010111001111101011011111
11111111011100110010100010000011
11111111111010000100100001110011
11111111101110000010011010000000
00000000000000101000101101000110
00000000011111010111111110110010
00000000011001100110111010111100
00000000111111100111010110100110
00000000011101010000111010000101
00000000110110010100110001000100
11111111001111000101110100001100
11111111001100111101000001010000
00000000011010001101101101111010
00000000100110010110010110010011
00000000010110100010101101010100
11111111110110101000010110110010
00000000011011011111111000111110
11111111100100010101111101111110
11111111010100110010111100010000
00000000101110001110100111110010
11111111110001101101111000100110
11111111101111100010011100110110
11111111111011101100100001110001
00000000100010001110010100111111
11111111101110110000100101110000
00000000101001111111101010101100
00000000001100100110100001110010
00000000001011000001100101100001
00000000110001101111000101000110
11111110111011011000100010011111
11111111001011001110011001110010
00000000010000101010110101010010
11111111011010010010111111000101
00000000011000010010001110100001
00000000000101011000100000111001
00000000111000011010111011101000
00000000001010110111010111010110
00000000011001100101101111100000
11111111001010110000100000000001
11111111110010111100101010100110
00000000101010110101001000100011
00000000100101011110111001011101
00000000001010100001001000011011
00000000011000000000001001110110
00000001001101101111010000010011
11111111101101000101100111101010
00000000001010011001111001001010
11111111111100010101111001111101
00000000111111000111000000011010
00000000010111000100110001110111
11111111101101001111011000011101
11111111110011001001100010110110
00000000010001111011111110101011
00000000000101110111010010000101
00000000000101110100010100001001
11111111110000111100010111110001
00000000111000011000000100011110
00000000100011110010000111011011
11111111101101110101000101110101
11111111101001001110101101111111
11111111110000111101000110010011
00000000001110111111001010111010
11111111100000001111011011001110
11111111111111101111000111110011
11111111110001111110101111111011
00000001001000010101011011000011
00000001001100001101111000010101
00000000111101100010111000001011
11111111100000010101110110110111
11111111001011010000000100011001
11111111101011110100100100001011
00000000101001100111000101001101
11111111110100011101101010010100
00000000000111101110111010010100
00000000100101001011001001010111
00000000011001001100001011000101
00000000101000110100001001100011
11111111111000101100011000101110
11111111011001110011001110011110
11111111111011001001000000000000
00000000110100101010000000100000
00000000110101100111010100110010
00000000000011010011010100100001
00000000000100110010011000111100
00000000111001110111011111011001
00000010000011010010110100011011
11111111111010011100111110110111
11111111100001000001000001110100
11111111000100100011111001001111
11111111100010010011001011101001
00000000000111001101100111010001
11111111110111000100000100001101
11111111100111111001001100100110
11111110110111110110000010111011
00000000011001100100000011111110
00000000001100111111010011010011
00000000110111001101011001010001
11111111011101101110001101100010
11111111011010011100010011000000
00000000011000011100001100110110
11111111101001111111011110101100
11111111010111000111110101010010
00000000100010100100001010111000
11111111001111010010111111001010
00000000010100001101010110101000
11111111101111010011101001101110
00000000010101110100000010010110
00000000000000101110100111111000
00000001001000110110010010101001
11111111010010110110101000101010
00000000000111100111011010111101
00000000010110110110100011011111
11111111111111001101111010011011
11111111100110010110011111001110
11111111001001000111000000001100
00000000100001001000000000100010
00000000000101001001001111111100
11111111101011010110000111101001
11111111111100111001001001111110
11111111101010100011110110101010
00000000010001101010111110111101
00000000111110011111000101000000
00000000010001100100011100100101
00000000000101001110000011111000
00000000010101011000110010010100
11111111111111011111110110110101
11111111010011000101001100110100
00000001000111001011101011001111
11111111100000011011001000101011
00000000010100111111010010111010
00000000010000010100100101100001
11111111010100110111100110001111
00000000110111111101011000001110
00000000100111110011000101000101
00000000001100010111111110011010
00000000100111010010001001001110
00000000000010000001110111011100
11111111011110011100101001111000
00000000110100110011000011101010
00000000001011111111010110100001
00000000010101000101111111110101
00000000101100000010010010101001
11111111101011111100011000010101
00000000111010011101101010001011
11111111100100010110011101010101
11111111110001001000101001001000
00000000000110110000101011011110
00000000000111011110110111110001
00000000111011111101111010010100
11111111100001100011010101001001
00000000110011011110111001011010
11111111101101001011010010000011
11111111111010011101001000010110
11111111110100101010001010111110
00000000001000100111010100110101
11111111111011000110000101100000
11111111110110110001100111001010
00000000011101111101010011010001
00000000000010001101010111001011
11111111011010000011100100010110
11111111110011001110011010001101
00000000101100011010000101110110
11111111000101000110101011011111
11111111010101010000111000000101
00000000111111011110100101011111
00000000100000101001001110100110
00000000101001010001001100000101
00000000001101110010111000100001
11111111111110101111001101101101
00000000001100011001100011001111
11111111101001110000110001101100
00000000010011011010101100101111
11111111010011101001100010100010
11111111011111100010000101001010
00000000010010110010111101110001
00000000000010100110101000000001
11111111101110111011110110011100
00000000100011010010001010111000
11111111111000010010111110101001
00000000001010110110101101010100
11111111001000110110010011111110
11111110111100000000110110111101
11111111110111101011001010011100
00000000111010111000011110101000
00000000001100100101101001101111
00000000001010100111000110010011
00000001100100111100111101101000
11111111101010101011110101100001
00000000101100110000010010011100
11111111101001101111001101101110
11111111100000010000000001011101
00000000111110111000001100110011
00000000110000000001100001101000
00000000010111001011101101101001
00000000100110101101011101011001
00000000101000011001011110101011
11111111111000111110010010001000
11111111110001010000001101111011
00000000001000100000010010001101
11111110110100101011011111001011
00000000011111001010100000111001
00000000000011001101110110111101
11111111110101110110100110111100
00000000111111010101001001101010
00000000000101011100101101010111
00000000001001110110110010111001
11111111111001010101110101010101
00000000100011110011101001100000
11111111101010110111111001111001
00000000110111101000101001110010
11111111010001110110010101101011
00000000011100000000111010010001
11111111011010011010111000010010
00000000000110001000000010000101
11111111111111000011111100100000
11111111010011100000001001001010
11111110111101000001101011110011
11111111101011111110100000001111
11111111110001001100110010001010
11111111010011101001100111101001
00000000001001100001010011010101
00000000001000000101000011110110
00000000000010100011111110100010
11111111001000100000011001110111
00000000100011101100111010101111
11111111101001000110101110100011
00000000000011001010100110000101
11111111010101101111000100000100
00000000011110110110101011011001
11111111110110110011111101101000
00000000000111001000100000110101
11111111100110110100101100101101
00000000010000111100001111010001
11111111011000101101111010101000
11111111011100101110001110000010
11111111111000011111100001001001
00000000001010000011011010000001
11111111110000101001101101000101
00000000000000010010001001001111
11111111001001010111010110000000
11111111101010001011100110100000
11111111100011000011110000000010
11111111101111011001111011111101
00000000010010011010001100011100
11111111111111111010111100111010
11111111101110010110101001111011
11111111011111010011111111100101
11111111101110100110011011101001
00000000011111100111001010011110
00000000001110100110000001110101
11111111111110000101010010011111
00000000111100000100111111010001
00000000000011101101111101011001
00000000101100111010110101100000
11111111010111110100110000101010
00000000000111000010000101101101
11111110110111111100000001100111
11111111001011100100101110010001
11111111101010111001111001000111
11111110111010011110101111100100
00000000101001010010110100000111
00000000101001101100000000110011
00000000110101010000100010100111
11111111011111110010100101010111
11111111011011100110101110001111
00000000101000000110000101001011
00000000101010011110001001010010
11111111010011100001010011011110
11111111010010000001101101000011
11111111010110000111011111100010
00000000100001100010001100101111
00000001111001010100101101111011
11111111110100100111000001000011
11111110110000110101111100010111
11111111111010001110000101000001
00000000000100101101101111010111
11111111101011000101000001010111
00000000011101100101101101000010
00000000001001001000101110001111
11111111111110001011101100100110
11111111011100101100110101010111
00000000101001100011110000000010
11111111100010110010000111101110
00000000110001101011110110111101
11111111000111010010111001111010
00000000100000011111000011100010
11111111101100100101100101101010
11111111101111011011001000000001
11111111001010001100010010011001
00000000001000111100010100111110
11111111100011101101101100001101
11111111101100011110010001111110
11111111011100100010010110001001
00000000011000011101001010001010
11111111111011001000111101100000
00000001000100010111110001110101
00000000001100100111111001011111
00000000000110001101000011001100
00000000001110000000011000110000
11111111100110110010000101001010
00000000001111100001100110000000
11111111101110000010110000011000
11111111101111111001000100001110
11111111001101111110111100101110
11111111011110010101111001100011
11111111111100000010100101111010
11111111110101110100010100000001
11111111100010001111010100110101
11111111101011010111100100000011
00000000000110010011110000011000
00000000011010110011011000110001
11111111000011000101011111101101
00000000111100001100010011011110
11111111111001000111110101111000
00000000000101010110010101101111
11111111100010111011111011111110
11111111001110100001011011000000
11111111010101001000111010100001
00000000001100011000111101001010
00000000011011000000011101010001
11111111011001101101001111111000
11111111111111101010110001001001
00000000011100101100100010011100
11111111100100010001001100110010
00000000110111101000001110000111
11111111011010000011000100100100
00000000010101010000100110000111
11111111111110100011111010000111
11111111010111000111000011011000
11111111000011000101010001011101
11111111111000001000001011111000
00000000100100110100100111011011
11111111100010100110011110001100
00000000001011011000110101011000
11111111100100011010010011000010
11111111001000100000101000110010
00000001000010001000111001111011
00000000000011101010100010100011
00000000111111110111000101101010
00000000011011111000101000011111
00000000010100110011111000010010
11111111001110101000101100111111
00000000011010010011110101000011
11111111101001010001001011101011
11111111110110101000011111100011
00000000110111111000101111100010
00000000011001000111000011000111
11111111111001010101001100001110
11111111111011101011011011101000
11111111101001110110001000100001
11111111110111011011010101011110
11111111010111001011111111001110
11111111111001001010011111010000
00000000101011111010101111001111
00000000011010010101011111011001
00000000011110100011001110011101
00000000001101111000101000011100
11111111110110000101011001111111
11111111100010100011010100100010
00000000000010100101001110111101
00000000101011110000000111011111
00000000010011010010000010010001
00000000001000100001110101101111
00000000100000001110001111001011
00000000001101111100111011111010
11111111011100011010110100001001
11111111001111101100101111010010
00000000011110100000101000110101
00000000001011111010101011111001
00000000010001010110001011000011
00000000111010110001010110101111
00000000100111001100101010101111
00000000001001000110011011100011
11111111001100101011011011010011
11111111111000001000010010001101
00000000000001000111010111100011
11111111011110101000111111110001
11111111111110010100101110001111
11111111100100110011010001100011
00000000001100000101100001010110
11111111111110111000100100110110
11111111111101110101111100110111
00000000000010100000010011001111
11111111110010100110101100111101
11111111110101110000000111101001
00000000000111111101110111101001
11111111011010000010000100111101
00000000001010110111010001011010
00000000000101000001111000001011
00000000101111101110010101111101
00000000011011001010001110001110
11111111010111011010111111110100
00000000101111000000100111101000
11111111111110000001000001111011
11111111101111100101001010011011
00000000110000111011000101110111
11111111101000010101111110001101
11111111110100000111000100100111
11111111111100110001100110010100
11111111111011010111010010001110
00000001011101000110100010101101
00000001000011111111000101011001
11111111101001111001000111110110
00000000010010001101011011000011
11111111110100110111011110010110
00000001010100101110110001110001
11111111011111010100001010001011
11111111001111111011001101010011
00000000110111000011100001000100
00000000100000110010100111010000
11111110111100100001011101001111
11111111110001111001011101011010
00000000110101101111100010110011
11111111111111000011110100100101
11111111011110000010001001000110
00000000100101110010101101011111
11111111000111101111101011000111
00000000010010111000000100100100
11111111111010000001010011010100
11111111101010001000001101001111
00000000101100000101001101011011
11111111001110000001011010010010
11111111101001010010010101000101
11111111111011011000011000011010
00000000011011011100010000000000
00000000110000011111000011111101
11111111111101100110000001111101
11111111110011001010101110000101
00000000010101000011011011000110
00000001000010000001100110100100
11111111110011111110001100000101
11111111100001001100001100010101
11111110101110010011010001101010
00000000100000110011100000011010
11111111001000010010011100000100
11111111101101101101001001011111
00000000011011001011100010001010
11111111010101101111000101100010
00000000010110111010011101111110
11111111110101111000101011010101
00000000101010100011110100111111
00000000010111011010110101100111
11111111011110000001111011100110
00000000001100011110011011100000
11111111000100011100111000111100
11111111111000110111010110101010
00000000000011010100111110100010
11111111011101111010110000110001
00000000000011111101110101010110
11111111011010011111101010011101
11111111110011100001100011111110
00000000000010011111101010111000
11111111011000101010011101001001
00000000110011010110100000001100
11111111100000000000011010000001
00000000011110010001110110001100
11111111010110101110000011000000
00000000110110011101111111111011
11111111100110001111101110110110
00000000001111110110010001111100
00000000010000001111001010010001
11111111011001110000101100100100
00000000011100001101101101011011
00000000001000111001000001110101
11111111011011001001000111010100
00000000011100010010000101100010
00000000011000010101010010010001
00000000010001011000001100111011
11111111100101001100011010000001
00000000000010110001010100100110
11111111010111100001011001110010
00000000110011001010011011001001
00000000000000001011000010100110
00000000000111001000000010001010
00000000110010110010000110111110
00000000001111000000011101110111
00000000001010110010101110010000
11111111100011000010010001000110
00000001000101010011100110101111
11111111001100000101101100101001
11111111101110111001011010011001
00000000010010011111110010010010
00000000000000101110101111100011
11111111000010110101010110100001
11111111101111011101010110101000
11111111111100101110011110110010
11111111011000111011000010001101
11111111111000110000000011001001
11111110110100101110110010000001
11111111111101110000001100001110
11111111110110010101101100001111
00000000000100010001101101110110
11111111111001111111101101001110
11111111100100000111000010010000
00000000000101110000110110011110
11111110110110111110101010001001
00000000011010011011100001000100
11111111001111101101111100011011
11111111111110000100100001011100
00000000110101010101111101111111
00000000101000010101011011101111
11111111010101001010110000101001
11111111101011011110011110110011
00000000001011100000110000100100
11111111100110100010001111110010
00000000100010101000011111100000
00000001000010011011100100110110
00000000010010111110001010101100
11111111111001110111011001001001
11111110110101011011000110111111
11111111011001110101101110111000
00000001001000011010100101001010
11111111011010010001000100000011
