00000001000011111001110110001010
00000010000101110101000101111101
11111110100011011011111011101110
11111110100111001110111100000101
11111111011100111010110101010011
00000000010001010110001000000110
11111110011111100001110000000001
11111110100110111011011101001000
00000001011001011001010011111001
00000000010110111101110001101010
00000000010100111001110010000011
00000000000001101100000001001011
11111111010101001001110100001001
00000000111011010100011101001110
00000000101000101100101010111101
11111111001011110101010011100000
11111111011010000011100010100110
00000000100010101111111010111111
11111111111100000000000110001010
00000001010011001001001001101110
00000000100101000001010111111101
00000000000101110000001000110111
00000000010100101110011111001000
11111110010101010111101111011101
00000001000101101011111010000110
00000000001000000100011100111110
11111110001011011101110001011000
00000000011001110100000110001010
00000001010010011011000110000101
11111110111000110000000110100000
11111111011010000010001111101001
11111110101010111100000001000011
11111111011000101110010111110000
00000000110010011111001100001111
11111111000101110000010010101101
11111111111000011011101011011010
11111110101100111011010001100001
11111111110001000000000111111001
00000000010101010010110010110000
00000000000111000000100111110111
00000000010100010111100011000100
00000000100000000000010110010001
00000000010011111111001110000011
00000000010101010001101001010001
11111111000011010000110110011001
00000000011001001011101010010110
11111111110100010101100000001001
00000000000001001101010100101110
11111111000111001111000010110011
00000000111001100101000100010001
00000001000001111010010001000010
11111101110001010001000001110010
11111110110001011011110011111011
11111110011101000101101111111111
11111110011000000101011100000001
11111111101001010000011110111101
00000000000100110001111100001110
00000000011000101101110110010100
00000000000011110011100011111101
11111111110000110100101101100100
11111111011100101010111011010100
00000000110011101111100111111001
11111111000111001000011101110011
00000001101010001111111011100010
11111111000110001111101010000111
00000010010011010001110100101011
00000000100111111010111010100011
11111111001101010110011011111110
11111110000111010011111110011101
11111111000011000110111000101111
00000001111110000011101011000101
00000010010011100000011011000100
00000010000011010000000110110011
11111111110010011101011111101001
00000000001110000110000010100111
00000001110110100100001110100011
00000000011001100100010011001100
00000000010011010111011001001011
11111111110010101011011011100000
11111111110101111011100101101101
00000001100000100011110001101101
11111110110101111101100000000010
00000000111100110110001010101011
11111111001000100000101000111101
00000000111111100000010110011011
00000000111110101011111101100111
00000001110101101011011101001100
11111110010100101001110110111101
11111111111010000010010100001110
00000000111010010110011101101100
00000000110101010100011001110100
11111111001010101010101100010001
00000000001001010001010010101001
11111111010001100011010000100111
11111110010010101011101111111110
00000000100000010011110011001000
11111111000101110000001101001011
11111111100010110110101001010000
00000000111010011111000010001111
00000010111110101111001000110100
00000000100111101111100101011111
00000011010111001011101101110011
00000101001011011000011011111001
00000101011001011101011111001001
00000100001110001000000110001000
00000100000110101000001000100000
11111111000111011100000010011101
00000001111000100001001110100010
00000000100100100111010111011000
11111111101100101110101111100100
11111110110011111101010011101000
00000000110000101001011001111000
00000000110111011100000101101101
11111111010110000101110111111100
00000001001111110101100100010001
11111110011101100010000111001011
11111111110100010100010000100000
00000001000110111000001011111100
00000000001111100100010110100010
11111111001111111111110000101110
11111111011101101011000001000100
11111111101001110110110110101010
00000000100001001001100001100101
11111101100010100010011000101110
11111100101000101101001110010011
00000000100000110100111111001000
11111111101101001010000010100010
00000000011010001110010000010101
00000000010001011110101101010100
00000010000110100100110101000100
00000110000101001110001110010101
00000011101100110010100111100001
00000100011010101010111100100000
00000010110011101001000001100111
00000011011100001011101001010011
00000100001101101100110000001001
11111111011011111010100011111001
00000000100011011101100100110101
00000001010011011101010110000101
11111110101010001110010100000110
11111110101010010000000011111111
11111111111110010101001101010101
11111111100110100010001110111000
11111101110111001100001100111011
11111111010111000010101000001001
11111110011000001100101000010011
11111111011101100101100100000111
11111110011011111100100110101011
11111110101101011110001011000000
11111100101011101000011110100110
11111100111100101000000111101100
11111101011100110101110001010000
11111110010110011111100101111100
11111111001000101100011001001010
11111100110001110010101111001001
11111011101111000011001110100100
11111101011101110101101101111011
11111101001001111110000011111111
11111111001000010110101110111111
11111111010111110111011100100011
00000000101010100001101101111100
11111110011111101000110111000110
00000001100111100010101001101110
00000001111111101000001010100010
11111111100001011011111010001101
00000000011101011111101011001101
11111110110111000100111011110110
00000010010100011010101010001100
00000000000100000101100010011100
11111111001110110001100000010111
11111111010010101110100010111000
11111110111100100000011010000111
11111111010101110111001000111111
00000000100110111111010010101111
11111111100010100101111111100100
11111101110111101010110100001111
11111110101100000100100011100001
11111111101000010100001110101101
11111100110110000001100111111110
11111100000000110011101101111010
11111100011100100110000000010100
11111011111001011101111010000000
11111110101111101011110000010000
11111110010001100010010010000100
11111101100010101100001110101100
11111101100000000111110000011001
11111011010110100011000010001110
11111101010010010000101011010100
11111011111011010001000011100101
11111110110010110110010101101100
00000000001010001001011010001011
11111110100010001001101110110010
11111101110111010111110000111011
11111100101011011011100011011001
00000000001100111100111001111000
00000000110001010110001011010110
11111111011011000000100100010001
11111110101010110010011110111011
00000000110111110000000110100101
11111111101100010100111010001010
11111111110001111011010101001001
11111110000110010011100010111110
11111101100111001101100001101001
11111101000001110101111100101011
11111110101001000101101001100010
11111111001111000010011110111010
11111101111110011010010001001110
11111110001010101100111010000011
11111101011100100000001000100101
11111100111110110111011010111101
11111101011000010100010110110001
00000000010110010110110010010111
11111110001101001011100111110001
11111101000010111001111000101101
11111010011101000001110100101101
11111011101110101010110111110111
11111100100100010111110011111110
11111011100110011010101001110010
11111101010011010010001000100100
11111111001001110000001110110010
11111100100011010010100110101101
11111101001110011010001010111111
11111111011100010100110111001010
00000001011010001111110001111000
11111111000010111101110111011011
11111111011000101110001100111100
11111111000101111111000001001111
00000000000000100100000001111000
00000000000011110000000110000101
11111101011000000001111101101010
00000001010111010110010011010010
00000000101111111000100100011110
11111110010101000100101001010011
11111111011101000001010101100000
11111110010100011010011000100010
11111111011110010101111010000011
11111110010011111011110111001111
11111111010100101101010001011000
11111111001110100010100110011111
11111110110010011001010000011001
11111110011000001100110111111011
11111011100111100101101101000110
11111010111111000110011100110100
11111011110001000001101111010011
11111100010011001111111010001101
11111011101000101001011110001111
11111101000001111011011011111011
11111101011110011111000110101100
11111110011001000111101111011000
11111101111111111110011101110011
11111110110100110110001011001100
00000000111111111010111101101101
11111111001110000010111110000010
11111110110111010110110001001110
00000001101000100000000000100101
00000000011000001110011010010101
00000001010110110011110100101110
00000010010110101111110111011110
11111111011111001101001001110010
00000000101010111101101001110001
00000001110100010000011111011001
00000001100100011100010001101101
00000000111001111101011111100010
00000000010110001111011101001001
00000010100001100011011010000011
00000001001111010111101111011100
00000001100011110110001000111001
11111110011101000110000100111011
11111011111111101100101101111001
11111010100001110110100101001100
11111100000010001111000100001111
11111100100111111010110011011001
11111101001100111101001001101011
11111101010010110110011101011011
11111100101101001100000000101110
11111100110100111111011001001010
11111011100010110100100011000111
11111101111011010011111000111010
11111111010001010111111001011001
11111111010000001100110110000001
11111110011100100010010111100100
00000000100010010010101101001110
11111111010000111110110001100111
11111111010001001111000100101000
00000001001010011111011011010011
11111110101101100111101101100110
11111111100000000001000101010010
00000001111010010111111010101010
00000010000000111101001001011110
00000011000001100000011110111001
00000000100001111001010010110010
00000000110011100010101000011100
00000011100011000000000010010111
00000001100000111001101001111000
00000001001100100000010000110110
11111110011111000010110010101011
11111010111001011011010000000010
11111100101110011110011011101011
11111010011100001001111100111111
11111101111001111111100011011110
11111101111011110001010101011000
11111101110011000000010110110011
11111110111000010001000101010010
11111100110001000000100101110011
11111101000011111100011111111011
11111100001010001110011110011011
00000000010100011001110011011100
11111111001111001101010111001011
00000000101000001011110010011011
11111111001000001111100001110010
11111111001101111101001011011011
11111111100101010000111101101110
00000001000010011011100100000101
00000000001100010000101001011110
00000001110010110010011010111111
00000001111010111000111111111110
00000001010111010000010011111001
00000001001011110001010111011000
00000011001110110101011010010010
00000000010110011100101111111111
00000001000111000001111000111010
00000010101011011010001011000101
00000001000110101111001110000100
11111111010011101010001010100111
11111111011000111000100101111001
11111111010001110110011101000111
00000000001110011111101100100100
11111101101111110011010101111101
11111111010010110110100001110011
00000011000000101100000000110110
11111111001001111100000110101000
11111111110111100100011010100111
11111110110100111011001101001001
11111101000010000101010101100011
11111111111011001010100000001101
00000000001010110010100100000010
11111110110000011100011110000001
00000001110001000111010010101011
00000001000011010100000111101101
11111111111010011010010110101010
00000001111111100010011001111110
00000000110001011101111000101011
00000001110000010010100101110100
00000011010101010101011100110111
00000001110111010000011100001110
00000001000000010111001010100110
00000010011110101001100001011110
00000001000111000000010011101101
00000010101110011001100111100111
11111111010001110011110100010001
11111111111000011101000110010100
00000000101000101100111000001111
00000000000001101011111100000001
00000001010101101011101100011100
00000000001100101001111010110001
00000001010101111111111010001001
00000001100101110101000001001011
11111111000101101100111101001001
00000000101111000100101101001010
11111111000101001111001010101011
11111110110110100000001001100111
00000000100110101000000000001110
00000000001110110000101010011100
11111110001110111000111110011000
00000000001111010111100111010011
11111111010110101010101011001001
11111110011000010101000101011001
00000000110100100101000011011011
00000001111101111111111010101101
00000010010010000100111110000111
00000001101001100100001011010111
00000011111110110011110111000111
00000011000000101010101001010001
00000010100111101001000011101010
00000011001011010100111101101001
00000001111100011100101001010100
11111101111101011000111100001000
11111111100100010101111101001010
11111101111100001001110111111101
00000001110001110111111010011010
00000000010011011100000101110001
00000001101011010100000001001100
00000000010010101100010000000110
00000001110110110001010111000110
00000010010100110011110111001011
00000010111001011000100011100000
00000001111110011010111111101010
00000001001010110010011110101100
11111111000100110001111101111101
11111111111010001010011111100101
00000000001000100010100001100111
11111111110111001111011001011000
00000000011011111011011100011010
00000001010001101100111001001100
00000000000110011110111010011010
11111111101101111101001011000111
00000000000100000001101011100101
00000000011110110001101110100000
00000001101110011100000011001100
00000011100111000011100101010001
00000011000101010010001110101000
00000010000111010001101110100010
00000010001111010110111100001111
00000000100000100011110000100011
00000000010010010101110001011101
11111110001001101001001011010011
00000000000001000101101111111111
00000000011000110001000010111100
00000001010101001101000011011001
00000000001000010010000110011111
00000010000101000100011011010010
00000011001000110010111111010011
00000011110111110100001100111110
00000010100100001110100001111101
00000011011110011101001010101100
00000001111011011110011001010111
00000001001000101011010110000111
00000000001101001100100100010101
00000001000000111011110000100001
11111110110111101100101101011000
00000000010110101111100010110001
11111111101110101111000001110010
00000001011000010101010010100000
11111111010111100000111110001010
00000000111100100010101101001001
11111111111101011011110110110001
00000100111001100100000011011011
00000100010111111101001001110011
00000010010101001111011111010110
00000001110000110000101101110100
00000001101111100000010111111001
00000000011011101101100011001111
00000001100011011011111010101100
11111110000100101000111000010110
00000000111011100111101110000001
00000000110101010000111110000111
00000001101010010110000000011000
00000011000111100000011101111101
00000001100001110100101110001100
00000010000001001111101001101101
00000100110110011110011111100110
00000001011000100110101001001000
00000011111100110010110001111001
00000010011111101100010000100001
00000000100000110010001001101011
11111101110001000011110100111010
11111111001010001110010010110100
11111101011000011111010010110111
11111110110110100000011001111101
11111101100101010001110011100111
11111111111101110100000100001101
00000000010010101000000111110011
00000000010101111010111001110011
11111111000110111101000100010010
00000011100111110100110000111000
00000011111000011101110011000101
00000011110010111100000101110100
00000011010000000110000001001011
00000000000011011100101011011111
00000001110000110100111011000001
11111111000000110010110000010010
00000001001001010110000010000000
00000001111001101101111000110011
00000010110011000111111101101111
00000100010101111111110100110010
00000010110100011011100010100111
00000000100110111011010101000010
00000001001110111001101011011011
00000000010101011010101010011111
00000000111000100111001110101000
00000001111001010101000011010011
11111101111111110101011110011010
11111111110010111100111010101000
00000000110000011100100111000111
11111110101000110110111001000010
00000000001011010101110100111001
00000000010110101110001111000101
00000000111010100000011111001111
11111110110100001111011101110110
00000000110110000110101000110011
11111110101101111111101110010110
11111110001111100011011101001011
00000000100000101101110011011101
00000011011010010101000111010101
00000100101100011000101011110000
00000010110001001001001000101000
00000010000001010101001010111011
00000010011010010011010111110111
00000010100000001101000101010011
00000011001011001111100000100111
00000001001011011000010011111100
00000001010011101011100001110101
11111110111000100000010111111000
11111111011000111111000111010100
00000001101110111000111010000000
00000011000100011101111001010101
11111111110110011101101111110000
00000000000111000010101101111001
11111111000011001011100000011110
11111111101100100111110000110111
11111111011001001111111101011010
11111111100011010111000000101000
00000000001100100010010110110100
11111111010010100100101010100110
11111110110101010011110000010010
00000001100000101101011000101101
11111111111100011010110010100001
11111111011001011101100111011110
11111110110101010001010111110011
11111110110110001100010101111101
11111100100110010011000011100011
11111101111101000110111000010010
00000001001100101101010111100011
11111111110110110001101111010101
00000001111011111001111000001000
00000000010001001101011001110111
00000001111000010110001100100101
00000000111001000010100000010110
00000010011001111011010110011111
11111101100101010111001101001101
11111111011011111000010110000110
11111101000110111011001010011010
00000001001010001110110110110010
11111111110110011100101101011011
00000000010001000100101110111111
11111110010001100011101111011111
11111101011110101011000010011011
11111110010001000100110101011001
11111101000100000011101000110111
11111110001001010010011001101110
00000000110111010001101101100110
11111110100100000011011011110011
00000000100011100011010110001000
00000010000010100111010000010111
00000000010001110001101010011110
11111110101100101111001011100011
11111011100011010101010011000111
11111010110110011010101100011000
11111001110110001110100101011111
11111010001111000100011100011110
11111100011001100101000110110111
11111100000011110111100001011001
11111101101100000100001111011010
11111101111111011101010100010100
11111111011001111111100101011100
00000000000100110010001101001001
11111101100110110101000010001100
00000001011001001100001010010100
11111111011110000110001011001101
00000001011000000100001110000011
00000000010010101110100101110100
11111110000111011010001000011000
00000000111110010111101010001111
11111110011010100011001000011101
11111011110110001100001100101010
11111101010100000101001110110100
11111100110010100101011000000110
11111111101101010110011100011010
11111111111110111100101011100110
00000000100111001100111000100010
11111110101101101001010111001011
00000000001000001110000111110000
11111111101111000110000110111011
11111101011110000100010100011111
11111111001011110101110101010001
11111100110100000100101101011000
11111011110010110101010101110110
11111001110011110101100001101101
11111010000100000100100001011101
11111100000001111110100000111000
11111110111100100111100000111001
00000000110101110000110011101000
00000010110001000001111011001011
00000001011010000110101111000001
00000010011110101100011001000111
00000010101100011011101010100011
00000011001010101000101111100101
00000001011010111010110010111001
00000000111100000001010001110100
00000000001101010001100010110101
11111101101111000101000001111011
11111100111101100011011011100001
11111100111001111001101110110111
11111100010101011001001001001100
00000000101111001110100010010010
11111111101110110100010111011101
11111111001000010111011110100000
00000000001001100001000101110101
00000000000001010001011101000110
11111111101111111110100110110110
11111111100100000000001111011011
11111101110001000011111011101001
11111111000011001100010100110010
11111101100010111111111011101010
11111011110101011111100100010110
11111010110111001111000111000010
11111100110001001100101101111101
11111101010100011001011001111110
11111101110101111101011010110010
00000000011111001000111001000010
00000001100000000110101110001000
00000011011001111001011100011101
00000011000011101110010000100101
00000011100110010010101111001101
00000000000101001010011111011110
00000001010001000000100001110010
11111110100101011001110111100110
11111110001111000010001111101101
11111100111011001010101100010011
11111111011011110010001110101010
11111110100001001111000000000101
11111111101111001110111011110101
00000000010010110001110111001111
11111111110111010001011011101101
00000001000011111000101010010000
11111111001011111101101101100100
00000000000000000111100011110100
00000000011110111011101110011010
11111111000110010011100011010001
11111111111111001000100001100010
11111101101100110100101110100001
11111101011010100100000111110010
11111100111001110110010000000110
11111100000011100111101101011101
11111010100110011011001111001100
11111100001011110111000001110101
11111011000010100100110110001000
11111000111010110000101000111101
11111100101011100001101111001010
11111100010111110000111010011010
11111110011001110011011011100001
11111101010110010001100011001000
11111101101001110010110111010001
11111110010101101010000101101100
11111101001100011110100101011000
11111101001101100011111000111111
11111110110111100111100001011000
11111111001010100000100101111110
11111111010100101010111110100010
11111111000100110101111101111101
11111111101011110011001000010110
00000000000001001001011110111101
00000000001101100110011110001100
11111111011110010000000011001100
00000000100011111000101101011001
00000000001010111100101001110000
00000000101110001101001000111110
00000001001110010111010110000000
11111111000101110001010100110101
11111110010110111101010101101110
11111110001101100001000001110000
11111111000100001110111000111110
11111110011110011100011101000101
11111101111010010100101100001110
11111010010101011000001001101000
11111010011000011111011010010101
11111001000100101011100001110001
11111000110100001001001101011000
11111001110100000010010011001101
11111010110100000110010010001101
11111011110000010000000011111010
11111101110001101111010000011110
11111110000001000100011110111001
11111111110001011111001000101100
00000000010111011111110110101011
00000000010101110010000010011010
11111110010101001100001100000000
00000001100111100001010111111111
11111111100010010110000000111011
11111111110101010111111101001101
11111110001001111111000010101101
11111111111001000001101011110100
11111110110000000100111110010001
11111110100011010010011110001010
00000000010010111111011001011000
11111111011011101100011000001000
00000001010001110011011000001100
00000000000011011000110100010101
00000000100010011101101010110010
00000010101100000111110011010100
00000010000011000101010011011110
00000000010001110101111011010101
11111110111111010001110111100101
11111111010101101000000110110110
11111110100100100101001100000011
11111110110111000101010011011011
11111101001000000110011101101010
11111111001110111110110001000101
11111110110110001011110100101011
00000000001111011110010110011000
00000001100111011111010000000011
00000001011111101100000110110001
00000001010110111100110100000110
00000000111101100111101101000110
11111111101000001001010000000101
11111110111001001001100001111001
11111110001001011000100000110011
11111101001101000111011111001000
11111110111100011011001111000110
00000000010000111111111100000100
11111111100100001100010001010001
00000000101001111111111011001010
11111111101111001111010110110000
00000000010110101110101000110100
00000000110011110111111001100111
00000001000000101100011010010100
11111111100011000010000110101001
00000000011101111000111100010111
00000010011001100101110100011111
00000001001000110010110101110110
00000011000111000011101100111000
00000000110110010010100011011100
00000001111000101110101000000010
00000001101010110111100100001110
00000001001101101111100010010100
11111111110000000001011101110111
00000001000100100000101110101011
11111110111010101011001000001101
11111111001011011111100010001111
11111111111000101110101010110010
00000011000111110100010110001111
00000001011110000001101101011111
11111111110101101101100001011011
00000000110001011001011010100101
00000000001101011010110111000001
00000000001110101101110101001110
00000000000001111111110101100111
11111111110000001111110100000111
11111111100001001000010001001100
11111101100111000101111011110101
11111110000010000110010010110111
00000001000110010011010101111000
00000000111111100010101110110111
00000000101001100010001111100010
00000001101111101110101110011000
00000001101000100111001111010001
11111111000010010110010110001001
00000000111111010010101000001111
00000001110011110010011001111000
00000010000001010001111100011000
11111111100100001000111010100110
00000010011010111110101100000011
00000010001101000100010000110011
00000000000100001011101000000111
00000000100111010111001100001110
11111111100001101100111101010010
00000000010100000111010000001110
00000000000100000001000010010100
00000000001010000001111000111000
11111111111101000000101011001000
11111110111101010000101000111110
00000000100100100110000110100110
11111101001100111010110110011100
00000000101010101100011111111101
11111111110000010001011001100010
00000001100011000001111111100110
11111111110100101010011101100101
00000000001011111001000000111011
00000000010011000100110000101000
11111111011000000110000000111110
11111111011111101110000010111110
11111111011001110100010011101101
11111110101111001010011101100100
11111111000100100001101001110100
00000001010110101010011011000110
11111111101111001000010001010100
00000000001010011110101000001010
11111111110111010011000110100101
00000000001101010101001011100101
00000000100101001101001001010001
11111111010000101000000001011000
11111110111001011010100111001111
11111110110011001101110011001001
00000000010000001111011011010011
00000000000111001011100010101110
11111111001000100000010001111000
11111111101000001110101100101000
00000000001010010110100100001000
11111101100101101000000100001101
11111111011111111111101010000010
11111111101111010011110010010010
11111111001111111101111011100010
00000010000001011001011010110010
00000000000100110110000000001011
