00000000011001001010001100111001
00000000111010010110001011000101
00000000111110101000100100110001
00000001001000001101001000101010
00000001000011111111010110000100
00000001110000101011100000111010
00000001101011111110100000001001
00000001010010011101110000001101
00000001011000111000011011001111
11111111111010001100111001100000
00000000100010010100111100001110
11111111111111100111011011111010
00000001111101010101001010111111
00000001010111100111100111011111
00000000101110000011111001001101
00000000001000000100101101010101
00000000010001111110011101000000
00000001000010101000011011000000
00000000110001110111000010111001
00000000101011101011100010101011
