00000000001101110101000101111100
11111111100101111101010110101011
11111111110001111011010001000000
00000000101011101010000101100001
11111111110101100011011101000001
00000000001011001010010101111110
00000000000011111100000011010001
00000000000100011001100010111001
00000000000110110011001000010110
00000000001101001000001010101111
11111111110010000110101001100111
00000000000000011111111001110000
00000000000110011001011100110000
00000000000101101000011010001000
11111111110010000001010000111110
11111111111011111101111000001011
00000000001011010111111001000001
00000000101001100111100110110000
11111111111111110110010010111101
00000000000111001001110000100111
11111111110011101000011100111101
00000000001011010100001100101100
00000000010001100110001010010100
11111111110101111100111010011001
11111111101101110011001110011000
11111111101101000111001111010001
11111111110100100111001110000011
11111111011110010000010100010111
00000000010001011010000100101111
00000000000010010010010110010100
11111111110001001111011100111001
11111111110101010101101101000011
00000000001110000000101000100100
11111111010110101101110010101011
11111111111001011111010001110110
