11111111001011100010010010010110
00000000000110110000111000011101
11111110110110010001110101010000
00000000001110100010100001000000
11111111101000001000010000010111
00000000000101010111101100110000
00000000000100100010000110000110
11111111101100100101101100111111
00000000000001100000110001011011
00000000000010100111011001011010
00000000010011001101001110100100
11111111010000111101011001000111
00000000010011001111101011111101
11111111100110010011001000101001
11111111111100011100010000100100
11111111011110001111100000010101
00000000000010101110010111011101
11111111110111011011101100011010
11111111101010001010000010111110
00000000001000100100010110010000
00000000010101111110011100011011
11111111000000010000110110000010
00000000000100000001001000111111
11111111111010100111100101010011
11111111110010001101100101100100
11111111011111010001111100100111
11111111110010101101100110101110
11111111100001100111011101010101
00000000100011100001100100111011
11111111101011010100100010101001
