00011001001111000100101110100110
00010000101000110110010100010110
11111001011011000100100100000001
00000000010010110100010111100101
11110000100111111010100100011010
11111111010110110011110011111011
11110100100000100001110110111100
11101010000111011111010000100101
11110000001101101101011000010011
00001110111101010110110110110100
11100110000110111101001111011000
11110110010011100011100110111101
11110110010000001011010111000001
11110100110000001000101000100100
11110111101110110111100101000101
11111110111110001100001011111110
11111010101101101101011111000010
11110010100010111001000011100100
11110010110100111111101111111011
11110000100111111011100001101011
11101000000011011111000011100001
11110110001001000110001101001010
11110000111010110000100000111010
11111010011110011110110110000001
11111011110111001000101000011111
