11101100100101101111010000000101
11001101111111101000100100001110
10111001110100111010010100011010
00001000000011110110010010011011
11011000010101110010101101110111
11101111001010111100001110101101
11110110000110111100001111001111
11110100011011000000010001001101
11111000110000010100001011010000
11101010001001101000001000000100
11001101110110100011001110111111
11111101000100000010000100011010
11111010101110001100001100111100
01111101110111000100010001010101
11110001110110101011111010000100
