00000000000000010010010111010001
11111111111111111010101011001100
00000000000000000000111010111001
11111111111111111101110101101010
00000000000000000110001101000100
00000000000000000001000110100011
11111111111111110111111001110100
11111111111111111011111111001000
00000000000000100000001011001010
11111111111111100101011101101101
11111111111111010110001111010100
11111111111111111001001001001010
00000000000000000100000011000101
00000000000000100010100000011010
11111111111111110010011011100001
00000000000000001000111110011111
00000000000000001011000011001110
00000000000000000010101101110011
11111111111111100010000101111000
00000000000000010111001011101100
00000000000000011100001011010000
00000000000000000111010101100000
00000000000000010010000011011001
00000000000000000101001101110001
11111111111111100111000011110011
