00000000000100101101100011011000
11111111000111000111111001000100
11111111101111010001100111000110
11111111111100001000111010110110
00000000000001110111100001001101
11111110111100001000010010011110
11111111011010000000000011111111
00000000010101101100100100101110
11111111011011101101110111101111
11111111111001111101111000111010
11111111010001100100101110001010
00000000001111101100111101101010
11111111111101110000100000110101
11111111101111001111011111001010
00000000000000011111100100011011
00000000110011101101001101011111
11111111111110100001111011011001
00000000100000100001101000100001
11111111001001111111001010110010
11111111100000010101110000100100
00000000000110111000110000010000
11111111100110111100011000111111
00000000111000111111000101010000
00000000011000100101011111110100
00000000010101111000110011101000
11111111101101010101101110001101
00000000001100000101110010011110
11111111010111011010011100001100
00000000000010111010011010010101
11111111000001100110110001100101
11111111100110101011000011001001
11111111101100100101110010000100
00000000001101000111001101110001
11111110110011001101000001111000
11111111001110000011100101001100
11111111101100100101001010101001
00000000011010000010000111101010
11111111101110001101100000011100
00000001010001110011111011101100
00000000100111001010100111010100
00000000000011010011110111110000
11111111011100100010111110100001
11111111001101001011110110101101
00000000010010000001011001000010
11111111101000000011010010110000
11111111110101000111001010110110
00000000101101100011011100110001
11111111100111010010000111111001
11111111100010010101101010011101
11111111101100110011011101011010
00000000011110100001000011001100
11111111011000110101001100010001
11111111010111010010010110000001
00000000011100100110101111101110
11111111110000110101001111000010
11111111100010111000000110110010
00000001001101110111100000110010
11111111110000101011110100010000
11111111111101100010110100010000
11111110111011001001101110001101
11111111000001001110100010101010
00000000110010110001100000000000
00000000010111100101111100010000
00000000110001100011010000011001
00000000000000001111000010110000
00000000001110100110110101001000
11111111111101010101010111010010
00000000100011000100100100100001
11111110111110011000010010110000
00000000100010010111000101111100
11111111001111111011111010100011
11111111101011000110101111100001
11111111101110011110110101101011
11111111110111001010000101101011
00000000100010011111001101001111
00000000111100101011101000001000
00000000001011001111111100100110
11111111100100010001010001011101
11111111101001001111011000111101
00000000011000001101101011111100
11111111100010011110010010010011
00000001001010011000011101000101
11111110110111001000111001110000
11111110111110000010111100011100
11111111001010001011001100001111
00000000100000010110000110110010
00000000010001111101100000101110
11111111011111010000111011011010
00000000001101010100000101000000
11111111110001000110111000101100
00000000001011010100010001001101
11111111011100001010110011110100
00000000101000111100000001011110
11111111110000011111110011000111
11111111010101100011100110000000
11111111001001000101000110000110
00000000011111110100100010111011
00000000010010111110100000000111
11111110110101011001110110111111
00000000011001011011001010000111
11111111010011000000100001101111
00000000011011111001100100110001
00000000100011111111011011001111
00000000111011101100001011110001
00000000001100010000111111000100
00000000111011110000000110110001
11111111011001101000101111010100
00000000100100100001010110110101
00000000000000000100011000001110
11111111100100111110010001011010
11111111100000010101100110000000
11111111001010110000100110101111
00000000000011010011101110000111
11111111001010000110111110000101
11111111011011011111011110001001
00000001100001111101001010011001
00000000000010111011000001100000
11111111001111010111010000110100
11111111110000100101010111101010
11111111111110111110110101011001
00000000110011110010001101110111
11111111101001010000110101000111
11111111110110011101011100100011
00000000100100001011111110101100
11111111011111001101100101010000
11111111110011101001100010110100
11111111111000100101110010011100
00000000011010100100001101001110
11111110110100000001010100101111
00000000000001001111110110000110
11111111101110010111111100101001
11111111100010111011110110010110
00000000100100111111010011111110
11111110111100101111110011001011
00000000011010111011011101101101
00000000110100001010111000101101
11111111101011111100001001000101
11111111000110110010010010000010
00000000001001100101001100111000
11111111111011100001100010001111
00000000010001010010010110110001
11111111110110001011100100001101
00000000101010011100100110101101
11111111001100000000001101011001
11111111100110111101110001011000
00000000000000011010100010100111
00000000010111101000011100110101
00000000100011011101111001010000
11111111110011101100110100000101
11111111101010101111010010101110
00000000111011000101110000100001
11111111100000011111111000010010
11111111110010010111110111010101
00000000010000110101111001011001
00000000101101110100101111110000
11111111011100001010111010111111
11111111111111001101010001000110
11111111101000001010101111100010
11111111110001000111000010010000
11111111101100010011100000100010
11111111101110011010111100001000
11111111110010101010100001111110
00000000001110000100111000001010
00000000111000011110111100101101
11111111010110110110110011011111
11111111110110100000100100100101
00000000001100010010010010100110
00000000011000100110111010101000
00000000001100011010110100001011
11111111100101100010100010110010
11111111011011101110101011100101
11111111110110101111110010000101
11111111000001001011001001010111
11111111111001010111010001000001
00000000000011010001001111100001
11111111100011010101111010101011
11111111110001101001011010000011
11111111101000101011111111001111
00000000000110101110000011100001
11111111100001010111110111110011
00000000101010111110011111011101
11111111110110111000111000101111
00000000010110100110110000111111
11111111111010100110100001111100
00000001010100101001011010111100
00000000100110011000011101101000
11111111100011101011000011111010
11111111000001100010000100011001
00000000111100011010011000100001
00000001010101010010101101110000
11111111111010100110101001101101
00000000110000010001000010100000
00000000100001111001001110101111
11111111111110011001000000001110
00000000001110011001100000010010
00000000010001110001010111010111
11111111100110110111011000010011
00000000101000101100111010011010
11111111101101100011110111101101
11111110110101000010000111110001
00000000011100000100010010010110
00000000000101001110101000010101
00000000001011011111110101111011
00000000111011110010001001001110
11111111110010101100111110001000
00000000000001000100001110100000
11111111111111011011100011001101
11111111011100101110011110010001
11111111111110001111000001010001
00000000011100111011110100111101
00000000001111100010001111110010
00000000101111001000001011001010
00000000010110110111001111001101
11111111101001110101111101010111
11111111001011101100101111110010
11111110111011101000110000001000
00000001001011010011001110011111
00000000100001011110000111001101
00000000010110001011010010000101
11111111110100011101001100100011
11111111100000110101011100100110
11111111101011001110111111000010
11111111111100011000001001011100
11111111110101000010011000000100
00000000110011111010011000000001
11111111000100011010000101001000
11111110111011010010111011111010
00000000100001000110111100101001
11111111010100101101010100100001
11111111100111001001010111111011
00000000011010100000111010010100
11111111001101110001100110110101
00000000110000001011010000110010
11111111010100010101100000111110
11111111111111011100100011011001
00000000111110001111110110111100
11111111001110100101001101000010
00000000100011100111001101011110
11111111110101010000100101101100
00000000101100001011101000110000
11111111011011000011011010111001
00000000100101101011000111111111
00000000101001100111010100111100
11111111000111010110011000010000
00000000000100000001001000001011
00000000010000101001011011101010
11111111111100001011010010111001
11111111100110110001011000010000
11111111001011001000000101000111
11111111101001001110100101000110
11111111111110011100000111110011
11111111100110100110110111101110
11111111011001011110010111101110
11111111111000000111110001111100
11111111111100001100011010110001
11111111101010111010100000100010
11111111011001001011110101000001
00000000100110100111101000100111
11111111111011010000100100001100
11111111011110001000110100111110
11111111111001101100110111000000
00000000000111011100001001010001
11111111110011111010001001101010
00000001010100011100000011010001
00000000000100111111011111000110
00000000000100100000011110010010
00000000001010111011010100111001
11111111101001110101010110100010
11111111110010000100111000000011
11111111010101010111101101011000
11111111111111111001110011011111
00000000110000000111001000000110
00000000000000010001010111010111
11111111010010010010101001000010
00000000110010010011000110100000
11111111000101000011011101000011
00000000001011100100011100110100
11111111111101011110011110111011
11111111101001011101010001110110
00000000101011100010011010010100
11111111100011000111010010000011
11111111000010001000101000010101
11111110111101111001010110001000
11111111110111101110000001000101
11111111110000111000111011011001
11111111011001100000111001110010
11111111111000110010000100110101
11111111110010110010100110011000
00000000011111101011110010100000
11111111100111010001011101001110
00000000000100110010000010111110
00000000010111100100101111001100
00000000010000111001111000111101
00000000011101111101101110100111
00000000000001001110001010100110
11111111010110111001001100011100
00000000001111011101011011011111
00000000100110111000111000111100
00000000001011000101001011000001
00000000110011000010101100001101
00000000011010001011111011011110
11111111011010101010001111110100
11111111011011010110111010010111
11111111000110111110011010001010
00000000001011010010010111001111
11111111100000000110011001011000
11111111100100010110100110101011
11111111110000101101000011010101
11111111010010111001100000111010
11111111100001100100011001011110
11111110111011100001110001110111
00000000100011110001010010110101
00000000011100100101011111010001
11111111101010011100100001001011
11111111111001011001101010110111
11111110111011011100111111010011
00000000000110110101110100010011
11111111100001110101101100000111
11111111001111100110001100111000
11111111111101000000110011000101
11111111100101110001011110011101
00000000110110100001000111001011
00000001011100011100011000101011
00000000010001011100100100110110
11111111010101010111000011101011
11111110111101110011011011001001
11111111011101001110000001110000
00000000010001100011111111011110
00000000011101100100000011010100
11111111100101010011001100101100
11111111001001000101001100001011
11111111101100101110101011000111
11111111001111010110101100000001
11111111100010100101110110000110
11111111100001001000000001001100
11111111010110011101100111101011
11111111111001100000111010100000
00000000011001100111111110001101
00000000010000101111101101100011
00000000101110011110100010011000
11111111111111101101100011001111
11111111111011100000000101111111
11111111100100000001101100110111
11111111101100011111110101101110
00000000001001011011001101110111
11111110110100111000011111001011
11111111110011000011110100000100
11111111111001001011010100011110
00000000010001101011001010000010
00000000111010101000001101011000
00000000001100011110000111010001
00000000000111000000001110101111
11111111011111100011100110110000
11111111110101010110001110101011
00000000001000011011110111100100
11111111100000110001110110100111
11111110111001110010111000010010
11111111100100101110110010010101
11111111111110001011010110110111
11111111101010001110111011010001
00000000111001101000101001110000
00000000101111111011110100001001
00000000100111010010100100101011
11111111100101011011111000010100
00000000001010011111111011000011
00000000000100111110111010011100
11111111110011111110010100001100
11111111101101101110111111010001
11111111111111110000110000111111
11111111100001001111000001000111
11111111101001110000100011000101
11111111100100010110010100101110
00000000101000001111010000100100
00000000010100010010000000000111
00000000100111000011110111000100
11111111011011111010001100011010
11111111101001000000100010000000
11111111100111011010000111010101
00000001100011111011100101010001
11111111011001001010111011011001
00000000010110111101010101110100
00000000010111100000100011010111
11111111010100100011010101101000
11111111111011110011010001100010
00000000001101010111010100101111
00000000000011001000110110011001
00000000010110110010100101010101
00000000011000111110100001101100
00000000100010010110110101011100
11111110101000010011001011001100
11111111111110001011001001001011
11111111101010011100010110000001
00000000010000001001111110010101
00000000011101111011011011001110
00000000100011011000001010111000
00000000001110110010110000010111
00000000001010100010001000011111
00000001001001010011101100010000
00000000001000011001111000011010
00000000000000111000110000100011
00000000001110010000111011110110
00000000010000101101000101001101
00000000001000010111011111111010
11111110111101011111111000010011
00000000001011111100100001001110
00000000001001111010000111000000
11111111101000111110111101110100
00000000100110010001101011100111
11111111110100100100010010110110
11111111100101110100100100110000
11111111011101111000111001111000
00000000100001011111111000010100
00000001101000100100111101000111
00000000011001000011101010100101
11111111011010100000111101100111
00000000010001000010100110011011
11111111101111111000010110000100
11111111101110101001000110001110
00000000100100011010100011100010
00000000011001010001110100010101
00000000000100010001111101010101
11111111110001001110110000111100
11111111110110010111100111011101
11111111101000111001001101011010
11111111010111000011000001010110
00000000001000100000000100010110
00000000010110100111011101111110
11111111101100101111100100000100
11111111110101000110100001010001
00000000101100100000011100010000
11111110111100110001100010100111
00000000011101011110000011010111
00000000000100000110111011101011
00000000101100110011111010011111
00000000101100111111101011110100
00000000100110001111010100010110
00000000100011000001101101111001
00000000100011010001110001100011
00000001010001000011011010100110
00000000001011001100001001111001
00000000001011001111011110110001
11111111001111101011110000101011
11111111101111100100101100011100
11111111110110010111001001010111
11111111101011100010101100010010
00000000010101100110110100001011
00000000001100010000111001100010
00000000111011100100100110110011
00000000110001000001101011111000
00000000010001010001000111001011
11111111001101101100010011000110
11111110111010110011101010101001
11111111110011100110001001011101
11111111101001011100111100011100
00000000001011111100110001110101
11111111111001011111111000001000
11111111110001011101101001101101
00000000111011011011010111011110
11111111100000001110010111110100
11111111110001110101101010100110
00000000011100000011011110100111
00000000100110011000001001000110
11111111100100110000011101000001
11111111100110100010100010101101
00000000001001011110000010101111
11111111011000110001100111111100
00000000111010100010111100011100
00000000011010111100101001100001
00000000100010100000101000111110
11111111111110111010011110101101
00000000101010110111011100001110
11111111110110010101000010001111
00000000000110100001110011111101
11111111111111110001001110110111
00000000100010111101111001101001
00000000010111000101111100000110
11111111101100000010000011100100
00000000011011101101110000011111
11111111110111111010011010011111
00000000000110011010111001011111
11111111100100111101001011000111
11111111100110010101001011101101
11111111010010111001001110101001
00000000100001110100100111000001
00000000011111000011001010010000
00000000110000010001001111101100
00000000011110010110111010010101
11111111101010100110011010110000
11111111011111001101001100100011
11111111111110110011100000111101
11111111100111111101001111110001
11111111001111001010011111101111
11111111111001010010110101011001
00000000011101010000100101110101
00000000011001011100001110011111
00000000001001100111111010011100
11111110111110010001010000010100
00000000010010111000010001111101
11111111101000100101011101110010
00000000100010000110101111101100
11111110110111111010111110101001
11111110111010111000101001000110
00000000110001001110100100101001
00000001000110011000000101011101
11111111101101100100000001101000
00000000000100110011010110100100
00000000101000000011100100100101
00000000000011011010100101001000
11111111001001110000110100101100
11111111110101011111011101110000
00000000100111111011010010011110
00000000010001011100000010111100
00000000001011100100000101010101
11111111101000000000100000110101
00000000110100011000001011111011
00000000010011000110001001111000
11111111001001101110111010001011
00000000001100100100010000111010
00000000011001111010010000101111
00000000010100001011101101100010
00000000001001000011110110100101
11111111011011110100011000000111
11111111011111000111001101110111
11111111001111001100010110100011
00000001000101111001110011000000
00000001010000110000010100101001
00000000000111001110001100000000
00000000000011110111100101010011
00000000011011101001111101110101
11111111011101011110011100101001
00000000100101001010000111101011
11111111110011010001001111000001
00000000000111000001010111111110
00000000001000010011110101001111
00000000100000000110111110100110
11111111111111101110001001111011
00000000100100101001100100111110
00000000001111001010000110110000
00000000010100110111110011001010
11111111010111011011101001010010
11111111110111000110001000000101
11111110011110111101000101101110
11111111111000010011110110000000
11111111011101110111010101011011
11111111000110001111101010101001
00000001100101001001001010001010
11111111011000111010011010001011
11111111110111111011011111010101
00000000101001111111111110010100
00000000101011111000010111010001
11111111011000101001101000101010
11111111111101111101100000110000
00000000001100111011110010001111
00000000010011001100010110111010
11111111001001110101011010011010
00000000010100010111011010001000
00000000001101101000101000100011
00000000010100001000011100000110
00000000101101010100001010001110
11111111011100100101111100111101
11111111110111000111110001110100
11111111111111010001100000010010
00000000010110010101111000100001
00000000100010100001111010110111
11111111101101000110000110100110
11111111101101000010001011110011
11111111111011000010010100000110
00000000011010100110100111110001
00000000010010000110010101010000
11111111100010111001101111100000
11111111001001100010000001100111
11111111111100100111000101001011
11111111101101111011100110100111
00000000000101010001101001000010
11111111101110101000001000101001
00000000001101010001110111000101
00000000011000001101110111011100
00000000000110111101001011011111
00000000100000001010100010110100
11111110111011110100000101100110
11111111100111101011000110011110
00000000001100001100010000100101
11111111110000100101110010001000
11111111111110100001110111110100
00000000000110111000110010011111
00000000011101010001011000111100
11111111011000100101000110101011
00000000011101101111101101111101
00000000001000100001101110011000
11111111111010000111011000000101
00000000101111110010111110010010
00000000010111101111000000011111
11111111110001010100000001111011
00000000000011011011010110010100
00000001000101001110010110010011
11111111101011000111011100001001
11111111011000101000000110110011
11111111111011110011001100100011
00000000010111100110110000110100
11111111011110101101100100001110
00000000101110100000101110001101
11111111011010011010001000010110
11111111110110001111011101010010
00000000011110000001010101000100
00000000110011010010100100101010
11111111010110100001111001101011
00000001001011011101110000100100
00000000000100100001011101011111
00000000010011111100010111000100
11111111110111111010000101111100
11111111000111101000010010100010
00000000001011101101111110101110
11111111111110000011100110010001
11111111111000101100010001101111
00000000011110100010001011100110
11111111111110110001111101101001
11111111100111100111100101010110
11111111110010001000110110001011
11111111011010000111010100110000
11111111100111000010101110110111
00000000110000010010001100100110
11111111001111011110101011100001
00000000011100101100101011101001
11111111111111110100111000100000
11111111100111101010000000010101
00000000000111101100001011011110
00000001000011011100100001000101
00000000001000001110011110100100
11111111110000000000000101110101
00000000000000010101010000100001
00000000011110011011001001011111
11111111100011110010111010111100
00000000010100000010101100001001
11111111111000011010001010001111
00000000001111001010101000111010
00000000101001011011101111111011
11111111110100011110100100111100
00000000111110100100001100000001
11111111101110000001010010110010
11111111110001100010110001110000
00000000000011111010100000111001
00000000001011011110001110111010
00000000000101010101010111101000
11111111011101111111011100101001
00000000101000100111111111000110
11111111100110100100000011111110
00000000111110010110011101001010
00000000001010110101011101110000
00000000011100010110110010011100
00000000010111000000001101000011
11111111001111111100011011111100
11111111111001001101110001001011
00000000001110111001100001100001
11111111010011101001110001111011
11111111001110101100101011011111
11111111010011001100111010010011
00000000100101010010101011011000
00000000000101011100001000110001
00000000000000111011111100001111
11111111110100001001000010110010
00000000110011010001000110011110
00000000010111111101110001001011
11111111001000100001001010101001
11111111100000101000010100101110
00000001010000100100111111101110
11111111010000000000110101101110
11111111011010111101000001111111
11111111111111011001010000010111
11111111101110101101000011001100
00000000100101001110011010100000
11111111100001000101010011001011
00000001000101110001101000001100
11111111110110001110110010000010
00000000100111010000010001000000
11111111101111100110011100010110
00000000110100000111100001010100
00000000000110110100000100010100
00000000010101010000011111101011
00000000001000010010000001000010
11111111100001100111100110010001
00000000101000111110000010010001
11111111101100010100000001010101
00000001010011011111011100110100
00000000001110011001001000111011
11111111110001100110100011001001
00000000100001111101000101011101
00000000001010011011000101001100
00000000011111100111011011010000
00000000100101010000010010001101
11111110111101101101010101010010
11111111110001111100011000101000
00000000110001110000101010110100
00000000010000100011000110101000
00000000000000011000010100100001
11111111111001111001101110101000
11111111100101001100011101000001
00000000101100001101010001011000
00000000010000000000010010111111
11111111101001111100010100100000
00000000000110110111011100000100
00000000001110110110010010000100
11111111111000010110011110110011
11111111111001000010000110110100
00000000110010111001101010100000
11111111101110110001011100011100
11111111010001100010101011110010
11111111001011101100100010110101
11111111101110011110100100110110
00000000011000011110011000111101
00000000000100010110000001011011
11111111101011100111010001110100
11111111110010011111100101101110
00000000011011011011000110110101
00000000001010001010110010010001
00000000010001010100010101000010
00000001001101111111000110011110
00000000011010000010000100001110
11111111010101111010111100100110
11111111101100000111010011110011
11111111011101010111011110110010
11111111101101100011000111000011
00000000011010000001011011001011
00000000100110100110001110010011
00000000001011111111010011011011
00000000100001110000001110101100
11111111100001111100100111110001
11111111000011100111011001100111
11111111110101011010101000011111
00000000001101000101101111001110
00000000110011101101111111110001
11111111001011101001010011111010
11111111011011111100010011111011
11111111100101001101101110001010
00000000011101001111110100011000
11111111111011101101100010100011
00000000001010000110110101100001
00000000110001100000111111000111
00000000100011001100010011011000
00000000010110000000110111000010
11111111110001101110000011001110
11111111111010111101101111111110
11111111100000110101100101001010
11111111110101000111011110001100
00000000100111010111101100011001
11111111011110010100010110110101
00000001011110100101111011111111
00000000100111111010101101100001
11111111110001101110011000000100
00000000011111011101111011101010
00000000000001101001000100101110
00000000000111101010110101001110
11111110100100100011100110011010
00000000011010001111010100111001
11111111111001011111000111011000
00000000001010100111110011001111
00000000011100110010110001111001
11111111101110001110011110011011
00000000000000010010011111010011
11111111111011111111111010000001
00000000011011011110001001110011
11111111101110101000100111110010
00000000001111011010000011101010
00000000001010101010110100101000
00000000000100100111000011000100
00000000100110101011110101111111
00000000010101111110000011100001
00000000001000001001011011000110
00000000101011111110010001100100
11111111111010001110111101100110
11111111111001110010101001011011
11111111011111110010001011111111
00000000100001110101000101001101
11111111010010010001100100001010
11111111101010000011101100101011
00000000011000000011001011101011
00000000100111100001011110011110
11111111101000101110000110001011
00000000001110110100001000011110
11111111101111010110000110101010
00000001010000010110100110111100
11111111010011000001110110001011
11111111110101011000101100101010
11111111110110001011100011100110
11111110110101010111100101010010
