00000010000101111100100101000101
11111101000111110100001001000101
11111101000110100001011110100011
00000001100100011011111101111111
00000010110011000101111011100110
11111110110111100101111000010110
11111110111010100011011101111111
00000000010011000000001011110100
00000010011000010100000011100011
00000010010101100100110000010101
11111110000010010100110110011001
00000001000011010101101000100001
11111111010001000110011001111001
00000000111110111010110100000111
00000001000110111100110110010010
00000000011011100000110110100000
00000100000111100000011000011000
11111111110100011001111001110110
00000001101101010111000100111010
00000001110100001011111010111110
11111110101011101000110001111000
11111110000111111001001110111001
11111010011100111001110101111000
11111101111001110000010100110101
00000011011101001111011011100010
11111111000101010110011000110111
00000000011100100001110000000011
00000001101000010011101001101110
00000001111110011000010110110111
00000011000100001111111101110100
00000011111100101010111101100000
00000000111110001111000010011110
11111101000011100111110100111000
11111111100100101001010100001101
11111101000000110001101000111100
11111111100101000100011101011011
11111111101110000101001000100011
00000010011000110011101110010001
00000001110001110100000110101001
00000000011110111000000001011000
00000001111000100100110010111100
11111111000011101110110111100000
00000010101111000010101001001111
11111011111000111101111111111001
11111101111101010110000010011111
11111110110100011111011110111010
00000001100110000001011111110111
11111111100101101010110011111010
00000011110010000001101011001110
11111101110010101010110101010011
