11111110101100000111001000101101
00000000000100101001011110001010
00000010100101010100010001101000
00000010001011111101011110011010
11111111101110011111100111000000
00000100010101010111000111101110
00000010010100110000100101110000
11111110001100001110000001101011
00000000101100110001111111101110
00000000011110011011101010001010
11111100010101001010011011010011
11111101110010000101000100011000
11111110001011111001010110011001
11111111110000100111100110010011
11111111001111111001000010000011
00000100011000001100111111100010
11111100111100000010111100011110
11111111001000100000100010011011
00000011100011010011000100000110
00000011001101101101100001001001
00000010110001000110100110001100
00000000010101010011111010010100
11111101100000101011100010000101
11111111001000100111001011011001
11111101010101101000101101111101
11111110101110011001010000001010
11111101111101011111000011001100
00000001001101010100010000000010
00000000010111001111001011010011
11111111110001100000100101001001
11111101001100100100111100111011
00000000001110011111101101110101
11111001100001110000111101010100
11111111110100000101010110011000
11111111101110010101000010010110
00000001101001100100011001101100
11111110011111000110010000011000
11111110001101001000011111101001
11111110001110100111100001000110
00000001011110010011101100100110
11111110001101000001110011001010
00000000101000011001000110101111
11111010110111111010110000111001
11111110011110111010000110011001
11111110000011001011010000001000
11111111101001010111000001001111
11111101001101101000001011110110
00000010101010011000001001111010
00000001100101100010001010011001
11111111101001110110111011010001
