10110101111101110001001000001101
11011110001010010110100111110101
11001110111100111111111000111110
11111001110011011101011010100101
11011011100010011010111101001011
11001101011011000011000000001001
11010110111000011000010000000100
11111100110000111010000011001101
10111101010101000010011101100111
11100110101111111001000111011110
11111111010010101111001101101011
10111100101111110101110000101001
10111011001110100001100001010011
11010100111000000101100010101101
11101000111000010101010011010001
