11111111100001110010001000011110
11111111011010011110111110100111
11111110100101110100001010000101
00000010010000111110001101101100
11111101011100101001001110001101
11111111111100001010100001110111
11111101000000110001110011000001
11111100110110010011010011101001
00000001010011110101010001110000
00000000100101101011001110101110
11111101000000011010010000110001
11111111011000011010111000010011
00000001101011010010010001101100
11111110011011010011010001100000
11111111011111010100010011110011
00000000101101111110011000111011
11111101010110101010111111011101
00000010111100110000111111000010
11111110010111100001001000110110
00000100001110100101111110100100
00000001101110111001011110011001
00000000111000000011111100011101
00000001111100101000011011100001
00000001110101010011000010111110
00000000111011001010011111101100
00000001001111101100000111110111
11111111000011010100110000111100
00000001010110000011110001111111
11111101011111011000100011111110
11111110010010100001100010111000
00000000101111000001111100100000
00000010010010000010011101110011
11111110111110010100011011011001
00000010111100010110101101110010
11111111101110111110101111010101
11111111011010110001001010111001
11111111010010011110110101001000
00000000010101011110100111000001
00000010010111100101010101101100
11111110110100101101010000100101
11111111010100111101111110000000
11111010101101100011101101000100
11110111010001001000111000010011
11111110101011101000011001010101
11111111011010111111011111001001
11111111101111101110000100011111
11111111111110101011101101110110
11111100110110111110110100111000
00000001110010111100110111011101
11111110011111111101011100000100
