00010101110110010011011000000011
00000000101011000001110001100010
00000001011001101011000110010001
00000010011110010100001101101010
00010101101111100001001001111011
11100000000110110100100101100000
00001010011000111101110011100110
00001101101011100010011100101110
00000100100000000010110010101100
11100001100010000101101000100001
00001100001001000010111001011001
00011011010011011100010000110111
11110010001100101100001011110010
11111101111010111100101111101111
00010000000011000110110111111111
00010001010101100010010001111011
00000011110110100011111001011101
00001000000011111011011000001110
00011000001110111111100001010111
00001010000000001100011110000101
00000101111111101110101001011011
00010100101011000111011110010001
00001000110101011111110000111100
00001101100010001011100111001010
11101100110111110101100001001000
11111010000111001010001000010000
00010010100010010010110111010110
00001001101110010100101110110000
11111011001101110100000101011010
00001000110010111110100110101100
