11111110100100111011110011110101
11111111110111101110111101010011
00000001001100101010100110000111
00000000101000011010011100100111
00000000011100100010000111000000
11111110101001111111111000101011
00000000011011110010111100001011
00000001000010001100111101001101
11111111000101000000110010011100
11111111110001110111110001001010
00000001001110100111000011010011
11111111100011010000011010011111
11111111011101011111110110101111
00000001010101011001110000001000
11111111100011001100101111110011
11111111000010101010000111001001
11111110010100010110010101011001
11111110000001101101111100100111
11111101110000111011000111111111
00000000000100011100000011110001
11111111100110110111010100011000
11111111000111011101010000000001
00000000000011000010010111110011
00000010110111111010111000011001
00000000001100101011001100110001
11111111111100110010101001010001
00000001100010110010101111001000
00000000011011011111011001111000
00000000010001111001010111111100
11111111100000111010101010000011
00000000110000111000000010010000
00000000100110100110111111110001
00000000011010011101010100000100
11111110111101111000110111110110
11111110101010000110110100111101
11111110111111001110001111010010
11111111101010101001000111110010
11111111110111000110100011100001
00000000110001001000110110010110
00000000110000010011000000010100
00000000001001001000001001010011
00000000000010010000100111100111
11111110111011101011000000010101
00000000111001010001000010011011
00000010000110100000010000101010
11111111100001011111100001100001
11111110000001101000110000100011
11111110101010110010101001011100
11111111111001000001110000000010
11111111000100111000001011010100
00000001011110010111010111011010
11111111101110110011010100100001
00000000011101001111001011011110
00000000100000010010000101101110
11111111100111011111100001000011
00000000101101001010000111011011
11111110011110001011001010001011
11111111000001110011001000101011
11111111001110001101001111001001
11111110010110100110100001110111
00000001010100000110110000101100
00000000011101101000001000010000
11111110111010101110110010101001
00000000101100111110111001000010
00000000100101000111110110100110
11111110110101001101111100000100
00000001000111111110101010010011
00000000001011011010101011000011
11111111111110010111110001011011
00000000101111011010101101110100
00000000001111111001111111011010
11111111001110100010000010111110
00000001010011100011011100111010
00000000100110011011001110110101
00000011000011111100011011110110
00000000001101110110000000001111
00000000010010011010000000100010
11111111001111110110000001011011
00000000010011111101010100000110
11111111010001110000000001010010
11111110010011011110110110000010
00000000010000100001000001001111
11111111101101111010101000101110
11111111100100011100001111101110
11111111011001000110001001010101
00000011010011110011001000001111
00000000101001111100111101100011
11111111001000011100011011111011
00000000110011000101100110011000
11111111100010011000111010001111
11111111100101111011011100000000
11111111100100110110100000111000
00000000001000001010011011001111
00000001000100011011110000111111
00000000111011000011001100011101
00000000101010010100000101011110
00000001101010101100100110111100
00000010000001011000001110011001
00000001110110110001001000101111
00000011100000100000001001101101
00000011001111101100111010010011
00000011110100000111111011001000
00000100000000000111010100011000
00000100011101111100110110011011
11111111111000001110111111010011
00000001110100010010111011111111
00000000110101011001001011111110
00000000111010011011001111100101
00000001011001111100111111110110
00000000010001101100111110111110
11111110001100000101101000110110
11111111101011100110011000000011
00000001010111000010100100000110
11111111111001101110111000000111
11111111110001011100011010100011
11111110110010110110001111100100
00000000010011000100001001000111
00000010000000100001001111000001
11111111101111001101010111001000
11111111100000110100101001010001
00000011001001110101001001100110
00000011100000010000110001111010
00000010101010110101011000110001
00000001101111100100101111111101
00000001010111101001000001000010
00000010111110111110101100010111
00000101110001100101011110001011
00000011010000101100110111110010
00000101100010101001011100010011
00000101000011101111100000111010
00000100110110010101110101010000
00000100001010100000011000010000
00000011110101100011001001100011
00000001111001010000010111101100
00000100001010000000100001010101
11111111101010000101001111110000
11111110110011111000011010101000
11111111000111000100111011010010
00000000011101111101000111110100
00000001110010011000011111100010
00000000110000101101000110110100
11111110111100110011011000011000
11111111011101110010100010001001
11111111101010001010110000001001
11111111110110001010110101000100
00000000010000011000110010010101
00000000111001001110010000111000
00000100001010100010011001000110
00000101111011000001001011100001
00000100101011010011010100010101
00000111000000010101111010001101
00000011111010100011001110110101
00000011011011101011110111111100
00000010110010001011010110010001
00000100110001110101010111101000
00000111110100101101101010111010
00001000000010101110101010010111
00000100000011101011000100011110
00000011110000010001101001100110
00000001011011110101011100100011
00000001001111010000111111110010
00000011011000000100110000001000
00000010101011101110101100100111
00000011011111000010001101011000
00000000011111011110011010101111
11111110100111111110001101000011
11111111011101100010111111101110
11111110011111000001101111110101
11111111010000110111101001011100
00000010001010001011110101000011
11111111110100011111100110000101
00000001101001010000110011010101
00000010010111101111111100001111
00000001111100010100001000011111
00000100101011010111110000011011
00000100000001100110100011001010
00000101000101110110110110110110
00000110010011101111100010010100
00000101000001010001010111101001
00000001010110101100011110101101
11111111010101100100001110001011
11111000001000100000101011101001
11111001001001110000110100100010
11111000101000000001000000000000
11111001100100111110001110110010
11111010100011110100110100011100
11111011101111100110111111110010
11111100000100101111110100010111
11111110101101011000111001010011
00000000111001100011000110100001
00000010101000101011111011010011
00000010011101101100110100111001
11111111110111101001111100100101
11111111101111101010011101001000
00000000110000111000100011110101
00000000111101111001010111001101
00000000011100001001110101111011
11111110011001001010110011111111
00000001100000000111000111010010
00000000100010001111001110001110
00000001100010000100010011101100
00000010111101010100001010111100
00000100111101010011110010110001
00000100111001000000000000000111
00000111010001010111101110111100
00000011011010100100111011101010
11111111110110111111001100010001
11111010011011011010001110111001
11110110000000000111111010001101
11110001011010100010011001011101
11101011011100110111101000101011
11101001011101000100001011011100
11101011111010111111110100000011
11110011011011101100100100001000
11110100100001000010100111111100
11111100001010101000110101110110
00000000100101111110000000000001
00000100010010100100011101000011
00000101101101011000011110101011
00000010100111110010111101110010
11111110011011011101000001000010
11111111010011111001000000010101
11111110100101101111001000000101
11111111110001010111000111000001
00000010001101101001100010100000
00000000101000000101110010111011
00000001111101011001000111100011
00000001100001011011011011100101
00000100111111001101010101110100
00000101111111011100101011000011
00000100111000100111110100110010
00001000100000010001011010000011
00000100110011001101101010111010
00000000100101100111101001101011
00000000111100010100111001110101
11111011111111100010101000111100
11111010001001010111011000010010
11110110010010111011100111000000
11110010000001001001101100011110
11110010000011010110010111000101
11101111110000100000101101101111
11110111001101001110010000100111
11110111101111000010000111110111
11111111010001100100110001000010
11111111111100010000110010101000
00000100010001000010111000011100
00000111111011110101111010101010
11111110000110101100110010001000
11111100100100011000011011000110
11111011110010100001001101000010
11111110000011100010110000001111
11111110110001011110101010101000
11111111001000110011011111011000
00000000001010000100110001101001
00000000110110101101101110100001
00000010110110001110111000110010
00000101011111101001101111110110
00000011010100110110101011010101
00000011011001000001110000111101
00000101000101110110101010101011
11111110111111010001001101000011
00000000010111111011110110000001
11111111011100011101110010010100
11111101100000111001010011100001
11111101011101011100111101000010
11111110101110101001100100110001
11111111000010111011100111101001
11111110110101101010100010000100
11111111100100100101100010001011
11111101101101110101110101110000
11111100000010000011100001011010
11111100100001101100000000010111
00000001010100111011001011111111
00000100101101101111010100110101
00000011000111001100000011010000
11111001001101001100101101011001
11110110111000010110001101101111
11111011101111100011010110111010
11111110010011110010010100111000
11111110101000111011010101000101
11111111101101101110110100011100
00000001001110111010101010000001
00000000001100000111100001010000
00000001010111111111011110000101
00000001000011011101000011100001
00000000101001011100100010111100
00000000100000100111110111101000
11111110100010100001100101010111
11111100100111001001111111101000
11111101010010111010010110010100
11111101001100010100101100101100
11111010011001110111101010100001
11111110000101110101001010110101
00000001000001001111110010001000
00000100001111010011000101000001
00001000101000110100100010011010
00000101011101100000010101100110
11111110111011110111100110000000
11111001011011110101011101111011
11111100011010100000000111010001
11111100110101110110010110000100
11111110101000110110100100011100
00000000101101001110111110111111
11111000011011001000100010001101
11110110101101011011100001110010
11111011000111000010111011101101
11111110111011111010010010110010
00000000010010001100000010001011
11111111101101001111010100100110
00000000011101010110001010001011
00000010110111000100110010101001
00000001110110110100010111011000
00000001110001101101100110011000
11111011100011010111010100000011
11111001110110101010001101010000
11110111011100110101111000101010
11111010011110101010100101001110
11111100010111001001100111101100
11111101100101101011010101011010
11111101111001111110111001001100
00000000111011001111111101111001
11111101100010110110101100111010
00000011101100001111111011010101
00001001011110101000100101100011
00000011100011001100011110001101
11111011110111111101110101110110
11111011110000101011110111001110
11111010000111010000001111011011
11111011100101111011010110110001
11111101110000110010001000001100
11111101110001011001010101110111
11111000011010111110011100111001
11111001111101100001000011001010
11111101111000011110110010000101
11111111010000101000101111110110
11111111100111101011101000111111
00000001110000000000000011100100
11111111101110011000111111110001
00000001000101011011000001000100
00000000001101011111000000001001
11111110110110111110010101111011
11111000001111000110110100011010
11110110000101000110110110011000
11111000101100111011010100000100
11111011001110110000000001001011
11111011101111010111110011001101
11111110101010001110011100111101
00000010100110100011001011010000
00000001110101010101001100111000
11111100101101110110100010011110
00000001011000101111111000010010
00000100111110001011000001111110
00000010010111010010101101001001
11111100111100111010111000110001
11111100101101010100101011010110
11111011111110101000000111010011
11111011110101011100000000111011
11111011110111000101101001110101
11111010000100101001110111110110
11111001101011001101001110110011
11111101010010000011110001011111
11111111101011101011000010111111
00000000100011011101111010010001
00000010110000100111000101001001
00000001011001010110010011011110
11111111110011101110000110101110
11111111100001100010101100101110
11111111010000001001001100001110
11111100111100100100010000100111
11111000011111111100101101011110
11111010000011001111001110000100
11111010111111011010100100001000
11111101010100110111010101111110
11111110101110001110000001000010
00000000001010101100110101011110
00000010111001011011111110110011
11111111111000101000000000111010
00000000000101001111101111100010
00000000111100110110100101010110
11111111100100011111100001111110
00000100000100101000000100101001
00000011111100101011000000001101
00000001001100100011111001110101
11111111110000101000000001101100
11111111011111001111111001010011
11111110000011111100001001111001
11111100010100000101101100110111
11111110011111100100100101001011
11111111011010011110110100111010
11111110011011010001011110001010
11111110111100011010111010011000
00000010010001111010101000010111
00000001001101110101110010110101
11111110110101101010010100100011
00000000000010010001101000101001
00000000011100111001100111101000
11111110101110011111000111110001
11111100110101001001111010110000
11111101010111110001011001000010
00000000010101011010000101111010
00000010110000011110110001000111
00000000100100101001011011010011
00000001100000101101100110001101
00000011010101000000111011010111
00000010011010101010110001000011
11111111011011100010011010011011
00000101001001011101111011010111
00000011000111101001010110100011
00000110010101010010110010101111
00000101101100111011011110101000
00000110100110100010101001001110
00000111001001111110011011001110
00000010000001101100011111010000
00000000000111011010011010000101
11111111001001010001110000000110
11111110110111010100011110000111
11111111011010010010001010011110
00000000101010001000001001010000
11111110111011010111011000010010
00000000100001100011010110010010
00000001000011001001110100010100
00000001100010100101001011010101
00000000101001011001100000001000
00000001011001011010000100010011
11111110010100100000111001001110
11111100111100101011110111000110
00000000000000111110110100001001
00000000001011011010001010101010
00000000100000011111100110000111
11111111110011001011111111011111
11111110100000101000101110011011
00000010001110001011011110100001
00000000111100101010001000001001
00000101001001110101110100101111
00000111100010110001001111100100
00000011001010101100000011111101
00000110111001010110100101001010
00000110000000000101111010000110
00000111001011100001101101000010
00001001011000111010010001011010
00000100110110010001011000000010
00000100101110100110010111000001
00000011010000001111101110000001
00000010010011010001000000011011
11111110100110001110110000110011
00000000111101001101111110010111
11111110111110000100110001010111
11111111110101011110111111110110
00000000100011011011100110101101
11111101111011010000100110010100
11111110100011011000101110110110
00000000001100101110011011001110
11111110101001010000100010110101
11111110111111001100110110001101
00000001001001111011110001111000
00000001010010111111000101100011
11111010011010110011101101001101
11111001000001011000110100100110
11111011111110110000000111100000
11111101100001011111000010100010
00000001011000001001110101101110
00001001101111000110111010101111
00001000011110100101000100100010
00000010110100001100010110011110
00000011111100010111100100100000
00001010000000111010000001111010
00001001101010011000100000010001
00000110010000010000000111010100
00001001010000110000000000010110
00000101010000101011100111110101
00000001000100111000001110010010
11111110110011000101110000110010
11111111100100111111110100011111
00000001011100100110111010111011
11111111100110011101000111101010
11111111100110111011000010100101
00000000011101010100100101111010
00000000110011010001110100100101
00000010011010000101111110111100
00000001001111011010101111011000
00000000011110010000111110110100
00000000001001011010010110010011
00000001111100010010100110101110
00000001001010000110100111101100
11111101011011101100000001100111
11111001000110101010010011100010
11111010000001010111000100111100
11111110111010001011011100000011
00000100010001001101000101000111
00001001100110010000000010010101
00000101101011110010000010111011
00000001000001011000110110010111
00000001110000010011001111010010
00000100001111101101001011110101
00000101110110110100111011000111
00000100110111001000101010010110
00000100110111111110100101101000
00000100100100010011011110111001
00000010001101001011101101111001
11111110110000010101110000011110
00000000011111111010000111110111
00000001101000011101111010111110
00000000100000011111110000000110
11111111001011010101101010000001
00000000011001110110000010110110
11111111010001010111010110100010
00000010001110111111010110011001
00000001111111100011001101001000
00000000011010001001111001011101
00000000011100110010001101101010
00000000111101001001000111110101
11111111010111000100111000100101
11111111000011110100010101010000
11111100111001110100011100110111
11111100010000110100110010101011
00000001100011111110101101100000
00001010111001010000011011100000
00001100001010100101101100100101
00000011101110111001001100111001
11111101110010000000010100000100
00000000110001010101001011100110
00000010100110101001101000100000
00000101001101100110010111000101
00000010110101010001111011101111
00000100011011010100101010010101
00000100110001000100011010100100
11111111000011000100001100000111
00000000010100000101100111110010
00000001001000011000101111001000
00000000111011111010110000001100
11111111111011100001010011000110
11111111000110110000100101110100
11111111111101000010101011111001
11111111100101110111101100101111
00000000011110110101011101110011
11111111101101001011111100100110
00000010010100111101010010010001
11111111111101001000011011101100
11111100000001100110100011001100
00000000010000101000101101000011
11111110001010110010100001000010
11111110000000100111010011011011
00000010000011110001010111111001
00001001001001101101110101001101
00001010110110110001111001110000
00001000110011111100101010111010
00000011011001101100000110000010
00000001101000011011111010110110
00000100000110001011100111010001
00000001000011100001000100010100
00000010100000011011001011000110
00000010110011011110101110110011
00000011100011101111011001110010
00000011011000101010111001111000
11111111101101100111100000000010
00000000111001101010110001101111
00000001011100000010111011000011
00000000110110010011000000010010
00000000111001101110101010001110
00000000011110100101110001011010
00000000000111111001111111010001
11111111100011101011011110010001
11111110100010100101000001110101
00000000111010001110010011011100
00000001111010010000011000110010
00000000011100110000010101101110
11111110100110001000001001100111
11111011011101001001101011110100
11111110111101010011111001000000
00000001100111000000110010110010
00000011010010101110100010111010
00001001010000100110110100101111
00001001000110010011100011111000
00000110100110011001101000000110
00000100100010111101011111000001
00000010011100010010011110100100
00000001001111111011111010010100
00000010101111010011110010001001
00000001000100010010001101101110
11111111000010100000111110000001
00000010010111111110000000110000
00000000111110011000010000100100
00000000111111001100011001100111
00000001001010100001000111100001
00000001000000110000000011010111
00000000101100001100111001000001
00000000100001001111101111100101
11111111110110101111010100110010
00000000001011011001001110011110
00000000001010001011000011011110
00000000001000100101111010110110
00000001110001011010101110100011
00000001001010011111111100011100
00000001110001111010011011100100
11111101111110010011100000000100
11111101001100100110010010000111
00000000001110111101001111100100
00000010010101010001100011111100
00000101011011000110001110001010
00000101101100100100100001010011
00000101010001111010000111111010
00000101100000000100100100111000
00000111001111110100100110100001
00000100101100010101111100110110
00000101111111011110110111010110
00000100001111111010010100010010
00000100011101100101001100001001
00000100001010110100000100011101
00000010001100000111010111110111
00000001001001011111001101000001
11111111011100010000011001001110
00000000100000101110110110110101
00000011001010110101011110011111
00000000111010110101010010110100
00000001010011100101110000111110
00000001101010011101001100000111
11111111101110011110110100001111
00000000110101011100000000011000
11111111000000001011101000000100
00000010000100110101001101011000
00000001000100100101011111100001
00000100111010000010110010001001
00000001100011110111010000010100
00000010010000010101011101000110
00000001000000100011100100110111
00000010011010111100111100001110
00000001010111101010001010010101
11111101111011111000001101010110
11111110111001100110110100011111
00000001000100101111100100111010
00000001000111111010100010000101
00000110000011001111100100101011
00000101011101101001111011110000
00000100010101110000111110111111
00000101001010101011010110010001
00000100110001101101101010100011
00000001101000111100110100000011
00000001111110100101000010011001
11111111110011001101011010001111
11111110011100100100011010001101
00000000100011011111100010011000
11111111000111001001001110100000
00000000101001100010001110000100
11111110110100100001001011011011
11111110101110010010001111011011
00000000111011001010110010011111
00000000101001001101001111110111
00000001100111001011111100100101
00000010000101001000101110101001
00000100101101001101010110101111
00000101110000101001001000011100
00000010111000000010000111010011
00000000001111000111101011100010
11111110110100111011001000101110
11111101101011010001101101001111
11111011110000101010010111100001
11111101001101011101100100100110
11111100010110100010001110000100
11111110001011100110111001011011
00000000100101010110001001001111
11111111011010100101111101111011
00000001011000000000000001011011
00000001101000110111000101001110
00000000100111100100101101100001
11111110110110110111001101101000
00000000101011101110111000010001
11111111011001010011010110100111
11111100111010111010100010001011
11111110101111001010111101110110
00000000111111100100110100011110
11111111111111100000111101110010
11111110001001010111100010010110
11111101010111011011000100011101
11111111101110101000111110011100
11111111001101101100001100100000
00000000000011100011001100001100
00000000001010011111111100011110
00000100010110011111000101100001
00000011000110101001001000001001
00000001011100010101001001111100
11111110101101001010100100110001
11111101010100010100001110011111
11111101101101111010000101000110
11111011011101110011010011100000
11111100010010100110000000011110
11111111010011010001000000111000
11111110001101011100111000110101
11111101001110110100110001011001
11111011000101110000011100110010
11111011000010010101011000110011
11110111100011111010001100100110
11111010011110101001011001110001
11111100110101111000111110100100
11111101100001010101101111010101
11111110010011100001000110110110
11111110011100010010011110010101
11111101001110000011000100000001
00000000001100000100010000111010
00000001010110000010010011011010
11111110110011011110001110101101
11111111001110110110111101011111
00000001111001111101110100001011
00000000110010010000100100011100
11111110001100010101011111010111
00000000000110000011110100011110
00000001111101001000101111100111
00000000010100110100001111101101
00000001010110110001000110110001
00000000100101001111001010110110
11111101110000111010111101100110
11111010110100110001100101110100
11111011001011000010010111111011
11111100011111110101110010110111
11111011001100100101011000000110
11111100000010011000101110100101
11111000011010100110011011100110
11110110101000010011101111010111
11110101000100110110111101100011
11110101010101101110101010100100
11110111101111000000101110101111
11111011000000001111110011110000
11111011101100100000111110010101
11111110101010000111101000100110
11111100011011100001110111001111
00000000101110101010010100111000
11111111100111001001000010101111
11111111101100101011010110110110
11111111001010000101101000010010
00000000100101101000010111000011
11111110001101001011011101111011
11111111101011100101100010111001
00000000110010000010000100011011
00000001000100100001101110010001
00000000111101100010010000000011
11111111111011011001111101000000
11111111010110010011010010110101
11111111010101100011111111111110
00000000110011110110101010100001
11111110111101011001110110101000
11111110100001110011001010011110
11111101001001011011100011001010
11111101100101101001011110101000
11111101100011101111100000010101
11111100000100111000001111000011
11111011000110110000101100010001
11111011001100010011001100001110
11111011110101111001010101011010
11111101111101101000101011111001
11111010110110010000000101111111
00000000010100011100101110100101
11111111010011010000000110100000
00000000000111110110100110001010
11111110100010110100011100101101
00000001000011101101011010000000
00000010010001101000011011110101
11111110111101101011110101010000
11111110111110101010011010010011
00000000011100010000110111100010
00000001011111110110111101111010
11111111110100111111101000001110
11111111011110110101010001011101
11111111110001000111111010010000
00000000011001101000010100110111
00000000010000111111111011010000
00000010011111010001100100000101
00000000101000101010000111011100
00000000101110100010100111111000
11111111011001000011111101110001
11111110111101110101011111011010
11111110110010110111011111111101
11111111011011100001110100011011
11111111010101000111110100001001
00000001001000110011011100010100
00000000000010010100011111111110
11111111010010101100001111111000
00000000000010101100000000000010
11111111010000011010000110110000
11111111110111000000011000010000
11111111111010001111000101110001
11111111011101000001011001000100
11111111100100101001001000111001
00000000110000001110011001011100
11111111100000011001011110001001
11111111110000110001010101011101
