00100101101110101100011111100000
00011000110100001101000011011100
10100101110110110111001100110101
10101000100100101111111101100011
01010000100110110110100111110111
11000100110001000001000110111010
00001111001101011110110010111110
11101111000100110110010100001010
00100010011000100010110001100101
00000000010100110110110001000101
11001000001101011000110101011111
10110100010001101110110001101100
10111011111001111110110100101110
11001111101110001110110110010111
10100100000101101000100100110000
