00000000001110111001101100101000
11111111110111010011110001100101
11111111011001000110011000010011
00000000011100111100101011101011
11111111011100110111000010100010
00000000100101011110101000001101
11111111101001010110010100111000
11111111101010010110111100111001
11111111100111110000001110110110
11111111111011111000110110111011
11111111110010010001101100111111
11111111010100100011111010011011
11111111101011011110000100100011
11111111011110110010011010001011
11111111110001111101001010011011
11111111111001101011000100010001
11111111111011110010001100000001
11111111010000011001000000101010
00000000100100010011101010010000
11111111110100110111110100110010
11111111111011001000100110010010
11111111100101001110110111111100
11111111110010011100001110111101
00000000010111000011101111110010
11111111011110001101011100000010
11111111111110100110111000011110
11111111000111101101000100100110
11111111010101101100101000111001
11111111011101010111010000001110
00000000100010100011110011111000
00000000001010111000101101011011
00000000000111011101011011100011
11111111001010101100000100011011
00000000011010100101111100010101
00000000010000010000000110110111
00000000001000011001110111011111
00000000100101101010110110111010
00000000011010100110111011101000
11111111001111001101010100000010
11111111111110001111010100000111
11111111101011001110110000101001
11111111010111001010010010001001
11111111110001001111111011001101
11111111110010111100111010010101
11111111100001110111101000101101
00000000011010110100111011000110
00000000000010111011001110011100
00000000001011001100110110011001
00000000100010101010110001010010
00000000011000011110111000010101
11111111111110001100101110101010
00000000101111000111110000100101
11111111000001011010011001011100
00000000010111111011000110001011
00000000010010011010000110101000
00000000001001111000100110101111
00000000011010101100100101111100
11111111011100000010110010111011
00000000001000000011011001110110
11111111001011101111001110110010
11111111110111101110101101100100
11111111111010000100000001010000
00000000011111010101110110101001
00000000001011110110110001100111
11111110101100010110011100100110
11111111000110000100000100110100
00000000010110000110010011111101
11111110110101001011100111011011
11111111010110000101011011001101
11111111110001101001010001111010
11111111111001010010001010111110
00000000001101001111100101100010
00000001000110111001111111001110
11111111101011110111110001010101
11111110110111010111011111011011
00000000011010101000011000111000
11111111101011000100001001011100
00000000001111001110000011011001
11111111101100100011110100011110
00000000111000111010000010100011
00000000111000001010000011000001
00000000000000111100110011000111
11111111010100010100101000010011
11111110111111111111011010111000
00000000010101110100111001100001
11111111101110000001100001000010
00000000010001011110100101111111
00000000010110110111011011001110
00000000001010101011111001101010
00000000011000110011111100110110
00000000001111111001100010111011
11111111000001010100000011011111
11111111110111111010000001010100
11111110101101001000111101000100
11111111110010101000011000111010
11111111110101011001101110010010
11111111011110111111010011110101
11111111111111001110001100000001
11111110011110011011001101110100
11111111000010001100100100101001
00000000101000010010010001001010
11111111101101010111010100011010
11111110101011001101001000100001
11111111001001000100110100000111
00000000011111111001011111011100
00000000110100001000110011110101
11111111100010101100001110000101
11111111111100110110110100001111
11111111001110000111110000010010
00000000001001100111010000011000
00000000000111011110001111001111
11111111100111000010011110110100
00000000010010110001011111000000
11111111111111011101001110001000
11111111111100111100000011000010
00000000001011001111101010110111
00000000001001011111001001010001
11111111001011111000111111011101
11111111101111101100110010000100
11111111011010101000001111000011
11111111100011010011101111000101
11111111111001011110111000011101
11111111000111101110001101000111
11111111010001110101111001000110
11111111110111001000010000000110
11111111100111110000001000000101
11111111111000001110011010001001
00000001001110100100111110001010
00000000100011001111001101111100
00000000011010001101110100111010
00000000001010110001111000011011
11111111101110010101010000111001
11111111010001000101011101011010
11111111110000111110100101001100
00000000100010011101101111011100
11111111110100000111010010101101
11111111111110100011000111110001
11111111111000010000010110100000
11111111111100001101101000000100
11111111101110001111100000110010
11111111100010110011111111000001
11111111101011110001010010001011
00000000101010000000001010000111
11111111111001100111011100100100
11111111010011010101110000010011
11111111001101001001100001111010
11111111101001000011101001111100
00000000101111111001100110110111
11111111100010100101010010101111
11111111001010111100111001101001
00000000010010110101110110011000
11111111111000000001001000100101
00000000101011001111110110011110
00000000101110010110111101011111
00000001000101001011010111101101
00000000111101010000100110000000
00000001100001010111100100101111
00000000111111010101001011000000
00000000011111110101000011101100
11111111101101100101100100100001
11111111110100111101010101001000
00000000100100111110100001110010
00000000001010101110001110000010
11111111100011010001111011101100
11111111101001100011110100000010
00000000100110010101100101010100
11111111111101110100001110110010
11111111100101101100010000011101
00000000010101011111101000011011
11111111100101011111010011011010
00000000001111111101111101011000
11111111111101010000101000000100
00000000000011010000101000101000
11111111001101011010110100101000
11111111011010110101100101001010
11111111110001000011111001010101
11111111111110000101111100011111
11111110101100011001000101100101
11111110101011001010010110110010
00000000001000111011001111001001
00000000100111110010001110010010
00000001011001111010000111011000
00000001101110100011011001000001
00000010010110011011000010110000
00000011000101101001001011001111
00000010000010001111110101110101
00000000011001101101010010011100
00000000001100110001010100110100
11111111100101100100001111111011
00000000110011111010010010000111
00000000010110111001101000111110
00000000111010010000101110101110
11111111001110101101101010000101
11111111100100000000111110001001
11111111011001100101110111010011
00000000000010011010010100000111
00000000101001011110011001101111
00000000101001100010111100010010
11111111111010111000100111111010
11111111110111011101100110010000
11111111111010111110001100111010
11111111001101001111111101011100
11111110100010110010010100100110
11111111100000001010110100110011
11111111111010111101000101001010
11111111000001001010101101110011
11111111110000011001100010011001
00000000110101101100010001101110
00000000011001101101101101001111
00000001001000000100011011110000
00000001010010010001100010111011
00000010010001011110101011110001
00000001010110000100000101000000
00000000110011100001011001110000
11111111110010111010010110001111
11111111010010111111101010110010
00000000011011101001001000111110
11111111110111100000001101100110
11111111111001111101011000010001
11111111100110110001011111010110
11111110100000100101000000110000
11111110101000101110101000000100
11111111101110100101001011011101
11111111000110000011110000010100
00000000000001111000011010111110
00000000110001011011010100100010
11111111111101001010101011100000
00000000100101111001001010011111
11111111010001001110111100011111
11111111010110000101101001000011
11111111101011011001010011001000
11111111110001100110111100010000
00000000001011111000111010100101
11111111111101011110011111011101
11111111011011011110000101010110
00000001001100010010111111001100
00000000010111110010001110101001
00000000110101111101011110111111
00000010001000000101010101011110
00000000110110000001100101111000
11111111100000010100000111010000
11111111011110001101011111110001
11111110101111111010101100010110
11111111010000011101000110000010
11111111001101110101101000011100
00000000011011011010000100001001
11111111111011010010110100000011
11111111011111110111110001001111
11111111001011010110001011000000
11111111110000100110100110010010
00000000001001011010110010011110
00000000011011101100110000100011
11111111111001011001101111010101
00000000001001100110100000010011
11111111110000011100110110000000
00000000011100011001001011001001
11111111000101011111001001110000
11111111111001001011110000111111
00000000000010010101111101110110
11111110011000101011000100101000
00000000001110100101110010011110
11111110111000110001111011000111
00000000010001111000110010000111
00000000010111010111100010101000
00000010001110011001101001001101
00000001100001100000110000110101
00000001010001011100000100010011
11111111101001001111001001000110
11111111110010001011110110011110
00000000000000001000100110011000
11111111100010100100100000101001
11111111110010001000011110011100
00000000001011110100001111001110
11111111000111101101100111011100
11111111110000100101001011101100
11111110100111110000011000100100
11111110010001000101001011000111
11111110100110100111111011001001
11111111100100101011111110000111
11111111111010111111101101010111
11111111000010110101101011101001
00000000010010011111100011101111
00000000011100101011000111101100
00000000100000110101001100010011
11111111011111001111100110010100
00000000010000110100110001111100
00000000010111101001100010000111
00000001001100000000101011000101
11111111110011111100010000010001
11111111101100001100100110000000
00000000110000001001101000011100
00000010010000101100011111110010
00000010011110101110100110010100
00000010000100100000000111110101
00000000100110111111100011111001
00000000001111110111100000011011
11111111000111101001011001110000
11111111100011111101110000111100
00000000000010101101010111110001
11111111011011001110101010010010
00000000010110000010101010001110
00000000000010000010000011011101
00000000100111010000111100000001
11111110111000110010001101001100
11111101010111110101110001010110
11111111000110100001010011101101
00000000000000111100001101011010
11111111100111111111111101001001
11111111111101001001000111010011
11111110111110111101001010111111
00000000010011001101101001101011
11111111111111010101000110101011
11111110111010000101001100100100
00000000110111011000000111000101
00000000101110001111010000100111
00000001001111110111000110000111
00000000001110100110000010011001
11111111101111110011011101000110
00000000101000101010011110100010
00000010010001010101001100111100
00000011000011000011111001101011
00000010110110011110101101110100
00000001001001100101000011110101
00000001001001100010100101111111
00000000101001110110011000110000
11111111101100010110011011110100
00000000101000101010110000111111
11111111100111111110011110010011
00000001000001110001100001011011
00000001101011011001101100011000
00000000101010011110111010011101
11111111001101001001110011111111
11111110010110001110010101110010
11111110100110001010100011101001
00000000010101010010111110100111
00000000000110000000010001100000
11111111101000111111111101000111
11111111111010001000010010011101
00000000000100000111110110111001
00000000110000000101000011000001
00000000000110110000010101010011
00000001001010000010110000101001
00000000001110011000101000001011
00000001001110010001100111111111
11111111101101011101101100101010
11111111011110101111011000100010
00000000010001000110010110100010
00000010000111010000001101110011
00000011001001011111100100000011
00000001001100110010010111111011
00000000000000010011001100111001
11111111101010110011010000000111
00000000011101000100000011000110
11111111111110100101111011100111
00000000110111011000000011110011
00000001011101011001100000011010
00000000110101011111100001101010
00000001111000111111100010011000
00000001101010110010111111010001
11111111011000110010011101101101
11111111110110001110000000001100
11111111111001111101011111001110
11111111101011111010110011000111
00000000001010010111000010110001
00000000100011010000010010110101
11111111100110010110010111010110
00000000011001100001010101101011
00000000011000010001000101110011
00000001000110101011110011001011
00000000110011010111100100111011
11111111110010000101010000000010
11111111010101100011010010111011
11111110110110010010100000100011
11111110001100111000011010110001
11111111100100110101011011001001
00000010001100011101111011001100
00000001111101000000110101011000
00000001110000010001001011101110
00000000111010011110100110011000
00000000011000011101111100001001
00000000110010001000100110010111
00000001010110110001000110111011
11111111011010000011001100010101
00000000101100011110111000100100
00000001010000010100001101101011
00000000000110000100001001100000
00000000110011111110111100010100
11111111101100011000000111011101
11111111011100111011110100101010
11111111111011111011001111011011
11111111010111000001100011101110
11111111100100010111110110001110
11111111000111010011110101101011
11111111011111111100011111101101
11111111011110011011101101011100
00000000101010100010000101111101
00000001010100111101101001101000
11111111111101100101001111111000
00000000001111110011010001100000
11111111111011001110010000011000
11111110011110011001100000010111
11111111000010011111101111111101
00000000001101110010001111010001
00000010000010111000011001010000
00000001111101111011111101000000
00000001001110111110011111000001
00000000101011011110111000011101
00000000100011011101010100100001
00000001010010010100110110111100
00000000110010001000100000000011
00000001001010100000111111001101
00000000011110110011111010110011
00000000110000001000011001000010
00000000100000000111011101110000
11111110110100100000101001101111
11111111000100010000111110000001
11111111000100100000010001000111
11111111101110100011010100001011
00000000100101111111101001110100
00000000111010111111011011010001
11111111011011000000100111101100
00000000010101011100010001111001
11111111101010100010011110100001
00000000000100010001111110010000
00000001000001001110010010101101
11111111111110000000100011101101
11111111101101010010101100111011
11111111100001101000010110000111
11111111010100100010111100110011
11111111000110111000001111001011
00000000100001100001000100100010
00000001100101000000000100101111
11111111111100100010111101111001
11111111100000011010010101011001
11111110101101001010001100000000
11111111010000011010001110010101
00000000111111111110001100110011
00000010101011110101101111101010
00000000111100000000111001111010
00000000100101000000010011010101
11111111101101010100000000000000
11111111100111010010010001011001
11111111101111110010000000001011
11111111011010011111110000001010
11111111111110101000001000010101
00000000000001000101110111010101
11111111111000111001010101011011
11111111100010001100000110100010
11111110111010001011011000101011
00000000000100111111111011101111
00000000011110010100100000000011
00000000000001010011001011001010
00000000101100101100101001001111
11111111101000011011101100011011
00000001001001000111000101001011
00000000111001010110100001010000
00000000010111101111100111001101
11111111101100110110001000001001
00000000110000011111010110100100
00000000111000011111101010101000
11111111010110101111001001001101
11111110111000010001101101010010
11111101111101011000101111001010
00000001000101111011110000011110
00000010101000001001101010110001
00000010111010011011011010000101
00000010010010100100010001100011
00000001000101010101100010011010
11111111010000011111011011111111
11111110101111100100101100000100
11111111001000100011101100111010
11111111000011101011000011001101
11111110101100000010110101010000
11111111001011011000000000011111
11111111110100101001101010111010
00000000000110101011010010011110
11111111001010110011000011100000
11111111011001101011010100000100
00000000001001111001011110011001
11111111100010010101001010010101
11111111000011010000100011111110
00000000110011101011101110011011
00000000101101001011101000111000
00000001001010000010111000100110
00000001100000011110010100010101
00000001101100110101000001001001
00000010101010001100010001101010
00000001011011010011100101000100
00000001101011110111011000111001
00000000101111000110101101000101
11111111011010001111110111011101
00000001110101000001111011001001
00000010100000101110110011001111
00000010011100100111101001111110
00000001100010011000110111010100
11111111000000001111100111101001
11111110011111101011000110101000
11111111000001001101111010100000
11111111001000100010000101110001
11111110100111100111000011100111
11111111111001111110010011000001
00000000000110111110100011110011
11111110111001011110101101111110
00000000100011100001001010011011
11111111111101000101101010000001
00000000010000111010011001110101
00000000100111100001110010101110
11111111010100100001000101110000
11111111011011111100001010101110
00000000000000100001110010000101
00000000111011110011011011000110
00000001010010001001100100100001
00000001111001101000000111000000
00000010010011010110011001000110
00000001010111000010100110101000
00000010110101111001111101101100
00000001110010111001000010001100
00000000011110001111100010001000
00000000011110100001001011101010
00000001111110011101011000001001
00000010000001000100101110100111
00000001001011101000010001001011
00000000001111000001100101100110
11111111111001000111110010000101
11111110110100111100001100011010
11111110010010111001100010001000
11111110100101000110011000011010
11111111001100100111011100111111
11111111010111010110011110001000
00000000111010011110001000101011
11111111110100110011100101101111
00000000000010110101100111010011
00000001001001000001110011010011
11111111110111100001011000001000
11111110110111010101001110000100
11111110111011011100100001001101
11111111001001001111011001011111
00000000010001101011111101111111
00000000100011101110000010000001
00000001111000110110101101000101
00000000111010110000011010001111
00000001101101000011010110011111
00000001101101101000111010111100
00000010011100010100000001001011
00000001100000100111000000011001
11111111101001111001011010101000
00000000010110010110001011010010
00000000001001101000010000000010
00000001000010110110101100001110
11111111110011000110100110100101
11111110111010000110010001101110
11111111111101111100000001101010
11111110001110111100000000111001
11111110011101100101010001001110
11111110101101011000100011111011
00000000010100110011000110001010
11111111110010101011110011110000
11111111101011011001100010001010
00000000100011001001110110111011
11111111100110010000001010001111
00000000001001011100001100000001
11111111100101011101011101100111
00000000000111010010010011000000
11111110101010100011110001000110
11111110100111001110011000100000
11111110110110010011111111010011
00000000000011111010001010110111
00000001101111110101000100110011
00000000011110001100110100010010
11111111101110010111001001111011
00000001100010011100101101101000
00000001011000000000100110001101
00000000111001111011110110010100
00000000000000100011001001101101
00000000100101011101000101001011
11111111101100100001101101101111
11111111111100011111011001111011
11111110001101111010101100101101
11111110000100100011010001001100
11111111000100001101101010011001
11111110111101000100010100100101
11111110110100000010011100100100
11111111001111010011010101111011
00000000100100111011110010010010
00000001100011111011001000111111
11111111001000011001001111111100
00000000001100011111001100100110
11111111001110101000111011110110
00000000101101010010101010010000
00000000010111111111000000001101
11111111111101110011110111010100
11111110101001011100010101000011
11111110001110000010001001111000
11111110010000011111000001101110
11111110001011010010010000110111
11111111011100101111001011011100
00000000100001010001100000001010
00000001001100000101010011001001
00000000011011011011001001000101
00000001010101111001011000010110
00000001110100011101000011000000
00000000100010100110000111101100
11111111011100011010100101001110
11111111100011110110110000110100
11111110101111111111101101100110
11111101100101010110111110011001
11111110000001000111001011011001
11111111010101110001011100101011
11111101001011111001010100001010
11111111000100011100101111001011
00000000000110100010000100100000
00000000001010111100101001111010
00000000100110001100111101100001
11111111110111101100001010111101
11111111011011000100110001000101
11111111100100111110111100110010
00000001001111000000011110001111
11111111111100011000100110000000
11111111001101100010011001101001
11111110101010110000111100001110
11111110011011010101011111110111
11111110110101001101010110001100
11111111000010011111011011100010
11111111010000111101111101110101
11111111010010011101000000000111
00000000001100110101010100001101
00000000111001101110111011000111
11111111101111101100101110111001
00000000111010000110101001000110
11111111100100001001010000101001
11111111010011100101111001010100
11111111010000000110001011100100
11111101101101110001111111111001
11111110111100011111011011001010
11111110101100101101010011110100
11111110110000001010001001110001
11111111010001111101110110111101
00000000011011000101111111100010
00000000000010010011011011010010
11111111111001100000001111110010
00000000011110101010011010101001
00000000011101100000111001101101
11111111110110101110010100001111
11111111001000110110010010110111
00000000001010111101010111101110
11111111111111110010010001000100
11111111010101111010100101010001
11111111111101111101100111110010
11111111100100110000000101011000
11111110011110101010010000010111
11111111010000010101000101001110
11111111000100101011000000011010
11111110011101110011100000001111
11111110101111010000010100111011
00000000000001101010110000000000
11111111010000001000101000001111
11111111111101110011001000010111
11111111010011101010101100110100
11111111110001101100100110001101
11111110111111010111000101100000
00000000010000110010011101111100
00000000000000001101000110100110
11111110101011010101111101010110
11111111101100011010011110100101
00000000110110000000001010100000
00000000010101110100110110100110
11111111111110011011110000110010
11111111110000101000100000010011
00000000010011001101010100111100
00000000100101001111010011001100
11111111011010111101101101001011
00000000010010101000010000110011
11111111101010010010101101000111
00000000100010000101010110000011
00000000010100010010101111010100
11111111101010101110011110100011
00000000000011001110100100100101
11111110110101010101101011101010
11111101111001110000110001100101
11111110101100011001111101010101
11111110110111110001010010111101
11111111001100000001111100111110
11111111001001011111011111100111
11111110100111110000100011010110
11111111001100011000001000010000
11111101110110100000011001100001
11111110011110000100010110000000
11111110110110010010101000111000
11111110111011000111110100101110
11111110111111111111001110110010
11111111110111011000010000101101
00000000111100010011101010010011
00000000110111110011100111100101
00000000101110010111101111011000
00000000010101000011111011111011
00000000000010111000010100010101
00000000011010110001011010010011
00000000100110000011001111110110
11111111110000100010000110000000
11111111101100101101111101111111
11111111111100001101111000100010
11111111110000011100000101000011
00000000000010000101100100001101
11111111111000100011000001000100
00000000010001001110000000000011
00000000101010000101110001000111
11111111001110101000100111111111
00000000000101110110001100100000
00000001000111001011000110010010
11111111110000111010111000100110
00000000001100100110100110010110
11111101110010001100110011001011
11111111000111110000101111010011
00000000000000011011001000000001
00000000001001101011011000011001
11111110111101000100011000101000
00000000011101100100100110010110
00000000101100100110110111110001
00000000110011111011011101101111
00000000100101111100001010111111
00000000111001111010100100111001
00000000011111101011111010111000
00000000010101000010111110000011
11111111110110001010000001011001
11111111110001110001110100101101
00000000011001110000100011101010
11111111011011100111111111110100
00000000101110101010101010010010
00000000001011010010000001001001
00000000000111100110111101011110
00000000100111100100000011101110
11111111101101100010101101101101
11111110110010110100001011011101
00000000010011101110011010011111
00000000001011111000011111101110
00000000111011000101011101010110
11111111011000110100111100100000
11111111011011001010101000001010
00000000100100000010110111011001
00000000101111100110000110101010
00000000101011111001011000100110
00000000101011110111001010001010
00000001110011111011101000110001
00000000100011110100000101100110
00000001001111001111011100010010
00000000011001110000010111101101
11111111100110101001011010000011
00000000110100101011000011011000
00000000001010111101110010000110
00000000000100100101110011111011
11111111101101011010011100101011
00000000001011111000011000110110
11111111100100000011000100001010
11111111100000101010100001101110
11111111110011001010111010000000
00000000010111001001010000110110
11111111110011001110100000110011
00000000010110001111001100100011
11111111111010011010010101110110
00000000100000100100011111110001
11111111001010111000001111111100
11111111100001001011011011110111
11111111011010010011101111000000
00000001000111010011101010110100
00000000100011101011110101101111
00000000010100100011000011001001
11111111101010100111100011110011
11111111111100001101000101010100
00000000100110101011100101100111
11111111101110011010001001011000
00000000000011100111001101111110
00000000001110010101100100000001
11111111101111010111010001101001
00000000100001110100101000010111
00000000111010101001100011011001
11111111101001110001110001110111
11111111100000100100110010111010
00000000000110000101000110110011
00000000000011010111010000101110
11111111111101010000110000000011
00000000001011111110111001101101
00000000011110111110000111101011
11111111111101001001011011000110
00000000100010011011010001100000
