00000000001010001001110000110000
00000000011000111000111111001010
11111111110011110000111100101000
00000000001011110000101000001100
11111111111101100100100000111000
00000000011000001101110101100000
11111111110111010101000000010100
00000000001001011100010100110000
00000000001010011110101110101001
00000000000000001110001011010110
00000000100111110000111011001110
00000000001011000100011111001011
11111111111111000001110100110010
00000000001011001111100100010101
11111111101101010000110101101011
00000000000000101000100000001101
00000000000101110000011100110100
11111111111101001011111111011011
00000000000111011110000111111100
00000000011000001100011101011100
11111111101110111111101001110000
00000000101010011010100100000001
11111111010010110010010111001111
11111111101000011111111010001101
11111111111101010000100001000001
11111111111001100110111100011110
11111111110001100111000111100011
11111111101000010001000011100111
00000001000100100110001110001101
00000000011011110011100110101101
11111111010001100011110010100011
00000000010101001101110010100111
00000000100001111001111101000100
11111111111110001011111100010111
00000000010110001101101001001010
11111111111011110010000001100111
00000000011101110111000001011010
11111111110010100010111101010001
00000001000010101101101001100010
11111111000010011010000000000110
00000000001111100011010011010111
00000000010011100000100000101010
11111111010111100011001010000001
00000000001011100110010111111101
11111111011000111001101000001001
11111111100101001100010111001101
11111111111111100010010101010010
00000000101001111010011110111000
11111111110000001010100010010011
11111111001111010111100010010001
11111111110111010100011101000110
00000000111111111000101011111111
11111111111100100000101100111000
11111111101110001010001101110110
11111111011101001000101101010101
00000000010010010101000000110100
11111110111000100001111110111010
11111111101000010100111110100100
00000001001011101000111000110111
11111111101110011011110001010100
00000000011010110011010000101010
11111111011111011000010111101011
11111111111001111011001010100001
11111111101111111001110100010001
00000000001101011001111101000101
11111111011111100110100011100111
00000000000010111000111101100110
00000000110100001010001111001001
11111111001111011101000111010000
00000000100111000100011000011000
11111111111001010111001100000011
00000000101001010111010101101011
00000000010010010100011110011110
11111111101000010011100011110100
00000000011101000001110000011100
11111111110111110110001100110011
00000000011110110000110000000001
11111111000011111001101011111110
11111111110001010011001001001101
11111111111101010011101001111010
11111111100001011011010001101011
00000000110000110001001011111000
00000001001100111100000011000110
11111111111110000101111101111111
11111111100011101001000001110011
00000000010010011101111000010100
11111111101011100010101111011101
11111111000011100011010011001100
11111111111011111010001011111101
11111111110111011100001111100111
00000000100001010011010010111010
00000000100100010011110111010110
11111111010100001111001110111011
11111111101110101001110000100101
00000000111110100101000101011110
00000001111011011001101111000011
00000001001100011111000011001111
00000000000011111100110101111000
00000001011010101011101011011011
00000001011011111011100110001110
00000001100001001000111010111100
00000001000101010000110001111010
00000001101111100011001000010010
00000001001001110100011110111010
00000000101010001011100000101010
00000000001111000100000101110001
00000000101011011001000011000010
00000000001110001100100011011000
11111111110110011001000111111011
00000000011100010110001100011111
11111111101111110110111000011011
00000001001100111100001011001010
11111110111001111010111000110000
00000000001000101100111101000011
11111111101101001011100111000110
00000000011011000010110000111000
00000000010100111100111110000010
11111111111111101001000100001010
11111111111110011110100011000001
00000000011000110110100101001111
00000001001110101000111100110111
00000001011100110101100111010111
00000010101110011010101000011011
00000010101011101000110001101111
00000010000101110011001010010101
00000011001111100010010110000001
00000011011000010010011111101011
00000000110101010110110011110001
00000001101101001010001101101010
00000001101101101111000000110110
00000001011110001010110101100011
00000001111100100010100011011001
00000001001100011101000000001111
00000000001011010001111011011110
00000000100110010000010111111001
00000000001001001000010010100101
11111111011101010001001111110010
00000000001001101100111110001110
00000000001001111111100110010000
11111111100001001000101011000101
11111111101101100010011101111000
00000000010100100000111100111001
11111111111001100101000100100110
11111111000100100100111100010000
11111111010111011100001010111010
00000000011111111010001110011110
00000000110010010101011101101001
00000001110100000100111011010101
00000010100110010111110001111011
00000011010100000101101010111011
00000010101000001110000010101000
00000001001111001111001101111011
00000001010110101101101011000110
00000000111101101111100110111110
00000001110011111011001001011000
00000010000010111101011011111011
00000001010011111000011000010110
00000000001000001001100001101110
00000000111101111101001101010001
00000001010011011111101001010011
00000000101100010101010010110000
11111111101100110001100011000010
11111110011000111011001100010001
11111110110001110110001111111101
11111111011110001001001001000101
11111111001111111110011011011111
11111111010111000000111011011100
00000000011001000001101010111100
11111110110111100111111111101011
00000000010001011110001011001011
11111111101100001110110011011010
00000000000101110111111101100110
11111111100111000110110111010101
00000000011100110110101100000111
00000001010000110001011111100101
00000001111110100001110101101101
00000011111000100100001011100111
00000011010100101010101111001001
00000010101100110001001000111001
00000010100001000100000011101110
00000000001101111101000011101101
00000000010101011101000010110010
11111111101100000111111011100000
00000000110100011110001101010100
00000000100110101100011000111110
11111110111101111101101111001100
11111111001001111111010100100000
11111110101101100011001001000110
11111101111100110011101101111100
11111100110101110011011010111101
11111110111100101111111100010010
11111110000001100100000000001101
11111111010100111111011101000001
11111111110010110011000111000010
00000000001011100000111100010110
11111111111001110110011010110011
00000000001000000100100001001000
00000000000110011011110011001011
00000001001110100010000110000011
11111111100100111001010001110111
00000000111111110001000001111100
00000001011101010010011111100101
00000010100101110011110011111100
00000001111000010010111011010001
00000010110000000010111101011101
00000010010000001110101100110101
00000001110111011100001111000001
00000000111101010001100111010011
11111111011100001011000100010110
00000000010010101100110111011001
11111111100001100100101011010110
00000001001100111011011000001100
11111111111010110010100101010111
11111110001001010011000101001000
11111100101010011110001101000110
11111101001010101100010010000001
11111101001001011110000010001010
11111110100101100111110001011100
11111101001101110110110100011101
11111101010111000100110101110110
11111110100101010001101001011010
11111111101010111010011100101101
11111111100010000010110011111011
11111111101100001000000100101010
11111111010001011110111010010100
11111111000111000011010000110011
11111111000000011000000100011000
11111111110111010111110001100100
00000000111101110100000011010110
00000001010011000110001000110111
00000001111000010000001011001100
00000001110101110011100001110101
00000010010111100110011000010001
00000010110110110010000111110000
00000010000110000010111101110101
00000000010111010010000010011000
11111111010011100111100001010111
00000001010001101101001111111010
00000000100010110111010110110011
00000000010010001000011111011101
11111101101000011101001000100110
11111101100111011111111111100010
11111101000100000100100010001001
11111110001000111000111011110010
11111110000110101110011101101011
11111110111011111100101100010111
11111101011010111001011001001111
11111101001110110000100001010010
11111101000001110001010001100010
11111110001001001111100010110111
11111111110110001010001011001111
00000000010111010101110000010001
11111111100011011100011011010111
11111111100111111010101111000101
11111111110011100110101000000111
00000000010011011011011110100101
00000000110001110010001111110000
00000001000001101011101010000100
00000000011001010001000010111010
00000001100111110110101101010001
00000001000010011101110000100010
00000001001010101101100100011101
00000000000011011111001001001011
11111111000110001110111011101011
11111110011101001100111111001100
11111110110100111100001000001110
11111110010010010101100111111101
11111110001011100110000001111110
11111101101001101011001100100001
11111101010101100011101000010100
11111011111111100101111110001101
11111101000101010100100101000011
11111101000010101000111101010000
11111101101101000000011010100101
11111110011011110100010111101110
11111100011010010100101010100001
11111100101010111111001001111000
11111110011110011110000100001110
11111111101011001100111110100001
00000000010100000001110101010100
00000000001110100000110101100010
11111111100010101000011100111000
00000000010000001110100001000101
11111111110100000100110000110101
11111111011101111111100111010110
11111111110100100101000010110001
11111111100100000111100101101000
00000000010000110001101101000111
11111111101101000001110011011011
11111111101010110011010010101110
11111110010010100111011111000101
11111100111010011111010010010011
11111100100111001110110111111001
11111100100111001010110011000011
11111100110111100001111010000100
11111110000010001110111111011000
11111111101000000111100000001011
11111111111000101110101010100110
11111101011100100001010100010100
11111100111100100001111000110001
11111100011111000000010011110010
11111101110010101110101000011101
11111110101011010001110100001101
11111100001101111101101001000000
11111101010111011110100010110010
11111111011010000010001010001000
11111111101110011011111000100101
00000000010000110010000101111100
00000000011000011000010001100010
00000000010110100010111011110010
11111110111001100110001110001001
11111111011101011110011101100010
11111111101001100010111001110001
00000000001001000000001110111010
11111111001100111010110010011110
11111110011101111001001100000100
11111110001011101001001010110110
11111110100110010000000111000101
11111111001000111010101000000010
11111100111000000000110110001001
11111101101101111000011011001011
11111100011001100000110011110110
11111101110111111011000000110110
00000001001100101011010000000010
00000100100110010010001100100001
00000011000010100010110000000001
00000010011001111010000011011010
00000001110010001000101100110111
00000000111111001110001001010111
00000001001100101111001110000011
00000000001000011111111001110100
11111111010100100101000110111011
11111110011010100011100000100010
00000000001100000000000001000110
11111111100001001001000100101010
11111111110010110101011000110111
00000000010000010101101110100110
11111111111110000000111011110101
11111111111010010011010101011100
00000000001000010011001101011001
11111111011011100110010110011111
11111110100000111110000101011001
11111110001110100111101001010100
11111101100010111010100000100100
11111110011010100010101001101001
11111101101001000010011001110100
11111110001000100101110010000001
11111101110111001000001001100101
11111100111001010110110000001110
11111100000001110111100111000000
00000001001111111000111110110111
00000101111000000000000010110101
00000111101001110101111110100000
00000110110001010110111100011001
00000101000001110110100001101101
00000011100111101010011010111101
00000011101011011000011110010011
00000010110111011001011010110111
00000000100100010001100111001111
00000000001101010011100011110010
11111111010010100010000111001011
11111111010001111001101000010100
00000000100100011011110110000111
00000000100010101101001101010010
11111111001011000111100110001000
00000000110101111110101011101001
11111111100000010101110101001001
11111111110011101011111000010011
11111110011101001111011100011000
11111110110111100111000000111000
11111110100011001011010001110010
11111111011110010111110000100010
11111110110000010100110010110010
11111110010011000100101111001101
11111110000100101001011011001000
11111100100111010001010010000111
11111011011010110100111101101111
11111110000011001010100010001001
00000011000010000010000100011011
00000101100111100010100010001100
00000110100101101001011101001110
00000110001011110110101000010000
00000100001011101100110001110011
00000101000010010101000100000010
00000100010010100111101110111101
00000011001101101101100101101000
00000000111101001011111000100010
11111111100110111011100101001010
00000000000010100100000110001101
11111111001101001101010001001101
11111111111001100110110110010000
11111111101110010000000001011101
00000000010111111101100110101000
11111111000010110011110000000010
11111111100111010010101110000110
11111111111001101100001110010011
00000001001000110011111001011011
11111101110111011110000111101000
11111110110011011010101001101000
11111111001100010011110100011111
11111111010001001011010011100001
11111101101000100011000000010001
11111110000100101001001010000101
11111111100000000001010010011011
11111100100100100010001000000000
00000000110110111011011011001001
00000100011001010101100101111000
00000100010100010101001100100000
00000100100111110011101101111111
00000011011000100000101011010100
00000100010000111111000000110011
00000100011111111100011011000011
00000011000100110111101110011001
00000011000111100010000001000111
00000000111010100111011111011100
11111110010000011010000100101000
11111111000000001011110000101111
00000001000111100100111011111000
00000001000111100010110111000001
00000001011010100000010010101100
00000000001000101001110101011001
11111111100001111011000011101010
00000000111100111011101111111100
00000000001001110111111111110001
00000000011001010110001001001011
11111111101100011001000000000100
11111111011010001010100100101000
11111111001000100101111101000111
11111111010010011010101110010100
11111110111111000011010001000101
00000000010011111001001011110101
00000001010010110001110111100000
00000001111011101100000000010010
00000100110001100111000101001010
00000100110000110000111101111000
00000010000110000100010101101000
00000001010100101001110110010100
00000000111010101000111001111001
00000001110101010111101000010000
00000010100001111111111001010000
00000010111001001110001001011100
00000010111110010010011010101010
00000001010100111000111011101001
00000000000100101100011101000111
00000000010101010001100000000101
00000000110000101110111010101000
11111111101010110101111101111010
11111111110100000010011010111100
11111111111100010010100110010000
00000000011101010110000000101000
00000000100100010000000001001001
00000000011000011011111010111011
11111111101010110110010111111110
11111111010111101011110110101011
11111110111110100000110111001010
00000000001001000011110011001111
00000000100100111010000111110010
00000000111001000010000101100111
00000011010111001011010010110000
00000011101000110101110101110100
00000101101011101110100100011010
00000110110110110001010110010000
00000100010101010000000010101011
00000001001100101101011010100111
00000000111101101001100010110011
11111111111001010100001011111100
11111111010111011111000011111101
00000000100101001111001010100110
00000010001110000100001001011110
00000010100010110000010111101001
00000001100001001111101001001100
00000000100111101011110010010010
00000001001011111101111010100000
00000000001011010100010101111100
00000000101110010011010010110101
00000000000000100000110101110001
00000000000100001000101000001001
11111111001010010000010100000000
11111111110111111010000110101011
00000000100111100101110101011010
00000000101010100111011110010110
11111110101001101001011011010101
11111110010111111100000111111000
11111111101010010011101001000011
11111111111101001001111001100110
00000010110011001100101110111111
00000100010100001001110101110010
00000101101010000000011100111000
00000111000110001100100101110101
00000100101001000110010110001100
11111111110010000110110011010111
11111110001010010111011110101000
11111101111110001000100000000010
11111110110101110010101001100011
11111110111101001111000010000110
00000000111001100000011000111000
00000010010010010101001101100010
00000010111010000010011001011011
00000000111011111000100110111010
11111111101011110111011101011010
00000000111100011110010111010000
00000000111100000000011110000110
11111111011111000111010110011111
00000000000000010011100011111111
11111111101111001001111111110010
00000000000010111110000000101010
11111111000101110011101011110100
00000000110110101011001100101010
00000000100100010100000011010000
11111101111110111001011001100011
11111110000010111101011101011100
11111101001100110001110001110111
11111110101110110110111110100111
00000001111000100101101110010010
00000011101011000101100001111011
00000110000010001001111000111001
00000011111010101000100101101111
00000010001110110001000000000010
00000000111001111100011001101100
11111110010000010000111111100010
00000000000101100110101100100110
11111111011111010010111001010000
11111111100000011101100010000010
00000000001000010100010100110011
00000001011111011101010000110100
00000001000010111110111010010100
00000000010111111101100011100000
00000001001100011100111011001101
00000000011000010011111011001100
00000000011100101111111011111011
11111111011110011001010000001010
11111111111100110011010101000001
00000000101000110010011100100001
11111111011100010011000100001011
11111111111000111101100100100100
00000000001001011100010011011010
11111111110011011010001111010010
11111111111110101111010001110111
11111110100011011111101101101000
11111110110111111011100100001111
11111110000000001000001010011110
11111110111010111101111101001000
00000000100101010110001000010100
00000001111101100111110000101100
00000010011000001001110111010010
00000001101100110100001010100100
00000011000001010000000100000010
00000001100011101110011011010001
00000001001110010010111010001001
00000001001001000000010101100000
00000001001000110101101011010001
00000001100011011100101000101011
00000000110110110001001111010010
00000001001110011110011010011101
00000010001001010100111001011010
00000001000111000101100011110101
00000000111011111100000010100100
00000000100010001011110110111010
11111111101000001111010001001001
00000000100011011001101110110110
11111111011111011011001010110100
00000000100010110010000001010101
11111111101001100111000000101111
00000000100011011101111011111010
00000000001000110000010110000001
11111111111010101110010111001011
00000000000011110111100110100001
11111111011010000101100100010111
11111110100011110111101111100000
11111111010100101111110011110100
11111111110000001101001000111000
11111111111110111100010110101001
00000001110111011010011100101100
00000001111101110011100110111011
00000010100101011111110000101101
00000010011000100000101000000110
00000011010010000100100010001000
00000001001010100110101110010100
00000001100010111001010110100111
00000010000100010010010000100000
00000001011101000101100101010110
00000000000011000100010110101110
00000001000011100001101111000011
00000000010111001101100111000010
00000001000001011111111010100111
11111111111101110011110000000100
00000000010110100111011100010000
00000000001100011011110000001111
00000000011101000110011110110110
11111111101111110111101010101101
00000000001001100010100100000001
00000000111110111101101101011000
00000000000000110000100110110100
00000000000100100000100100100101
00000000001001000110001000101110
00000000000100000111011111000010
11111110110000001000010110110111
11111110000100110100010001101101
11111110100011100001010011011011
11111110101100001000000001100101
00000001001101001011001111111110
00000010111110110001010001011011
00000011001000111101001000001010
00000010110010001101001111010000
00000001110000001110100010111010
00000001101011001110101001010101
00000000111101111001110101111111
00000000110111001001101000101100
00000000010010100101101001111100
00000001010000010110110010010100
00000000101110111111000101100101
00000001000111000100000001000000
11111111111100011100010001101010
00000000001001001111101100110011
00000000000100110010100110011100
11111111101001001001101000100101
00000000000101010010100100100110
11111111010010110010100101111011
11111111110010111011111101010011
00000000000000001000100010001110
00000000001000100110011000011011
00000001000110110110010100001101
00000001001100000111011111001110
00000001001111001110011001111000
11111111100000000001010001110110
11111111010001011011101110110111
11111111000010101001001011100111
11111111001111100001010001101111
11111110110111000001110100001110
11111111111110100011111100001011
00000000110001011011010000100110
11111111110101100000010110101010
00000000110110001101001010010111
11111111010010101111000100101001
11111111011111100100000101111010
00000000100110110001100111000000
00000000111001101101101001101011
00000000100100111011000001110001
00000001000010100110110001100110
00000000111011001001101100001100
00000000010001110110100100110111
11111111100100100010110111101001
00000000001000011010000111101101
11111111101001001000001100010100
00000000001001100000100011011100
11111111001011101101010101001110
00000000001111110110010101101001
11111111101111001000011000101010
11111111110010100001101101111100
00000000000111110111101101010011
00000000111110001000000010110001
00000000010001110010100010011011
11111110111101011011100011110110
11111111001110110000100111110110
11111110001101111001110011111111
11111110111011001000011011010101
11111110010110110000001011010000
11111110111010000001011101110010
11111110000111101111101100111101
11111101010011001110010001000100
11111110100010000010010101100011
11111101111111100001111000100101
00000000010010001011010100010101
00000001001110100101110111000101
00000001100101001001111110000110
00000000100010100110111011011010
00000000101011101110000110001100
11111110110010001011101110101001
00000000010011001101111101010101
11111111101110100111000101001000
00000000000111110001001110101010
11111111110110100011111110100000
11111111001000011000111001110100
11111111010100011001000111110001
00000000000010010100101111010000
00000000001001111111001001000101
00000000001000110001100001101100
11111111011010000010100111111111
11111111101111101110000111111110
00000000110000111111000111111001
00000000100101001000100101101001
00000000100111010100100011010001
11111111111100010101100011100100
00000000000001111110101001011000
00000000100001001001001011011111
11111111001001110011100111100110
11111110100011100010000010011001
11111110010110100111101001001100
11111110100110110111010011000100
11111110111110100001000010101000
11111111110010100100101111101010
11111111111010000011111111011001
00000000000100001011011100010010
00000000110010000111100010110110
11111111010010001011101101010100
00000000101010000010111011100111
00000000110010011010101110011010
11111111101010010111101111011101
00000000010100010101111010011111
11111111111011110110110110110100
11111111111101010010001111011110
00000000000110111010001100000110
11111110111101001111000100000011
11111111000111101101101110100010
11111111101000010000000111110011
11111111011000011001111110110011
00000000101010010111011011100101
00000000010110010100100111001001
00000001000101100000101010011110
00000000001101000011001000111010
00000000101010100100111101100100
11111111011010110010110010101010
00000000011111100000101101001101
11111111110101011010001000100001
00000000001111101010000101110100
11111111011000011101000010100111
11111111100111011000001110100101
11111111000111101101001011011011
11111111011101111111001011001100
11111111110111000010011000100010
00000000010101001011111110111010
11111111101001011010110100100011
00000000100011011101010001010010
11111111110011100000010100011111
11111111101101011101001000011110
11111110110111011100100100011110
11111111100111010111011000011110
00000000001111011101101011000110
11111111110001110110110010011001
11111111110011100011101001100111
11111111101001101000100000110100
00000001000001000101110000011001
11111111110100001101001111010110
00000000000000100010101011100001
11111110111101110111000000110111
11111111110101001001101011011011
00000000100100110110111100101101
00000000000000001111010101111110
11111110111110101010011000010001
11111111110001110000010010111111
11111111001110101010111011001001
00000000000100111101100101010101
11111111010101100000001000010100
11111110101110110101000000101011
11111111000110001001001111011010
11111111001011011100101110101101
00000000010110101011100001100110
11111111110100100010001001011010
11111111010101010001101100011010
11111111010101110110101001000011
00000001001111101011110100101010
11111111110110011111010111110101
11111111100011110100011000000110
00000000100000010100001100010100
11111111110011100101110110011011
00000001000000101010011001001110
00000000101111100100110010000001
00000000011100111111011111011001
00000000000101001000001111010100
11111111101000000100111110000110
00000000001011101101100100011000
11111111011011010010000010111110
00000000011111111100010000001111
00000000000110000111111000101011
11111111111001110010111010111110
00000000001110100001111011110110
11111111111001111110001010001111
11111111100111101001100100110010
11111111101111010010111110000111
11111111011000011111011001010100
00000000010011110000010000010011
11111111111100011001010110001111
11111111110101010011011000101110
11111111111101101110110111011011
00000000101000100011110000010011
11111111011011001000101000001001
11111111110001110011010100011110
00000000101100010000010111010011
11111111011110001100110011000100
11111111110011111011100100010011
11111111101010000101001001001100
11111111100101010110100100101001
00000000101000001010000110011101
11111111101110000001100100111110
