11111110010111001101011110100110
11111111111001100000101011000001
11111111110111111011101111100010
00000000100100001111010001101000
00000000011101111100011001011111
00000001001001010000011100011010
11111111111000011010000011111110
00000000100101011111001100010011
00000000011110001110111011101100
11111111001000100000010010001011
00000000000100101010001010011011
00000000000000111111000101110100
00000000000001111000001110100100
11111111011001110110000001000110
11111111110101000110010001101001
00000001010100000100111111001101
00000000001011010101100111001111
11111111011011010011010101001110
00000001000011010110101100110101
11111111101100010110011001011000
11111111011011000110001100000110
00000000000001011100001100101100
00000000100011110011101101001101
00000000000011100101101111101110
11111111000100110101100111000101
00000000111010011001101111101111
11111111111010000101110010011001
11111111110001001111100000111110
00000000010011010010011010111111
00000000001101101100011010101001
11111111101011010101100010010100
00000001011100011110010101110111
11111111011000010000001001110110
00000000011111111111100111100001
11111111111001111000011111110111
00000000000000100001000010101010
11111111010000001100000111101101
11111110101010001010010001101100
00000000100110111111100011010100
11111111001000010001001010101101
00000000011100001000101110011110
11111111011010110100101001010100
11111111100100100000111111010110
00000000010001000101001011110101
11111111111101111000101011000100
00000000000110000010100001000101
00000000001101111000011110011110
11111111111000010110010100001010
11111111110110111011111110001001
00000000010101101100111110101100
11111111111110100100011100010000
11111111010100101000100001001101
00000000100011111000111111001100
11111111110111111101000111000111
00000000100010000001110110111111
00000000001110101001011110100000
00000000001101001101000110000000
11111111101100010001101000101000
00000000010111000011011110100000
11111111100010110001011000110011
11111110111110001000011001110100
11111111010000101001101111000011
11111111011101011101010010001000
00000000100010100101010000010111
11111111101110101011101001011110
00000000000000011010010010011010
00000000011001001111110111110111
11111111110011000001100001110011
00000001001000011111011110011001
00000000100001101010110000001110
00000000011011111000001011101101
00000000000010111110001001000111
00000000001100000111000111111101
00000000001111101010001000001111
00000000011010001000001101100101
00000000000111100001011110100010
00000001011110110011011000000001
11111111111101100101110111111100
11111111110010110100100010000000
00000000100011010100000000000100
11111111101000011011001000100011
11111111110100101100010101000101
00000000011100011000111110001001
00000000100001010011000101000100
00000000001000011101111000100001
11111111001001110101111000101011
00000000111100000101101111110011
00000000010010000101100001010011
00000000000101101110001111000100
11111110111010110101111111010101
00000000011010000100100000000101
00000000001011100100101110011110
00000000111010011101000100010111
11111111111000000000001000101100
11111111101101011001111101101001
11111110111101101101101100010000
11111111011101111011010100100011
00000000010001001010011111011101
00000000100001100111100010011000
00000001010101111010111111100101
00000001001000001001010011111000
00000001000010100011100010011010
00000001110000100000110010111100
00000001111011011001111111111001
00000001011100101101010001000011
00000000001011100101010101000011
00000000111100000010100000010011
00000001000101001001111001001011
11111111001100001000000010110111
00000000010001101000001111111010
11111111001011110001111011001001
00000000000000000001011000011001
00000001000001011111111111011101
00000000001001000111101011001001
11111111110011001010110110000101
00000000010101101111000001101111
00000000010101110001011011001110
11111111100101001010100001000111
00000000011010101001100011111000
11111111010011000101011001000000
11111111111100101001000100111010
11111111100101111110100000111011
11111111100101110111011010001100
11111110010101000111111110011000
11111110001011010111011101101011
11111110110011010110010111010001
00000000011111111011110000001111
11111111101100111000110000001101
11111110100101110010101000011000
11111111001100110100101010101000
11111111100010100100101110111110
00000000110100100110111001110001
00000010000010101111111010010111
00000001110010000100010100111111
00000001001010111001001100111111
00000000100100001000111001011001
11111111111000000000110000101111
11111111011110110010100111111101
11111111101011100100001010001011
00000000011100110110000100110001
00000000100010011011110100001000
11111111110110101010001011111100
00000000010010011011111101010010
11111111010110111001011000100100
00000000010111111100010011110010
11111110110000000010001101000100
11111110101100100001111100111111
11111110110110111110100100110101
11111111100101111001110011000101
11111111010100100100100011000110
11111110001100100010111100001100
11111101000010011110001101111110
11111100101101010100011001100011
11111101001000011100110001001010
11111100010101000110110100010011
11111011110110011000000011010100
11111010000100111110100111110010
11111001101000000110011110010101
11111011110010101101010000010010
11111100100100110100101110001110
11111111110010001011100110110111
00000000010111111111010011100010
00000001011001101001010001000110
00000000000110000100110101100101
00000000010100111001101001011110
11111111101010100001110010011101
00000000001101011110001011101011
00000000100001001010001110110001
00000000100110001001111000101101
00000000011011001111110001000100
00000000101101010101111100100100
00000000100001110010100000111110
11111111001010011000000000110011
11111110101011000110000011011110
11111110111000011001011100100110
11111111101111111001011010000101
11111111001000011010101010011011
11111110011111010101110000100111
11111110100001100101100110111111
11111101011111101101101001000000
11111011111101111111011100101011
11111011101001100101100101001111
11111100111001011001110101101010
11111101000101001100010000110001
11111101011010001001001110100101
11111011110001001001100011010011
11111011101001011101000110000011
11111101100011011001101110001000
11111110010001000100111000011101
11111111011000110010001010101101
11111111000010000001010011101011
11111111110010011011010001101100
11111110011101111100001110011110
11111110011001101111110010110000
11111111101110000100001001000100
11111111111011101101101110011000
11111111001111001001001010011011
11111111010011110101101011110000
11111111110001011011111110001011
00000000100000000101110000101011
00000000000110101011101011111111
11111111110100100100011100010001
11111111110001010110000101001010
00000000010110000011011100011010
11111110010000010001001001101100
11111111101111101101101000110010
11111111011110001111001111001111
11111111000010010011000001011011
11111111011001000111101110110001
11111110011110100011110100011000
11111110000100010011111010111011
11111101110111101010001011110110
11111110010101111111011101111101
11111101000110110011011100000111
11111100010011110111010011111010
11111100110110110011111110100011
11111101101111101101100100100000
11111100101111000000101111111110
11111101101011000001101111011100
11111100011010011101011110111010
11111011110011001000000101011000
11111101010010010010101100010111
11111111110001101110100000101000
11111111100001010100100011110111
00000000000011111011110000000101
00000000001010010111110100111100
11111111011000100110111110001001
00000000001011100011110100101001
11111111010001011001010000001100
00000000100000000101111110000110
11111111010000100100011101111010
11111111000101010011011010001000
11111110110000011110100011001000
00000000000100100101011111010011
11111111111000011010110001000110
00000000101011100011001101001010
00000000110111000000010110100110
11111111111110101010001000100111
00000000000010101001100000110100
00000001101100010110101011100110
11111110001000000110110100111110
11111110110000000010000010010010
11111101011110111010000101011001
11111101001000101101111000010110
11111100111001100000001010010111
11111100110100010100001100101100
11111100010101001000000010001111
11111011000010101100000000011100
11111011101111110100010010000111
11111100000010001110011100100111
11111110100001011001010011101100
11111111100101100111011000010000
11111111100000111000001100000000
11111111100111001011101010011000
00000000111100101000000010101001
11111111101111010001111011101101
00000000010010001010010110100110
00000000001101000001100110001111
11111111111010000101010001101100
11111111010110000010010010011010
00000000000110011001111000001010
11111111100001100000010110000000
00000001110011100001100100101010
00000001010011100100011000101001
00000000011000100010011011101001
00000010010000110011010101110110
00000011101010011010001101000110
00000011011001110010110000111101
00000000011010111011110000111011
11111111010111110001000010101101
11111110001101111010000011100001
11111100000110100011001110100100
11111100010011001101001100111110
11111011000100101000110001111001
11111010111101010010001101001011
11111000100010110110001010110111
11111001011010111110101010111000
11111100010111110000011010011101
11111110001101000001000100011010
00000000010111001011111011111101
11111111101011111110110011001111
00000000001000000001011110110011
00000001001100000111001000010010
00000000011001011011100110101111
11111111100100010010011110100110
11111110110001011110100111001010
11111111101000010011101110111110
00000000010101111001100101011101
00000001011111010001101011111011
00000000101111100111100111100010
00000000011011111000001101001000
00000000110011010100100011101000
00000001110100110110010010000101
00000001100111110000000011111011
00000010001110110011101100010100
00000011010101000111011011001110
00000000001100101010010111111000
11111110110010100110011100011110
11111110100110110000100011101101
11111100111000010110111000011000
11111100011111111111000001000110
11111100010000010111000100100111
11111100110100010101100101011111
11111011000110101001101100100100
11111011010010101110111011100010
11111100000010111101110100100100
00000000000100001111001110100010
00000000001011111111100101010110
11111111011101111001111001110011
11111111110011011000100011011000
11111111111010100001001001101101
11111111010110110101110001001101
00000000000110010110000011110110
11111111100110001001000101000011
00000001001111110011011101011000
00000001001100111010011001000101
00000001010001110111101110101010
00000001000111000000100011000111
11111111000001100010000111011010
11111110000010001101000001110100
11111110011110010101011001001011
11111110111101101001100101011011
00000000011111110010001101111111
00000011101101101010001100110100
00000010100110101011110101000100
00000000001100111110010000010111
11111111111110101010010010101001
00000000011111111100011100010001
00000000111000010101111111011000
00000001110001100101011011000011
00000001001000000001100010100010
00000000000111110010111111010010
11111110010001011111101111110010
11111110110000100000010010001100
11111111100001100000010110000110
11111111101100011001110110110010
00000000100110001001001110100010
11111111100011101011001110111011
00000000000101101010011011011100
00000000110110010100011001011101
00000001010010111011001101010010
00000001011001010110110110101001
00000000011001000001101100000010
00000000001010101101100110010111
11111111110001010000101111100111
11111111001111010001000010110001
11111110101010101101110100111000
11111110000000010100110100101111
11111110110100000100001101011001
11111111000000111101001110010011
00000000100010110110000010001010
00000011000000111111100011100001
00000001111110100100011001110101
00000010001100101100101011001110
00000011010001100111000000010100
00000011010100010000000010111001
00000100010011001100000000110111
00000100111100001001010100111100
00000100110000101110101111110111
00000001010100000110001011001001
11111111101001010100110001001111
00000000000011001000011001101111
11111111100110010111011110001011
11111111011101000000101111101011
11111111001101111000011111110110
11111111110101001011011000000001
00000000001000101010110011000010
11111111010101001100110001001001
11111111111110101111110111010100
00000000101011011010011111101010
00000000101010110111001001011101
00000000001100101000110110011101
11111111011011001110100001000010
11111110110011101000110100010101
00000000010010011111111110010101
11111111000001101101111011100010
11111111000001100110010010111101
11111111010110111001100000010100
00000010000111000011000011011010
00000011010101010001101100011010
00000010001100011011110111111001
00000011111101010101011101111110
00000011010110110000111110110110
00000101111100010011001111000101
00000101100110101000001010001010
00000101011011111111100001100101
00000011001011101010011101100011
00000000101011100101111111011001
00000001110101111110011111010111
00000001010001101110001000001010
11111111100001000010100011011000
11111111111001100111001100010000
00000001000101001101100011000000
11111111100010110000111111010011
11111111110010010010010101111110
00000001000101100001110111011001
00000001101001010001101110100001
00000000111110110110000000010000
00000001001010010000111000011110
00000000100010110101000110001100
11111111111111111100101000000110
11111110111000011010100101101110
11111110111101010000011001101011
11111110110000100110001000101110
11111111101011010111110000011110
00000000101001011110011001110101
00000001110010100110101011010001
00000011000111001011110000001010
00000011010000011000010011011101
00000011000111110111001010001110
00000100110000100001100100001000
00000101111001010001111111111010
00000101100010110010011000111011
00000011100110011111111001100001
00000011011001111011000010000011
00000001111100111001011101111000
00000000000001011001101110101011
11111110111100101010001110101011
11111111110011111001110111111101
00000000001000011111011110111010
00000000001101111001011001111001
11111111010011001100110111010101
11111111101101101010000111101001
00000000011001011001110010110011
00000000000101101001001101000001
00000001100011111101001111100001
00000001011100001011110010101101
00000010100000110111010010111011
11111110110111101001000010101011
11111101101010001001111010111110
11111111110111011000000101101110
00000001010011011101101111101111
00000000110001100110101111000010
11111111001110000010100100100101
00000010101000000010100010000001
00000011100101010011001001011010
00000011111010101110011101101101
00000101011011001101010100100101
00000100011000111011101101111000
00000100010001010001001000000001
00000010100000101011110100000000
00000011001101000010110010010101
00000010000100110001101100101000
00000001001011000010111000010011
11111111110010001100000011111000
11111111100011011010110101011000
11111111101110101110101111111010
00000000010111111000100110100011
11111111010111101111010110110010
00000000010110011111000111110011
00000000100101111010011100111101
00000000000100111111000000110101
11111111110001100111001011111111
00000000000000111101000100111010
00000001101110110011101101010011
00000001110110010011101111110110
00000000010111101011101001001011
00000000110110010111111010110111
00000000011110111110110101001100
00000000011000010010001001010110
11111110101010110100100000101101
00000001000111100010010011001010
00000011111000011011111100011100
00000011000001011000011001011000
00000011110110001101010001001000
00000011110101100101110011000011
00000011100101101011100010101110
00000001100011011100110000011000
00000010100010110100111000110111
00000001010001001001110011111010
11111111011011110001011000010011
11111111000000110100101011111010
00000000010000011101110100111111
00000000000011010111010000110010
11111111100110100000011011011100
00000000010011001101011011001101
00000000111111000001111010000110
11111111010011100111100000111010
11111111111101100001010000011100
11111111010111011010011110100110
11111110100000110011001010000011
11111110001001010110100001111000
11111111110111011010001010001000
00000001110011011110100010101110
00000010110010001001110110000111
00000010011010010100111011111000
00000011000001010010100001100010
00000001001000100001010101111100
00000001000000110101011101101001
00000011111100100001110010111101
00000100000111010101001111111001
00000101010001010010011101000011
00000000111101100110101100011001
00000000110000010000100001100101
00000000110001000001100010110100
11111111010100111001100101000110
00000001000101010001011101100111
00000000101010000101010101101010
11111111100011101010000010000011
11111111100001110110110110110011
11111111111010010111100001111101
11111111101111001011010110000000
00000000011011011111010101111001
00000000001101101100110000011011
11111111111010110110101001100100
00000000101000001011010101101101
00000000000011010100110100011100
11111110110100011000111110001010
11111101101101001001011111001111
11111100101100111011000001110110
11111011011101010011011111001010
11111110110010001000010010011100
00000010101111011111000010010000
00000011101011101100000001111110
00000100000010000100110101111010
00000100111101111010111000100111
00000011111100010010001110100010
00000011000110111011100011001001
00000011111011011111011000010011
00000001110101000101010110001000
00000000110000100010000010101100
11111111011000110001001000010001
11111110000000000111110100101101
11111111011011111001010100011000
00000000001101101100000011110000
11111110101100000010110110111011
11111101010000110110110101101000
11111111011011100000111001111111
11111111001111010000001101100110
00000000101000000011111111101000
11111111011001100101110001001110
00000000011000100011110111010111
11111111101110111010011100110100
00000000001111101101101010100001
11111111001011010101011111110010
11111111010000110000000011000001
11111100011010101010111000010010
11111011101110000101000010010001
11111100000101010101101100011001
11111100101100010110100101011101
11111111001101000000111000010100
00000000000110010000000011100011
00000010011001011011101011111011
00000011000010010110011011010110
00000010011100100110111111010000
00000010110000011001000010100111
00000010110111100100011011001111
00000001011001101111110110001010
11111111010001100101010101010001
11111111001111011111011101111010
11111101001110000011001111010010
11111111100100100101101101010000
11111101010001111101000010101101
11111101111101110101011010100101
11111100000011010000110001011001
11111110101101001011001100001101
11111111100100000000101110001010
00000001010000001110101001111010
00000000100000100111011111110101
00000000111101101001011001010100
00000000000001011011001101100110
11111111001111111101011101110011
11111111110011100011101110110101
11111110010000111001100110000111
11111101001101010001000010100001
11111100011010011000101110010001
11111010100000110101111001110000
11111100101101010000011100110111
11111110100011011000011111011110
00000000001000010011101011101011
00000001110010111111000011110001
00000010011111001110001100100010
00000001010001010000011000001000
00000001100111100010001001011101
00000010000001111011111101000101
00000001010000101011001111011101
11111111001110110000101010100010
11111110110110111001110111111100
11111110100000100011001001100011
11111111000100111101010011011000
11111101001111111101101011000100
11111100010100001101001000100101
11111101101101000111011010111000
11111110111000001111100000100010
11111111100010110001011001000111
00000000010111111100111101101010
00000000000010101111010010110111
00000000001011000011111100110100
11111111100010110100110001100000
00000000100110000111010010110101
00000000101000110010011111111001
11111110010000011110000111000011
11111110000111000000001111000101
11111101101100110011011000101101
11111101010101010111101110111010
11111101001110101100011101010001
11111101111011110100100110100111
11111111100011010011010011001100
11111111111011100101101010001011
11111111000110001110101110011001
11111111101111101100010100100111
11111110111001101001001111110010
00000000001100010111001110011110
11111111101101111111110000000011
11111110010110001001111100111001
11111101011110100011111110101101
11111100010110101001110011001101
11111100110100001001000110111011
11111100011100010000011010110111
11111100111110010100001000110001
11111101011000001110001011011000
11111111100101010111101110111111
00000000100101000100110011110000
00000000100010111011001111111010
11111111101101110001101011100101
00000000010101101110011010111110
00000000001101001011010001101101
00000000000000010000111100110111
00000000001101000001010101111100
11111111110011111110011100000111
11111110111010000100100011011101
11111111011101110011011010001001
11111111000111010101011011010110
11111110111110101100101010101011
11111110110101101100110111100101
11111101101011110000111011011011
11111110000100111010101111001000
11111011111100101011100110011010
11111010111110111010101001100011
11111001100010000010000001101010
11111011101011001000011101101101
11111100000110111110001000100110
11111100011101111101001000100111
11111011000101101010011110001111
11111100011010110111111111011101
11111011100110011110110011100010
11111101100011111100110111101001
11111101100100101000100111001010
11111101101110101001011011001111
11111111010010101100100110110111
11111111101110000011100000100111
11111111010010010111010001011010
11111111111100110001000110000011
11111111111100111111000011110010
00000000000000001110010110101010
11111111101010100001111100000100
11111111001110100000101100101001
11111111100101110011011110110110
11111110011110000001000101111001
11111110111101010010011011000100
11111111010101110111000010110010
11111110101101100100000110101000
11111110001000010000111001101111
11111100001110011101101000110100
11111011011001010011100011001100
11111010110000000010010001010000
11111011010101001111110110000100
11111010100001011001010011000001
11111011001000111101100010110010
11111001011100011111000011001110
11111001101100111111111000101111
11111011110010000010101000111101
11111011110100010000010000000110
11111110001011011100100111111000
11111111000111000110111110000100
11111111000110101011110010000010
11111111010011111111111110001000
11111111010000000001101011111110
00000000110011011100100000000000
11111111110110100011000001100000
00000000000010110001010100000100
00000000100010010000010101100000
11111111111001101001010000000100
11111110110010100010100011101100
00000000000111011110100001110001
11111111101110100011010000000110
11111111101010101001111111100100
00000000100011100001000000001010
11111111110111010111111011010010
11111110101011111010010011110101
11111101001101001101110111001111
11111101110010011000110110000000
11111101100001011100101110111101
11111100001011101010000110011110
11111110000000011001010100111011
11111011011100011001010000111111
11111010101011101010001111010000
11111010110010101011111011101001
11111011111110010101010000000011
11111100101110110001010101101001
11111110100100000011101100110010
11111111001011110110101101000001
00000000111100011000110010100100
00000000101111111110001100110100
00000000001001100010000010001111
11111111111100101111000011101100
00000000001010111000110110010101
11111111100001100111100111111111
00000000110100100000000011111010
00000000010110101100101011000101
11111111110111001001100110111001
11111111111010000010000110000100
00000000000101001110100101111101
11111111101110000010111000101000
11111111101001100011001100000111
00000000011010111010000011111101
00000000100010011100101110101010
00000000000000101011001110110100
00000001000001001101000110101100
00000000010001101010111111101011
11111111111111001101001011011111
11111111110001111101000011100100
00000000111000001010011100101010
11111111000100011101100001100111
11111111010011111000010101011101
11111110011101000001101111111101
11111111010101010111011001100011
11111110100001000101101111000100
11111111101110100110011011110100
11111111001100011110110101100110
00000000100001010100110010111100
00000000100010100100011001000100
00000000001110100001110100100101
11111111101011101100100110011101
11111111111001101000111110011011
00000000001111110011011010000001
11111111101001101111100110101110
11111111000001011110100011100011
00000000001001011111100011000100
00000000001101101001100001011101
11111110111110100011110011001010
00000000010000001100010010010100
11111111011100001001110011101111
00000000011101100001001100110001
00000000101010010000010100100000
00000000100010111000111001000101
00000001001101110110000000010101
00000001000101110101011111111011
11111111100100000000111111001010
00000000011010100010110010110100
00000000010101110011101001000010
00000000111010000101110010011010
00000000010111101100111101010110
11111111110010011001101100000010
11111111110110100111010011010110
11111111111101111101111001001100
11111111011101101111111100110110
00000000000010000101111100001111
11111111000110100110101101101010
00000000000011111000010111100100
00000000001101100001011110011100
00000000010110111000001011100111
11111111101010000000011000100111
00000000000000111101101001000100
11111111111010010011100111110001
11111111101011011011010110010001
11111111111100111001100101010010
00000000000000000011101010011001
00000000100111010101100001010000
00000000011100010011110100101000
00000000110001111111001010010100
00000000001110100001001111100011
11111111011001011111001101100001
00000000001000011111000111010101
00000000011111000100011011011110
00000000011011011101110010010111
11111111110001110111110110011100
11111111110111100101100100011100
11111111100011100011111011001110
11111111110100000111110111101010
00000000010010111100011110100010
11111110101101010001010010111100
00000000000111001001101010010100
11111111101001100101001111101100
00000000000100011011000100010111
00000000110010000011100000011100
00000000101010110101011001011000
11111111100011000010101000011101
11111111111010000101110101011010
00000000000000010010011011101001
11111111110111011011100010110101
11111111111010100001100011001110
11111111110001011011110010011111
00000000001001001110100101110111
