11101101100010101000111000111111
11110100000000110001111101001111
11110001010010110100010001001100
11111011010111110001110011100100
11111111101110100100100100100111
11111111100101100101010010010010
11111011110101011110111011100111
11110100110011000100011110100000
11101101000101100010010011000100
11111101101000110110010001111101
11110101100100101111011100010000
11110000101110111011111101101110
11101100100000010100000110010111
11101100101011000111101100010011
11111111000001010100010101010011
11110010110000001111110010010110
11101011110110000110011010001101
11101101100100110010001100100001
11110100011001101011001010100111
11111101111100010100011111100011
11110010001101001011001011001101
11101101101000010001100100111011
11111000101001100101001101011100
11110100001110001001010010000100
11101011100000010101111111010000
