11111011010011001001001100010101
00000000110111010010111001111011
00000000101010000010100011110010
11111010100110011111110010110110
11111011001100001011100101010110
11110010111001110011111000000110
11111010101011001111011001100011
00000101011010001111111000101110
11110110110011010011010011111110
00000101100100010010011011101011
00000011010111111111100110010001
00000010110110001011100010001011
00000110111100001001110110101001
11111000100000001010111000111111
11111110001010110001011110010001
11111001011011110111110100011101
11111101011110000111101000111001
11111100001010010011101001000010
11111100010100110001000011100000
00000010101010011011010110100111
11111000001101011011110101000111
00001010001101000011100011010101
11111000001001010001000000101100
00000100111010110011011010010111
11111000110100111110010111000011
11110110110100010111011010101011
00000001011001100000000000010000
11111110001011001101000000101000
11111101001010101111101001010011
11110011000100101111111010101110
00000001011001101010001101111101
00001000101010000101011000010011
11110111001100101111110101001101
00000001001000011101001100000111
11110010000000111010011000110111
11111100001100101010011101010100
00000000111011010100110001101100
00000000111101010110110011011001
11111100111000111111101010000110
11111111010011011101001011110101
11111001000111100111111001000100
00000100000111111000011010010011
00000010100100011001111000001000
11111111011010101101100111100100
11111100000001011010000101000110
11111010111001110111111111000001
00000000000000111100100010111011
11111000011001100000001010011100
11111101110100011010100010001100
11111110001111100111000001111010
