00000000000110101110100110011011
00000000001000001011110011001110
00000000001111010110100110010111
00000000011100010010101001101000
00000000001110101001110001110011
00000000000010111100011100101100
11111111110000011010111000000010
00000000000011000011111110101100
11111111111011110101000111011110
11111111111101111010001000001001
11111111111001100101001110110101
00000000010110000110100011011000
00000000010110101010011101101010
00000000101110000110010111111010
00000000001010101001001001100111
11111111110110110110000111111010
00000000000001010110011101110010
11111111111011100010001110110100
00000000110001111101001010001111
11111111110010110111101111001011
00000000000001100110101111101010
00000000000001010111010000011100
00000000000001000111000001011101
00000000001010011011100110101011
00000000011010111111110110101000
11111111110011110001011101010111
11111111011010111000011110110011
00000000000111110000101101011000
11111111111100100101010111111000
00000000000110011110000000010011
00000000000101000000011110111100
11111111101001110010110010011010
00000000000101111001101100000100
11111111110001110001111110010010
00000000000101011100101000101010
11111111101010100101101110011001
11111111001111001110110010110001
00000000001111111111010100101001
11111111111000000000100100111010
11111111111010011011100011001101
00000000001101011110000111111000
11111111101011011000111110101111
11111111101110001110010101000000
11111111101100101011101000001011
00000000100010001111111111010111
11111111111111010101110010101011
11111111010011111111110100001010
11111111111010111000011110111001
00000000000110111111111000101110
11111111111111001010001010001101
00000000001000000100111011000000
11111111111111001110100111000011
11111111100010011011111001100001
11111111111111111100000000001010
11111111101110110001000010100000
00000000101111101000111100110001
11111111101100110000010100111001
00000000000111001000000001011001
00000000001010101101111011001001
11111111111001101111010001110010
00000000000100010101010001001101
11111111111100011100101100100101
11111111101101010111000011001011
00000000000000011001011000010011
00000000000111011100001001000100
11111111011100101010100100000011
11111111111000000100101110111000
00000000000000111101111100010110
00000000110001010111100010010001
11111111111110011011111100101111
00000000001000110111100100011101
00000000000110010010010010001110
11111111110010100110000000110111
00000000001101100001010011001101
00000000000111010111101000111110
00000000000101010101100100011001
11111111101010011111000010111010
00000000000100010100111010101001
00000000000100101101000111000110
00000000001001011110000010110000
11111111011100010011110110111010
00000000000111011011001001101011
11111111111100111010001100101000
00000000001010100001001111100110
00000000011001100101010111011001
00000000011010010110101101101100
11111111110001101101101010000110
00000000010100011100100111011001
11111111111010100100011110010101
00000000010101010000011010001001
00000000000100001101111010000100
11111111010010110000001000100111
11111111110011010000101111101010
00000000101001010000110000101011
11111111101100111001110000001110
00000000000011010100100010101001
11111111111001011101001001001110
11111111111110000110001000000011
11111111010111111011011011010011
00000000000001100101010001010011
00000000010101110001100111001111
00000000010011010011000111110101
11111111101110001100110100011010
00000000000010000110000001000000
00000000011000001111100110111010
11111111111001010001000111000101
00000000000101110110011100110100
11111111111111010101101000011110
00000000001110101011000010110101
00000000001011000010100010010101
11111111111011110000101010001110
11111111110010011111001100110001
11111111111010001101100000001101
00000000001011010101011110110010
11111111001111000100010111111111
00000000000000001000000010110001
00000000001011100110011011001101
00000000001101111111000010110010
00000000011011000000110101001111
00000000010000001001000101111111
00000000010101010000000001001011
00000000010111010101110001101010
11111111111000011010111010000111
11111111111101101010011110110001
00000000000000110001100101000111
11111111110111111000011000011010
00000000000001011101110100011100
00000000000001111101110100101110
00000000001100001110100100001011
00000000010010010010110001111100
00000000101010001011111111011010
00000000010000011000111011000000
00000000010110110000100110100000
00000000001111100101101010100000
11111111111100000001000101001101
00000000011010001001101000101100
11111111111000010001111001110011
11111111111000010100001111001000
00000000000100101101101110111101
11111111111010100101001101110010
00000000001010010011110001011011
11111111111000011011000011111100
11111111111000011111101001000010
11111111101101010100001010001011
00000000000111000000001100011001
11111111110111000110001110111101
00000000000110100101000000010011
00000000000111100010011000110001
11111111100110001100000010101111
11111111111100101110110101011001
11111111110100100101110001101001
11111111101011110100110001111111
11111111111111101010110110000010
00000000010111100110010011000011
11111111100110100100101111010011
11111111110100100000000100101111
00000000011100110111001111011010
11111111110100111101101001110010
00000000001000011111110100111111
00000000010001001010010110010110
00000000001111111000100001011100
11111111001100001010001001100011
11111111101110110101111101100011
00000000000100111100000111100011
00000000010000011111110010110110
11111111111000110110000111011001
00000000000001001001100010111001
11111111101010110111111000111101
00000000001000001100001001010100
00000000000001001001111000110010
11111111011100101000000110001011
11111111010110100010010111101111
11111111101100010000101110011101
11111111101001001110111010000101
00000000010010001001100111010110
11111111101101011101011100111000
00000000010010101110101011111110
11111111110010000101101110011000
11111111110111010110010110111010
11111111111000001011001111111000
00000000011001111010011010001110
11111111111111000110011100110010
11111111111110101101000110111110
00000000000010101101010101011001
11111111110110011110001101000010
11111111110110010000111001111010
00000000001001101100101011010011
11111111101101101110001001000100
11111111110111111110011100000000
11111111110110001011011000101011
00000000000111111100111001100001
00000000011110101110100010011101
00000000000011100111001110110011
00000000000110001000101010011001
11111111001111101001011110011101
00000000100101111001100100101010
00000000000011000011010110110001
00000000000110001111101010100000
11111111101110001011101110111010
00000000000010110101101110010011
11111111110001010010010010111010
00000000010100010001011000000001
00000000001011000011010010100000
11111111111011111001111011000011
00000000000000011000110100111101
11111111111000101000110110001111
11111111100110001001001010001011
11111111111111000111001101000001
00000000001011111101001111000101
11111111111110110011101111001111
11111111101111101010010010110010
11111111100000111111010101110100
00000000001000100011011101001010
00000000001101110100001001010101
11111111110001101111100111110111
11111111110000001110010011111101
00000000010101001000000010001110
00000000010001010110110110101011
11111111111111100111111001001000
00000000010101001100100000000001
00000000000010111000001110010001
11111111100101010000110101001110
11111111011101001110001001001111
00000000000001010101101000101011
00000000110010001011111010010010
00000000011110101110000101001101
11111111101010110000101111101010
11111111111000011000000010000001
00000000001111010101110000001100
00000000000110011001001010010001
00000000010100000100001000111010
11111111111100010011101101001001
00000000011101111100001000100001
11111111100100000001000100100011
00000000000100001110111010100011
11111111101001110011010000011101
00000000000010011000010101100111
00000000000101111111111001001110
00000000011110010110111010111010
11111111010110000010100110101110
00000000011010100111011011110010
00000000010000000011101100110000
00000000001101000100111111110011
11111111110111001111000001101101
00000000011100101000110100001110
00000000001110101111010111010100
11111111101001101100110010001011
00000000110001010010100011100100
11111111111110100001000000110000
11111111101011011100001111011001
11111111111111100110101111000100
00000000100001001011000011100000
11111111111110001100100101110110
11111111110100101011010110001010
11111111101100010001011111001101
00000000000111001100000101110011
00000000001111110010010110110010
11111111101110010110111011101110
00000000000010100011110111110011
11111111111101110011100011100001
11111111110111101111011000110000
00000000010011011111011011101111
11111111111001010001100001100100
00000000010011000011001110011100
11111111101111111010101010110110
00000000000110111000111101100001
11111111101110001110111011111101
00000000011111000011001000100001
11111111111101000101010001111010
11111111111100000011101000001111
11111111110110101100100100000011
11111111110100110001010110000110
00000000011110001111010000001111
11111111111010010101000110100100
00000000001101000000011100100110
00000000011101111111101011001010
11111111111000001101100010000000
00000000001100010110010100101110
11111111101101100100111010000010
11111111110000011100101011111110
00000000010110101001001111001000
00000000001110111100110100110010
11111111101111010011110010100011
11111111010111001111100100100100
11111111111001001001010111000001
11111111111101101100110100111101
00000000011000010001001011111000
00000000100011001101001011110101
11111111111000010010011100110111
11111111110001010110100000000110
11111111100010110110010001101101
00000000011010000001110100001111
11111111100101000000100100001110
00000000001010001000010110010101
11111111111010011001111101101000
00000000010110100100000111000101
11111111101101011010101111101010
00000000000001100001000110110101
00000000010111100011100100110101
11111111101100111111010101011000
00000000010000111000001111100101
00000000010110000111111000111111
11111111100000010011110111000110
00000000100000011101010110000101
00000000010010011100011010001110
11111111100100001011100001111001
11111111100101110000100111101010
00000000000100011000110111100001
11111111110111100001001000000011
00000000011110100010111011011111
11111111111110010010111001000110
11111111111101001101101010111100
00000000000000110011010010100010
11111111100001110001100110000001
11111111111010000001111010100111
11111111101110110111001100111010
00000000111001001011100000011010
11111111111011000100001100001000
00000000001000101101000001101101
00000000100000111111110101100110
11111111001100101000001111101010
00000000011010110100101101001011
00000000001010010111111001000100
00000000010000000010000110101011
00000000000001110100001000101100
11111111110001100100101011011111
00000000010000111111000101000001
11111111110010101001100001110100
11111111101101110101011101010110
00000000001100001000110100011111
00000000001010100100110010000100
00000000011100100001100110011000
00000000000011101010110110111101
00000000001111001001100100001110
11111111111011000111111010110110
11111111110111000111110111100011
11111111110010110110100101101110
11111111110010010011011101110111
11111111111101011100111111010111
11111111111110100100000000100101
11111111110000011110111110010111
11111111110111010110000101000111
00000000010000100110001101011011
11111111010111011110101011000111
11111111101101111111111010110011
11111111101101101000100110001100
00000000001010011110011101010110
11111111101011101111011011111111
11111111110110100011111001001010
11111111111000110100100011011001
11111111101101110010011010110101
00000000000000100101110000100001
00000000000110001001101110010111
00000000000100000000011110000111
11111111111001000100111110111111
11111111111011010011000110010111
11111111100111000111110110011101
11111111111011111001001100100011
00000000000001000010111101101011
11111111110011111011000100111100
00000000000111111001000111001111
00000000101101000011000000101110
11111111111110100010011111000100
00000000010000100100011111100011
00000000001011100101111101000010
11111111111101001001001110011101
11111111111111000000010010111010
11111111110001101100111101011001
11111111111000000110000001010001
11111111111011001111011010111010
00000000000010001001000011000111
00000000001011001001011000100010
11111111110010100000110011110100
00000000010100100111101101010011
00000000000011110111000110010010
11111111110001010111010000010100
00000000001010000111101001011110
00000000001001001101111110011101
11111111011111101001000000000010
00000000001001011011110001010101
00000000101101111010100001010010
00000000100001010011100100000011
00000000000011110110011101000110
00000000100110101010000011101011
11111111101110111101100001000000
11111111011100000110001111101100
00000000001000101010100011001010
11111111111010101000000110101111
00000000011001100100011011001111
00000000010111001000101010110010
00000000000001000001111100110110
00000000000110011001001101000001
11111111101000000100101110101010
00000000010100011111010010110010
11111111111100001110100011010111
11111111111100110111100001001101
11111111111110111000000010100110
00000000010011111000101111011010
00000000001110110101010011010001
11111111110111011000100100000000
11111111110111010100000010000010
00000000000100001001001010011001
00000000000101111100011111111110
11111111100000000011100101110011
11111111110100001111011111101101
00000000000001101010010000110011
11111111011111000001110001110010
11111111111010100000110101010110
11111111111000111101101010110001
11111111100000000111111001101101
00000000010000011101110101111101
11111111101000001111101111011111
11111111010110110111011110111101
11111111110001110111010100001111
00000000100001100011000001010001
11111111100111100111001000101111
11111111111110000011000100111001
00000000000100010101001011001010
00000000100001010110101011110001
11111111101011111000000010011101
00000000010100001010111000010011
00000000001011111010110000011001
11111111101010010110001001001001
00000000010100001100101101001000
00000000010001111110011000100001
00000000001011010000111001101101
11111111110011000111001010100101
00000000000001110011110011011010
11111111100111010100011001110000
11111111111000111101101011110010
00000000001000011111001110011001
11111111101111011011101000010111
11111111111000011111111011001100
00000000000001101001110011100010
11111111111111111101010101000000
00000000001010101111100111010011
00000000000110110010100000101010
00000000000001111001111001001111
00000000010100100101010111011110
11111111101110100011111000111100
11111111110000110100001000001100
00000000000000101011001110001011
00000000000110110100001001011010
11111111111000100101101001101011
11111111111001010101000111101100
11111111110100001111111111001011
11111111111011000000010101000101
11111111111111100001111111100010
11111111111000101000110011001001
00000000001011111101001011001111
00000000000001101100100110001110
11111111111100010100001100110111
11111111110001011100110011100001
11111111111000111001101111101000
00000000000110001100010110110001
00000000000010011110110011111011
00000000010110101010101100010101
00000000000010100010100110111000
11111111110110101000111011010111
11111111110101100101111010011100
00000000001001100110001011011110
00000000001011011000101100011101
11111111111011101011111101000010
11111111100000101110000011101011
11111111111110111010111100110000
11111111101111100001100101000011
00000000011101100000001000001101
11111111110111111011010111100111
11111111111100011001000000100111
11111111111100000000101010010010
11111111110001111110111100010010
00000000100001011010001011010001
00000000010011110010001110010110
00000000000010000000100111100111
11111111100110001001000011010010
11111111111010101001110101101010
11111111110110011001001010101110
11111111101101001010001101010101
00000000000001011100011111000101
11111111110101110101110010111010
00000000000111010000000101110000
11111111101111111001010100000111
00000000000000000011101000010111
00000000000100011111011000010110
11111111111010010011111010111110
11111111110010000011000000110001
00000000001000101101010010110011
11111111111100000100100011100111
00000000010010011000101111111000
00000000100011011110010000010101
11111111110011100011011010000000
00000000100011000000001011010101
11111111011011110001001011011000
00000000001011111001000111001001
11111111110111001101001110111111
11111111110100001111100010110111
00000000000001000011000100000001
00000000010111100010101111110010
00000000001101110110001101001011
00000000000000101101111010110011
11111111111011101111001101110011
00000000101100000110110111100010
11111111011111000011010011011101
11111111111101110111001011100011
11111111111001110101111000000110
11111111110001101111011111111100
11111111100110001010010100010100
00000000001010011111010101011000
11111111111101010000000011101001
11111111110100110111010001111101
11111111101010000110000000111110
00000000001111001000011101110110
00000000001001110000100010100010
11111111111011000000010101111010
11111111110000011111011010010101
11111111011010111100110101111000
00000000001011011010000011100000
00000000001000100001011110100000
00000000010111001111001111010011
11111111101111011010011100000111
00000000001011100110101000001011
11111111111011010110101001000011
00000000000001101000110001111100
11111111110101111111111100001011
11111111000111011100101110011000
00000000010010010011110010000010
11111111100001100101111110001000
00000000000110001001011101111110
00000000001010001011101110011101
00000000010000010001101001000001
00000000001011010100111001101110
11111111110110111000000000011110
00000000000010101011001010011011
00000000001100101100101000000110
11111111111001100101011010111111
00000000100000010100011011101101
00000000011110000100001101110110
11111111111000110001000110001000
00000000000000111010000010011111
11111111111100110010100000001001
00000000100001110001011100100101
11111111110100010110110001100000
00000000100010111011101011110110
00000000010111101100100100111011
11111111110010010101011000001010
00000000001111100000111101000010
00000000011001011110111011111100
11111111101000000001001000100001
00000000101110110001010000110111
11111111111001111011001100001000
11111111110010000111101100001000
11111111111000001100011001101111
11111111110001001101100000100100
11111111111110001001110101001101
11111111101100000111101000010000
11111111110011101111001010001111
11111111111111010100101111010011
00000000100000101001111011111111
11111111010011100110100100100101
11111111011111111000000011010000
00000000001101001100110100100001
00000000011100011100100001011011
11111111100100100101111110011111
00000000101101100000010100111001
00000000000010001000000100000111
11111111100111101001100000111111
00000000000100100010100000011100
11111111110100100011111101001110
11111111110000101001001011100100
11111111011110101100010100101001
00000000001001001011100101011010
11111111111010111100100001010001
11111111101001111101110101010010
11111111010001011010101010001101
00000000000001101011011011101101
11111111110000011000010100000110
11111111111110010110110100011111
00000000001000011100000001101010
00000000001001001011100101000110
00000000001111000111111111100110
00000000001001100000101001011010
00000000000001011100001110010001
00000000001110111100101110101100
00000000100011011100010000011000
00000000001111111011110111011011
11111111111110010101000110000101
11111111111111010010100000010101
00000000000011000101011011000100
00000000000010010001001011101001
11111111101011001000001110011111
11111111100100011000010011100000
00000000000111111100001010010001
00000000010001111111100101110110
11111111110111000011010110010101
11111111101100001011111100111101
00000000000110011011011101100110
11111111110001001000101001011010
11111111110111000100010000011001
00000000011100011101101111101000
11111111101001101001100111001010
00000000010101011010001010100010
00000000011100101111100100000100
00000000000000001110000110100000
11111111111000000111100001000001
11111111110110000101110001110001
00000000010000010000000101011001
00000000100000000101010101110001
11111111101011100101101101011001
11111111011111100011111100100101
11111111100011000010000010010010
00000000010110110001000110001010
00000000000100000101100010100110
11111111110000010100011010100110
11111111110100100110010000011110
11111111101001101000110000000011
11111111111101010000001100111000
00000000010101110111011111011111
00000000010011101110110000100100
00000000100011011101100111100000
00000000000000111101001010100010
11111111101111010100010100111001
00000000011001011000001001101000
11111111110111110110111001111010
00000000001011111101010101110011
11111111111101011111010110010001
00000000011010111010010100100101
00000000000111010011000001010010
11111111011111111101100011100101
00000000000000111000001110010110
00000000001001101011000100101100
00000000010010100101001010011011
11111111101000110100010011100001
00000000010111001101010101011110
00000000000101011001010110100101
00000000001001101111111000100101
00000000011000101101000100110000
00000000001010010110111001001110
00000000010000111111101101011000
11111111101001110001010010010111
00000000000010110011101010010100
11111111110111100110100001000000
00000000001010100101101000000101
11111111111101010101110110000001
00000000001010110010111101000011
11111111111010010110101101010111
00000000000010010101100111001111
11111111111000001001111000000101
00000000000001011001011011010011
00000000000111011110011100110110
00000000000110100111001101111110
00000000001000110001110011011011
00000000001000010001110101101100
00000000000100010001001000111011
00000000011101100010001100111101
00000000000011101011111100101001
11111111100110010011001001111010
11111111100010110111001110010111
11111111101000100000111110000101
00000000001101000000110011010000
00000000000000100000011000100000
00000000001001110110001000010011
11111111001111001111010100001000
11111111110101101100111011001010
00000000011100011010110010011001
11111111111000101000101100011001
00000000000000110000111011100101
00000000001000001000010010000111
00000000000010110000010011100110
00000000000010100110110001101001
00000000100110100001001000001110
11111111111000000101111110001111
11111111110010010011001000010011
11111111111100100010100110010111
11111111111110010110001101000000
00000000000011011010001010100000
00000000010101100101111001001110
11111111110010000001111011001111
00000000001111101010110110100111
11111111101100011110100101000110
11111111110111001101010000101011
00000000001000010010110001001110
11111111101110011000011000010010
00000000001100011111100100011001
11111111111110010011011101001001
00000000001000011100111101000110
11111111110011011011111101011010
11111111101101011011011001110011
11111111100100110010101110011010
00000000000010100000001000111111
11111111110011001101111000010000
00000000010101100111101000111000
11111111101010010110111011101101
11111111101110011101111101100111
00000000000011100011110001100011
11111111101111000111001101100011
11111111111100010100000100001000
11111111111101011110010101100100
11111111111111000001111011011001
00000000001100110100100000100001
11111111100100110100011110000110
00000000000011010101100000111101
11111111100001100101110010010111
11111111110101110000010110101101
00000000010110010001010000100101
00000000001010010111000001111100
00000000010010010001110011010111
00000000001010101011111000110001
11111111101100101000001001100110
00000000011011001100010010010000
11111111111011011000100110000111
11111111110011000110110100100000
00000000001101111000011111100010
11111111110011001101101000110101
00000000000100100111100111110100
11111111111111111001011001011111
11111111100101110000011000001111
11111111100011001110000100010110
11111111111111111110110000100110
00000000010110011110000001010001
00000000000011110000000111000001
11111111111010101000001010011111
00000000000000001011111111011001
00000000101111110111101111010000
00000000000101011101010011101110
00000000011000111110011000001101
11111111111000101110100110110010
00000000000110101111011010001000
00000000010101101111101101001111
00000000000000000000111001110010
00000000000011001100101110011100
00000000011010101000001100101011
11111111110011101010001010111011
11111111101101000011111011010001
11111111111110000100101110010110
11111111111110010010011011001001
11111111111011111000101110101100
11111111110101011110100101010100
00000000000101110101011110010000
11111111100111000111111001101100
00000000000010110101011011101101
11111111100110100100111000010011
00000000111000010110000100110111
00000000100010011001000010000101
11111111111101011100001100100010
00000000000011010010000010010011
11111111111011110100110000010110
00000000000001100110110011010000
11111111010010110110001101111111
11111111110010001011010001100100
11111111111111010011101100000110
11111111101101010001010100011011
11111111110110101110111000111011
11111111111001110001011010010100
00000000000101000011010011100001
11111111110000100110001000010001
00000000010001001100001011111000
00000000010000001010011110000100
11111111100101000101111100011010
11111111111111110011001010011101
11111111110101100111100010110111
11111111110111001011011101111100
11111111001101100100100011100010
11111111101110011100010011000000
11111111100011111110101100000110
11111111110000101011100100001000
11111111111000000011111110100110
11111111111101110010000000011011
00000000001010101010000000000001
11111111111110101001001001110100
11111111101111110010010001100100
00000000000101000110101101100110
00000000000101100010001011100100
11111111110000000111001001110000
00000000001110111111000001001111
00000000001110100111100000100101
11111111001110111010000111110111
11111111111111110011101100010101
11111111111110010001110110011010
11111111100011001101101100101011
00000000000011000101010110110001
00000000000010111000001100110100
11111111111110111000100111001111
00000000001110111011100011011010
11111111110110101111110110000101
