00000000110000001101101101010010
11111111001010010111110111001101
11111111101101010101100111010111
00000000010000111000010100010110
11111111100110110111001111010010
00000000101000001000100001010110
00000001000001110000111111100100
11111111010110100111011110001011
11111111011011011111000000100000
00000000000001011101100100001000
00000000010100000110100011000101
00000000000100111000010000000110
00000001110010101100000110101100
00000000000000110011110100111010
00000000000111111100001011011000
00000000000011000101101101110110
11111110110111010011111001101001
00000000001111100001111011111100
00000001010000111100001001111101
00000000101010001100100101110100
11111111101101100111111100100110
11111111010101101010001001000001
00000000000100001011011101011101
00000000100011010000001111001010
00000000111011111100000010111100
11111111111100110100010111001010
11111111110111011110010011010000
00000000000010011000110000011110
11111111110101101111000101010001
11111111010110101001110101111001
00000000100000000000100000100111
00000000100000010111101001110001
00000000010110101010110010000001
11111111100100011001011001000100
11111110001110111000110100101110
11111111110101001110111010010100
11111111001001111101010111010000
00000000011111101010111011000101
00000000000100010111001001100110
00000000100000000110111101100100
00000001010110110101010111111011
11111111111100100001000001011001
00000000010001111011100100110001
00000001000001010010011010111010
00000000111010100100111111101000
11111111001101100100000110101011
00000000000001110100111111000100
00000000001110000101111111101111
11111110010111001000101001011101
00000000110100111000111100011001
11111111110110000000110010111010
00000000110101110000000100001010
11111111010110000101100011001011
11111111010110010101110101011000
00000000110000110111100101101010
00000001010110011000010011111110
11111111111111011101010111110111
11111111110111001110111111110001
00000000001001000001001001001110
00000000011010001001001111011010
11111111001110111101100000110000
00000000111111111001000110100010
00000000101110000001101100111001
00000000001001110101010101001111
11111111001000000001010111000111
11111111110110010011100001111010
00000000011100101011001100001011
11111111011000011001001011001001
00000000110110010000001010011111
11111111000000010011111001001111
11111111000001111011010000101010
11111111000011000011010101101000
00000001001101010100001111001110
00000001010011101011110000011111
11111111011010010011011111011110
11111111011001101111111010110101
11111111111101000010110011010110
00000001001101100000101000001110
11111111101111010011100000100001
11111111111110001001100100001100
11111111111010100000011111000010
11111111000101010100000001101011
11111111110101110000111101000110
00000000010000011111010001010100
11111111011000001011011101001100
11111110111011100110001011001000
11111111110010110111110110000010
11111111100011111000000100110101
11111111000011000000011111011110
11111111000011001001110110101001
11111111111001011100101000100110
00000001001100110101101000000010
00000000001101011010100010010101
11111111101110010110101111010101
11111111011110101100010010101111
11111111000010001001110110011001
00000000011101011110011100000010
11111111010101000100000000101100
11111111011100101101000101101010
00000001001110111100110000011000
00000000011111011001101010000001
11111111111010111111000101110000
11111111100100100101101001011111
00000000010100011011010010001110
11111111101010110000100110010111
11111111010011100010110000111011
11111111101110001101100001101110
00000001000110000011011000010111
11111110101000011010100010011101
11111111011101101100000000101011
00000000001010101101100100111100
11111111111101001111111100011100
00000001100110111100000010000110
00000000001000111011111100000101
11111111111100000000000000100011
11111110111000010010111011111011
00000000001001100000011010000100
00000000001110010010110100001100
11111111011011000010100001011101
11111111101101101100001010011100
