00000111011011001100110100010000
00000100010011101111101000110110
00000011111100011001101010010000
00000101011100101110000100010011
00000101101010011011000101111101
00001001011101101000001101000011
00001000100110101001011110101100
00001001110101100100111110111110
00000100101101000001010100101010
00000110111100101001000110110011
00001011101011100110100010001010
00000101111001100001111010100010
00000101000011000011100101111111
00000110111111100010100111100101
00000101110000000010001001011111
00001000010100001001011111101000
00000110010110101001011100010110
00001000011100110000010101110110
00000110011001100000100100101011
00001000110011001111111010110010
00000110000010101101100000010100
00000100011110011101101000100100
00000011110111101011111001000011
00000101101011001101110101100110
00000110011111100111000000011010
00001100000010111110001001101110
00001100011110100110000010011000
00000110010100101000010101101100
00000101110011011001001000001111
00000101011101101000101000111011
00000101011101111011000110011000
00000111010011011100101111000111
11111111110001111111011101010001
00001000000010001111001000010000
00001001011001001110000110111000
00000110010101000010010000101111
00000011001010001000011010000101
00000101101101101111000101110010
00001010111101011010100110000100
00001010111101111110000001110111
