11111111111111111011011111011100
00000000000000100011101010011101
00000000000000100111100010010100
11111111111111100001010111011110
11111111111110110010111110111001
11111111111111010111101010000011
11111111111111100000000000110111
11111111111111010101010110111010
11111111111111011000110000101011
00000000000000001011010111101111
11111111111111011101001010101100
11111111111111010101001010011011
00000000000000100001101001101101
00000000000000010010100111111011
11111111111111100010010101111011
