11011111001100011101001100110010
01110110110110100000000000011010
11110001010001010110100011010000
00010100001101100011110111111110
01111111011010010100111011111001
01010010110101100110111111100111
00110101100011100000101100011111
10100011001101111000100001111010
00001101001110000101010101100000
11101011111010000000111100001010
00000000100001101100100001001100
10011001111101001101100101001010
10110010011101010111001011101011
11100011011110010001011011010111
00110001100011110111001000010111
11110000001010101010110111101011
10111010011100111100011110110010
11010000001011010101100011101111
00100011111111111111011110001010
11100001110100111001010101111010
