11111111101111000111001110000001
11110101010011001001111011101101
11111010101100001111001001100101
11111011111100010010010000101010
11100000100010001001000011010100
00000001111100000111101001011100
00000100110010010010110111110100
11011000100100011000101100100101
00001000101101101101001001111110
00000010101110011011011110011110
00001010111000101010100011110111
11101011001111100111100011011000
00000011001110010010000010001111
00000100000011001001011111011101
11111111011010111100001000110110
00100100011011001111011110000110
11100101100101000110010101011100
11011001111010101110111110100010
00000010100100010010111101100100
00010101011000010000110110000101
00000100111100000010101001111001
11101011111111100000111100001100
11110011110001010101011100001110
00010100001011110100001000010000
11111111110101100101100010000100
11111111111101100011011010110101
00001011000111111001101101111010
11110000010110011000100110111111
11110111111011010111010111111010
00101000101100010010011011111100
00100011111100110010101110110000
00011001110101011001010110111111
00100000010111110110000001011001
01000110010001001000000010001000
11100001110010111010100110000101
00001111010101111100110100101111
00011101000111111000010001110010
00001100100101110101100001111011
00001010001101011110001001001111
00000001110100111001010111011001
