11101010010101101100000111010111
00001000111011000110101011111100
00001011001001111101100110110001
00010000111100000111010000111110
00000101010100010101101000101100
11111000100110000010101100001001
00101100010001101011001010101110
00101101011110110001001111011010
11011001001000001111010100111000
00000011110000011011110001001101
11110011001101000110100100100011
11110011001000110110100101000000
11110110001000001111101001011110
00011000111100111110101010100111
11111100111011001000000000000101
00000001000011110010100010101010
11110000110111000101100110000100
11011000111000100000001110110011
11110010011000110110000110110011
11110010000010010011111001110100
00001100111010001110011010010100
00101110011101100111100111000010
11101101000101110110101110010111
11111000001110100001000100101110
00001010010010001000000001011101
11101101101000001110011100100111
00001011110110111111111110011110
11111110101110100001001001010101
11101101000100100011001010000001
00001110101001110111001001101110
00000101000001001001001001101101
11110111010110000110011101000110
00001110100101110101110010010000
11000111001000001001100000000101
11100100010010001000110000110110
00011000100100011101001010001101
00000101000100100000110010101010
00000001000001000101110001000010
11111000110011100011001000110100
00001110011110000010100010001110
