00000000000100101101000110010101
00000000000101111001001100101010
00000000001011010010010000110110
11111111110011110010111110011001
11111111101100011011110001100100
11111111110010000011110011010101
11111111100111111110001100101011
00000000000011111010110000110100
11111111110100111010101100100111
00000000000101010000100010000000
00000000000001011101010101011101
11111111110110011000000000111011
11111111101010111110110111000000
00000000001010100111110010001110
11111111101110000100001100010011
11111111101111110001100110111101
11111111011111101010101101011111
11111111111100010011101100100011
00000000000110100110010001011101
11111111110111000000110000001110
11111111111000110111111001001110
00000000010001101000101010010110
11111111110010001001100101001001
00000000010010000101110011010101
00000000010000111010100001011010
00000000001101010000100001001001
00000000001100110110110101110000
11111111100100110001010111111000
11111111110011010100011100110010
11111111101111011001110100110011
00000000011111101010000111010101
11111111111110111100000001011110
00000000001010010000101101100011
00000000001111000100011100011101
00000000001110010001001000111010
00000000001001000100111111000001
11111111110111110100000000100010
00000000000011110011010010111110
00000000001111000111111010000000
11111111111011011011000011100000
00000000001111111000001001101001
00000000000001010110000110100011
11111111011110000011101110100110
00000000000101100010000000110000
00000000011100100000011100001101
00000000010010010011001111011110
00000000000110100110001011001011
00000001000010111001101110010111
11111111101001111110011001001001
00000000010001100000000000111101
11111111100010010101111100100110
11111111111100100110110100110111
11111111111011110100001101110101
11111111100110011111110001011101
00000000000100001100110100010010
00000000000100000000000000111011
00000000010000010110010100011110
00000000100001101011000111110111
00000000010101011110001111011101
11111111111111101000101000011011
11111111111011100010011011111110
11111111110110010110011000101001
11111111101111101100000010011001
00000000001001001001101110101001
11111111100110111110100101110001
11111111101000110011000010110010
11111111101100101110110010100111
11111111101100111000101111010111
11111111100100010111000011110010
11111111011111011001101011010010
11111111111010110010111101011010
11111111111100001011010001111001
00000000000101010010000010110100
11111111100111110011000110110011
11111111110111101010100100011000
00000000001101001111111111110001
11111111110101111110100011101010
00000000001011010010010110111010
11111111111000101000010110001111
00000000001000011001001001001101
11111111111011001101110101011100
11111111111000000000011111000110
00000000000110101010011010000000
00000000000011111110010111010001
00000000100011000101010010110100
11111111111011110000100000001000
00000000000100110110001001001010
11111111100111110010111010010000
00000000100101110100100111101000
11111111111100011011100100000100
00000000000100101100010001001110
00000000000000010101111111111010
11111111111001010101011010010101
11111111110000100011011010000110
00000000010001100101000010110000
11111111111100010111101111011001
00000000001011000011011000110001
11111111111011101111000101110101
00000000001010110110100010111000
11111111111001110001111111001011
11111111111100010000011110111011
11111111100011110111001010011001
11111111111101100001000110010010
00000000000011111011110111100110
11111111100111111010000101010110
00000000011101110010100001111001
00000000101010010101011100010001
11111111110011001001110110011100
11111111110111010001011101110000
00000000011100100111011001010010
00000000000101101010110000110110
11111111110101110111101110100111
11111111110110000000010011000010
11111111111110000110000111010001
00000000000001100111110000000000
00000000000100011111000010000101
11111111111111010001000101100011
11111111110011001010100001001010
11111111011011111001010101010101
00000000001100011001000001100100
11111111111100000001100001001010
00000000011011101010000110000011
11111111100101011001111011010000
00000000010110001010100111111000
00000000011111000101110101001100
00000000000101111110101001110001
00000000000111010001011001101000
00000000010110111010001010010001
00000000001101101011010111110100
00000000001000000000100000101000
00000000000101000110010100000011
11111111100000101110010011010101
11111111110101010100001111010000
00000000000011010111110111100110
00000000011110000110000101110000
11111111100101000100011101100011
11111111100111000010000001001010
00000000000010000001111101011001
00000000101110010011100110111011
00000000001011101001001101110101
11111111110101011111011000001000
11111111110000011101111001111111
11111111101010010110011011100010
00000000001000000111010010001011
00000000010111000100001011110000
00000000011110101000001011011110
11111111110101110100000001101011
00000000001100010101001001010100
11111111110111100001000111001110
00000000001001011100110100010100
00000000000001010100100000001111
11111111111100011100001111100000
11111111111011001110000111111110
00000000000100011010001111001011
00000000010101000011111010111010
00000000010110100101011110010000
00000000101010001011110110101011
11111111111100110101010101100110
00000000101010010100011110011011
11111111111011010100011001100011
11111111111000001100100100010101
11111111111110001001011010110110
00000000001011011110111100001011
11111111110110010001111110101110
00000000100111011110110100011011
11111111100110000000100001000010
00000000011001101011000001000001
00000000100001010001001111000101
11111111101010100010010010010011
00000000000110011101110001101100
00000000011001000101000111000111
11111111111011111111001000100110
11111111110110001101100011010001
00000000010101010110010110010010
00000000000010110101110011101000
00000000010000001110101010000101
00000000100110100110000100101101
00000000011101011010010010111001
00000000001101001101010000110101
00000000111010100111011000001101
00000000010001111000110010011010
00000000011101111000000010111101
00000000011000111001011000000111
00000000110000110011111000111111
00000000010101100100001011111111
00000000001111011010000001101101
00000000011000010001011011000001
00000000001001010111001111011111
00000000000010110110001000001111
00000000001011011010101010010011
11111111101100010011001110000101
00000000001111011010001111010111
00000000000011000110100110110111
11111111111011010110110101110000
11111111010101011011000010111010
11111111111000100011100100010000
00000000000100100011011011100100
11111111111001011101001100100010
11111111110100101101000010110100
11111111110101000101111001100110
11111111111000001011100100000101
11111111110110100001001011000110
00000000010000000110110110101000
11111111110111110110011000101111
11111111111111100011110101101111
00000000011000010001100000001110
00000000001011111100101011010001
00000000010101000001110111001001
00000000000111111111111100010110
00000000010011001110011011101001
00000000100000110111101100101101
00000000100110011100101000100011
00000001001100010110110110010010
00000000010011111000000101100110
00000000000111111100110101000100
00000000010011000100101111100101
00000000011001001101000101001100
00000000100101111000100000001000
00000000010100001111010110101000
00000000100100011111010100100110
00000000000111000000010001110010
11111111110100111101010110111010
00000000001001010100100101110011
00000000011001010111111010000100
00000000000101010001100101110001
11111111111011010111010001100110
11111111101001111100010001000001
11111111110100101110101011010001
00000000000100111101111110100100
00000000000110000001011111111011
00000000001011100111010000001001
11111111110111011010110111001001
00000000000100111000000111101110
00000000001110010000101000101100
00000000000000000100110010101011
11111111111000011111111110001110
00000000010000011100100010000000
00000000001010010010001010100101
00000001001001110111100100011001
00000000100100111000000111111001
11111111111010111001000111111010
11111111101100011100110101111001
00000000000011110011110111100111
11111111111010010000100101011001
00000000011011110100001101000111
00000000010001011101100111111000
00000000011010010000010101101000
00000000010000110101010000101010
00000000000101100010010111101111
11111111110100110010100010010111
00000000001000011111111110010001
11111111110101111000111001011110
00000000000000100010110101100100
11111111111010010100010101010011
00000000001001010000010111010001
00000000001001101010010001001000
11111111111101101000011010010011
11111111110100011011110100000100
11111111111100111101000010010111
00000000001001100111001010100011
00000000010100010111110111001101
00000000000111101001111111100111
00000000001010100011100011111000
11111111111011100000001111100000
00000000011111000111100100110001
00000000101100100111111000100110
00000000010000111111010100000010
00000000001101000011000001011011
00000000010000111100011010110100
11111111111010111000110110000010
00000000110100100101011100100100
11111111101101111000000101100010
11111111111010111100111110000010
11111111111001101101100111110100
00000000100110111000011111101100
00000000010011000011110011101111
11111111100010110101010101100000
00000000010111010011101111000111
11111111110001100100010110011001
11111111101110011000110111101101
00000000001100000010001110000111
11111111111110110111101110100101
00000000000110001110010000100111
00000000000001010001110010111001
11111111100001010011011101111000
11111111101110111111110001101100
11111111110010101001101100010001
11111111101110100111110000001011
00000000001010100000100101010001
00000000000111010000011010101001
00000000000001110111001101101011
00000000011010100010100111101100
00000000101001110011000011000011
11111111110010101100001111000110
11111111101011010111010001101100
00000000000100110001111010000000
11111111101001001111011011100101
11111111110100101110011101101110
00000000010110011101101101001000
11111111100000111110010111010101
00000000101111011000110111101011
00000000010101000111111000001000
00000000000001001110101100110001
00000000010010001111010001011001
00000000010011110110101011101000
11111111101100101100011100100101
00000000010010100001001000111000
00000000001001000010010110101101
00000000010100000001001100010011
11111111111010001000101001010110
00000000000010111101001111111111
11111111111110011100000111110011
11111111111100110010111100110101
00000000001101111111001101000110
11111111101101010111000110011010
00000000010100000001000001110111
00000000010101100110101100001111
00000000001101010110111001010001
00000000000010101101001110000110
00000000001000000010010011011001
00000000100100001011000101011110
00000000010100001001001000111111
00000000010111111011000110111101
00000000000110011001011010110010
00000000000110010000111000111010
00000000011100000100011111011001
00000000011110000111000111001111
00000000000000100010001111111011
11111111111111100101110110100101
11111111111000101101010111001000
00000000001011111101110010000110
11111111110110001111101110111011
00000000001111110000011110100001
11111111110101011110001010101110
00000000000111111010110110110001
11111111100101011101110000001000
11111111110001001011001010100111
11111111110000011101000111100000
11111111101100100100011010111011
00000000000000100010010100000101
00000000010111100110011000100100
00000000010110001010001011111100
11111111111000001101110111001111
11111111010011010000101000000001
00000000100010100001000111010011
00000000011111110101011010010010
00000000000010011100010001010000
00000000001111100101010001011011
00000000110001111011010101111111
00000000001001001010100010000111
00000000000110001011100001110111
00000000010011010100011010100101
00000001000011101011100110101010
00000000010110010111110000110011
00000000100001110111000111101100
00000000010110011110001101001011
00000000000101110100011101100100
00000000010111010100001101111111
11111111011001000000110110111011
11111111111110011111001110110111
11111110101101111001010000110101
11111111111010001100101011100001
00000000011001011100000011101001
00000000011100111111110010000011
11111111111101001111101011000111
00000000010100010110000010100101
11111111110101010111110011111011
11111111101000100010110010110011
11111111110111111000110001100100
11111111110101011010011010110101
00000000001101100110001110101011
11111111110111001101101100101110
11111111111100100110110101110001
00000000001011011010111001000001
00000000011010010011100100101001
11111111111000100000001000110001
00000000000001101011000110001101
00000000010101111110010100001011
00000000110110110101101101000001
00000000000011110101010001001101
00000000011100110011100101001011
00000001000010011010110110011001
00000000011010010111101010100011
00000000001011010011100010001011
11111111111011110111001000100011
11111111111110010100111001111001
00000000010110001101001001100110
00000000010000100111110110100110
11111111110000001111101001001000
11111111111110001010110101001001
00000000010000111100000111011101
00000000000101111110001010110101
00000000010110101111111110001101
00000000000000101110111111101110
00000000001110011101100001110001
11111111111010000101001001010101
11111111011100110100111110101001
00000000000011001100011111111111
00000000010101011110111111101110
00000000000011101010011001000001
00000000001100011001110111110010
00000000001000010001110010010111
00000000000011011011111100100110
11111111110001110001110111100110
00000000001101101000001100001100
00000000011010001001010100110001
00000000001111010010101000100010
00000000011101110011110001100111
11111111011110100011100110011100
00000000010100001011001010101011
11111111110010001000000000100110
00000000001100011101010011101100
00000000001001101011111111111110
00000000011101011011111001010110
00000000001000001101011010001110
00000000001101100001110010100111
00000000000111001110001011100101
11111111110001100101111110000101
11111111100000000110111010010111
11111111110100100010101101011111
11111111101001100001000010111011
00000000000101010000010011000100
11111111110001101000010111101100
11111111111110100100101010111110
00000000000111010010011000101010
11111111110011101011010001101010
00000000000101011111101001000001
11111111101011111010000001011010
00000000101101110100111000110110
00000000000100100111110011101001
00000000011000011100010110110001
00000000101100110010110110001011
00000000100000101101010011101000
00000000010011100000000110010001
00000000011111110110110010001001
00000000110000001101100000110101
11111111011101011101011100011100
11111111001110000111001110010011
00000000001100010100000001000100
00000000100011110010011010101011
11111111110001110000100100000001
00000000010011011001011001110011
00000000001011111001101001010100
11111111110100001011111101110011
11111111110000010010110000110000
11111111110001000011001011010101
00000000010001010100101010100110
11111111101001010100101111001011
00000000100010100100000011010001
11111111101100110111101011000100
00000000001010001011110001100111
11111111110010010110101010001010
00000000010000000101101100011110
11111111111111010000100101000011
00000000000110101011011110110101
00000000011111110100010011110001
00000000010101100011110101100001
11111111110111111101111001100011
00000000011111010111111110001010
11111111110011010100010101110111
00000000010011011111101100011000
00000000100011110011010011101011
11111111101100101000101110101101
00000000011101100011100010000110
00000000101001001011000001100100
00000000011100101110010101000010
00000000001111011100101011010100
11111111111001100001010100101111
00000000010001000010011011010001
00000000001100101000011111100111
00000000000001100111101001011101
11111111110011100011010110000001
11111111101110110101101001010001
11111111110001100111111110001101
00000000000010000111111000101110
00000000010010001011010001111101
11111111110000110010000101011011
11111111111101000100001101110111
11111111101111101010000011110111
00000000001101100110000101010000
00000000001101100100000111111111
00000000001110101110000001010001
11111111110110001010011111000100
11111111110100110001010100001110
11111111101110110010110110000100
00000000000101101100011110010111
11111111111010110101110110010010
00000000010000100000011101110010
00000000001100110111010101010000
00000000011001010110010001000000
00000000001000010100000111110010
00000000010110001010101101101001
00000000001101000100100011011001
00000000010011000011111011001101
00000000100100011000101000000111
00000000000111101010100111110100
00000000011000010000001100110111
00000000001101001101111010111111
00000000000101010001010001110100
11111111111111100010001111011000
00000000001100111101110000010001
00000000001110011011000101110111
11111111110000110111101110001001
00000000010001111001101101001000
00000000001001111101000110111001
11111111100111001011000100110100
00000000010111011000111011000101
00000000001010000001011001001011
11111111100100100111000100110101
00000000001100001001100000111011
00000000011000111000100010001000
00000000000001101100011100100000
00000000001100010110001000111100
00000000010110110100010011000100
00000000001011000010011110010000
11111111111011000111011100001000
11111111101111100110001000010011
00000000001000010011000111000010
11111111111001010001111001111000
00000000010010110011000000000010
00000000011111101010000011000101
00000000000010101000001001110010
00000000001101000010110010001111
00000000011000000111001001111100
00000000101100011010101110110111
00000000001110101001011111010011
11111111110001001010100101101111
11111111110110101110010000101111
11111111011110110101101010010010
00000000100001100010011001111011
11111111111010001110000001011000
11111111110110101010110110110011
11111111111000000011101000000001
00000000000000111100111100010001
11111111111110110100100011010010
11111111100101011101001010000110
00000000000111001001111001011000
00000000001110010010010010100011
00000000001111000011101100111111
00000000001011110001011101100001
11111111110000111000000110101001
00000000001000000110011101000111
11111111101100011010001100011100
00000000101111100010011010001001
00000000001010100101011101110011
00000000001000000100110001010110
00000000010000110001001011011010
00000000001010111100000010111000
00000000100010010111101011000011
00000000001111000010001001011100
00000000001101101110111010111110
00000000010111011000101100100001
00000000010010111110010111100010
11111111110101101110011010111000
00000000001010101101101011001110
00000000001010101010100011100001
11111111111010111101001101001110
11111111111111000000011010101110
11111111010111110100111101110010
11111111111010101001101101001011
11111111110101110100000111100010
00000000000000101000010001001111
00000000000110100100000010110110
11111111101111101111001000000110
00000000001110100110100111110111
00000000000101010011101000011100
00000000001010001111110100110101
00000000000010100111001100101110
00000000000100001010011110000101
11111111111000111110100011010110
00000000100100011110111111100111
11111111110011010001101011101000
00000000100000111101101111011100
00000000100000011010001000001100
00000000100101101011100101110011
00000000011111100010110111000010
00000000100010010011100010001000
00000000001111101100001011011001
00000000001100000000101000011001
00000000101110100000111001010110
00000000000001100011000000101100
11111111100001101101001101000011
00000000100001111001111000001111
00000000000100110111011110100000
11111111111001000101110011011110
00000000010100011001111001110010
11111111111101101111100111100110
00000000000000101101101101101101
11111111110001000010001011001111
11111111010101000111100010000001
00000000010000011000011011000011
00000000001010101010000111011110
00000000011000001100110101110100
11111111110101000110110001001010
00000000011111010001110011001100
00000000010001001100101111101010
11111111110011010110001011011100
00000000101101110011100111001010
00000000010010001011010000000000
11111111111001010100101010110010
00000000101100001110001110001010
00000000100011100111011000101111
00000000000110101011001011110001
00000000100000100111011011100100
00000000011100000101100001010010
00000000010000110101011001001011
11111111101000010000010100000000
00000000010011000000001001101010
11111111110111011001110010011110
00000000010111111111111010100111
11111111101011011011111010101111
00000000010010101111111110100100
00000000001101110100100100010101
00000000000001011001111110001100
00000000001000110110100110101011
00000000010001000100000000101001
11111111111110010101011101111111
11111111110011110100000010000011
00000000000101010000100101011001
11111111101100110010101001100011
00000000010000010000100010101111
00000000011111100010101010101001
11111111111000000011100010000101
11111111110100110100010110011111
11111111111001111110010001000001
00000000011111011011101010100011
00000000010111000100110000100100
11111111101010000001000001110001
00000000001100111110010100000011
00000000000111000110000010001111
00000000101001001001111110010001
00000000101000000000111011001001
00000000110111011000001110101010
00000000010110010110111101001111
00000000011000100101100000111010
00000000010010111010001101101110
00000000101110000101100000110100
00000000001011100110000010110110
00000000001010001001101101010101
11111111111011101011110110101101
11111111110111010101100001001010
00000000011010110001011000100001
11111111111110101010100001001000
11111111111001101100001001000010
00000000000000111000000100110110
11111111100100010110001010001110
11111111101101011011111001011000
00000000001010110100100101010001
11111111111100010101010101010010
11111111100010001101101111011101
00000000010110011101101011111011
00000000011001010000011001001100
00000000010011001011110111001000
11111111100001111001001010100101
11111111110001110000010010010111
00000000010001111111000001101010
00000000000010111100011011100011
00000000001100011110110110001111
00000000010011000001111111001110
00000000011101001110010100110011
11111111111000011110111011011000
00000000000011110100101000100011
00000000001110001111111011010110
00000000000101111011101100100101
00000000001101011111100101110110
11111111110101011111100110010011
11111111001010011011110111110111
00000000011101011111010010010101
00000000100110001010101001011000
11111111100001110011101011100011
00000000000010000100111100000101
00000000010011000110101100001111
00000000000111100011011011010100
00000000001010111111010001111100
11111111110110000010111000101100
11111111110010000110111001111000
11111111101110111001011101010000
00000000001111000010010100011010
11111111111001001111011100100101
00000000101000100111011100110011
00000000000001011011110101110001
00000000001001010000010000101000
11111111111110101110001010110100
11111111101001100010010100110100
11111111111001010110110011000101
00000000000011111101001110010000
00000000001100101011011110010110
00000000001110111111010100101001
00000000000101000100111111001101
11111111101010101111010000101110
00000000010101111111011001100011
11111111110100011110100100011111
11111111111100111011101100001001
11111111110111001011001010111101
11111111111110100101110101101111
00000000000100001001110000010001
11111111111100100001000010010001
11111111111000010101101100011000
00000000000011101110010111110000
11111111111011110100001000100000
11111111101000100100010010100010
11111111111000001110000101110111
11111111011100101111010011001100
00000000001100101101101111110010
00000000000011111001000100001101
11111111110010000111111111110110
00000000001001110001000011001001
00000000001111001010100110101101
00000000001001110000010011100011
00000000010111010110101111101110
00000000000000100110101010001011
11111111111110011101100010111001
00000000011110011010011100011110
00000000001111000111101001101111
00000000010100101100101001101001
11111111110110110000111001001010
00000000010100101100011100111110
00000000000111101000100010001011
00000000001010111110111111110111
11111111100110100111100011010100
11111111100110010110010111010011
00000000011001110111100000101011
11111111111111101111000110110010
00000000001001011011011111100000
11111111101101011101000110011011
00000000110000111100101101010100
00000000010110000011000010001000
11111111110111100010110100010101
00000000000000110111011000011000
11111111111010101110011110100000
00000000000001010000111010001100
00000000011100110000111111011110
00000000000011001011011100000100
00000000010000110001101011010100
00000000100110001100110000001011
11111111110110101001111000001100
00000000011111001000111100001010
11111111111100010110110111011100
11111111101111111000011101001011
11111111010100110010111010001000
00000000010001001101110101011001
00000000000111001000111110010000
11111111100101100010111101111110
00000000110100000010111101000110
00000000001010110111110010011001
11111111101111001001100000111110
00000000001100101000100001011001
11111111111100110110110000000001
00000000000111010010100101001111
11111111101001000001110110111111
00000000010110010101000000001011
11111111110010001010100010110110
00000000010110100010001101011110
00000000010101001111100110111010
00000000001011111111111111011010
00000000000010111101011111100000
00000000000001010111110111000100
11111111110110001000111001000110
00000000001110010011010111100100
11111111110101000011010011100110
00000000010001001111001001010101
00000000010011110101110100001000
00000000010000100010000110000110
11111111111101000100110111001100
00000000010001111011000010101011
11111111110110010011000110011010
11111111111100011011010101100011
00000000010100110001100110100010
11111111111011001110100001011110
11111111111010100100011001101110
00000000000001011010011101011100
00000000000010000001100011001100
11111111110011111101101001111100
11111111111101011110101100011101
00000000001000100111000000100101
00000000101110010000010011101111
11111111110001000110011011110110
11111111110111001000001011001111
11111111011111110001111110000000
11111111101101111100101010000011
00000000010110101001101011111010
00000000010101100001000101111101
00000000001011010111100010110101
11111111110001101000110000011001
