11111111101101000111000011100111
00000000000111100001010001010110
00000000000100000001001101000000
00000000010111101100101001001010
00000000010111001110011010101001
11111111101101110011011000001001
00000000100010110001111100000100
00000000110101000011100111111010
00000000000011101010000101100100
00000000001011000100101101110100
00000000001001000100110110010100
11111111010100100101000110110100
11111111101100000110000010011010
11111111110011100111110000110111
00000000000011110111111100101111
00000000001101010010010101111111
00000000010001011011001110111000
11111111101011101011100110110110
00000000110100101000000001011110
11111111001110111001111001111010
11111111011110101001011110000101
11111111110100111100111001101001
00000000110010001110010011101101
00000000011011011111011011111101
00000000001000001110101010001111
00000000000011100010000101001000
11111111100011111000000110111111
00000000011000001010111111101000
11111111110111010000001111100110
00000000100001011100001111111011
00000000000010010001101111001111
00000000000001001101011001101100
11111111001110011100001011011010
11111111111010001111101001011101
00000000011001010010101111010000
00000000001010101101010011011101
00000000010001010101101101100110
11111111110010011100100010010001
11111111011110001100010111011000
00000000001001101011010011101100
00000000001011011011100110111011
00000000000101000111101001001111
00000000010110101010011101101010
11111111100011001001001001100100
11111111010101001100111011011000
11111111110100001101010011011011
11111111101111101010101011011110
00000000000111010100000001111000
00000000000000000000010100101001
00000000010010010000110011010010
11111111110110001101110001011101
11111111111001100000000000011111
11111111101001010000110000011101
11111111011000011111000101111110
11111111110101101101100001010010
00000000111111010010010000011011
11111111111110010001111100000111
11111111100100000001111010111101
00000000001110101011011101100111
11111111110000101001001010000110
11111111111100011101100101001010
00000000001000110100100101011110
11111111110110010001000111001000
11111111101011010101001011101000
11111111110111100001101011101111
11111111110101111111100111010011
11111111000010100111011011110000
11111111101001001000101110000011
11111110101101101001111111000100
11111111011110101001000100011000
11111101110001110000110101010100
00000000010111001110000111101100
11111110100100000011011100101111
11111111110110010110010010010011
11111110011101101001101010110000
11111111010011100000101010110011
11111111000110101111011100111011
00000000010001100111001000010011
00000000010110101101100101001010
00000000000100010001101100110110
11111111111100000011110011110101
11111111011001011110000011111110
00000000100101111110000101000101
00000000001010100110010001110010
11111111110111100111011000101000
00000000011111000011110001101000
11111111011111010110111011010010
11111110111011100000001011111111
11111111111101000101000101100000
11111111101110110001011011001111
00000000010101111011101111110000
00000000100111110000000111100000
11111111101010100010001101000010
11111111100101010101100010111000
11111110100001011100000010000110
11111110101111011110010001000111
11111110010010011100010001001100
11111110111100100000001100010011
11111111100110101001100011001000
11111110101001001011011101100111
11111111001101111101111011001011
11111110011101000011111111101010
11111101111101110000111011111001
11111110001110100111000010000001
11111101100110001010011011011011
11111110110000010000110110101010
11111111010110101111001101111100
11111111011000001100111001010000
11111111101000100001010001111001
00000000011010000000011000110110
11111111110101001100010110011010
11111111000100001110011010010011
11111111110100001011001101111100
11111111111010101111101110001000
11111110101111100010001001100011
11111110111111010111011101000111
11111111001011111001110100010111
11111111101100100100110101111111
00000000001100010100111110010001
00000000100000010111000100101100
11111111011111011000001100101100
11111111000111011010000111000001
11111110000110011100111011000000
00000000011100111010110011000011
11111111000011110111100101100010
11111111111010110100011110010101
00000000110000011100101000101010
00000001110000101101111010100011
00000001101010111011111001000101
00000001001110010101011000000011
00000001111001011100001001010111
11111111100001101101000011111111
11111110101101000011110000000101
11111111111101000000001011100111
11111111100000000101010111100001
00000000110100100110010110100000
00000000010100011011110010011011
11111111111110111011111000100100
00000000100110111100100110110111
11111110111011100000101111011100
00000000011010110100111001101100
11111111000001000001111101000010
11111111100001111111000001100011
00000000000111011010010010001001
00000000100100001001111001111000
00000000100010111010100100011010
00000000100000000001100011111100
11111110010101011111001100010100
11111111100101100100101001011001
11111111010000110110111100110011
11111111010001010011100011101010
11111111110010001001111110101001
11111101100010010111100100010100
11111101101100101001011010111100
11111101011010011011100011010110
11111111001101100010101101101110
11111111101100010110110010011100
11111110110011001110001011111000
11111110000111010000100101100010
11111110010011010101101110001101
11111110011011011111110001111110
11111111010011110111100101001001
00000000011000001101100101001001
00000001000001001000010000010000
00000000100001001010011101100011
00000001001011010000100010100001
11111111110110101111110010010001
11111111011101100000010111100011
00000000110101101100100010100000
11111111110000000100011000001011
00000000000011001101011110110111
11111111100000101101011000001001
00000000001111011110010100011001
00000000011011110111100010100111
00000001010010111111011000111011
11111111001010101011111010100101
00000000010110101110110110111000
00000001011000100011001010011001
00000010001011101011101101000111
00000001100110011001101100100011
11111111111011011110110111100001
11111111010100000100011111111111
00000000011111010010111101010100
11111111110101010001011011010100
00000010100001000000001000011110
00000010000100110110000001001110
11111111101100001011011100000101
11111111001100110000111100011101
11111111110100110001100110111011
11111111110111011001010110100010
00000000100011001011101011110101
00000001010011011110101111110101
00000001011010010100111011111101
00000001000100111101000010111101
00000000001101111101000010000000
00000000011100010001110010011000
11111111101011010101101000101001
00000000110010110000000001101100
11111111111001001101110101101100
11111111111100000100111011010011
00000001011000011111001110101001
00000000000101000011010100010000
00000001110111001110101111010100
11111111101010010010111000101011
00000000001111010011011001010011
00000001000110001000111001111110
00000010010101001101101110000011
00000000100001110100100001100110
00000001001111001000101001101111
00000000100110001000010110001101
00000000110100101001100111010110
00000010010100011100101001111010
00000010011000011011110011010100
00000011011101010101101010010110
00000000001001010000010110010101
00000000011100110111100111011010
00000000111110011001011111001010
00000000010011011110001001000011
00000001100011100101110100001000
00000000111101000100011101100001
00000001011101110111001011000101
00000010011001010000011000100111
00000000011111001010110100001010
11111111011010001000011100101100
00000000001101110111111101011100
00000000001110101111111001101110
00000000010011001100010010010000
00000000110001011001011011100100
00000000111011010110101001111100
00000000000011111101000000110100
00000000010011000001111100000111
00000000001110110111110010011101
00000000111000110001101110111101
00000000110010011101110001000110
00000000000100100110011001011100
00000000010101000100010000000011
11111111010011000111011001011010
11111111100010100110010000111111
00000001001110001111111001101110
00000001101011010000100000100110
00000001101101010000100011011011
00000001000001100101101011000010
11111111011011101001010001111110
11111111011100111011111101011100
00000000100101001100101011000110
11111110100000011011010100001100
00000000111110011010001101010101
00000001010101000010010110100001
00000001101100011111101000000000
00000010010110100001111011110111
00000000100001011111001110000110
00000000011101101110011000111011
11111111110001100001000000001011
00000000000110101110000111011001
11111111011111101110101100111010
00000001001111111011000110010001
00000000011101110000001100011101
11111111010101000110101111110100
00000000011101101100110101110001
00000000011000010100010010010001
00000001110010000100000001001111
11111111101110101101100011000111
11111111011110101101000010101101
11111111110100111111010000000011
11111111010100000010001000111100
11111111010110010110001000101101
00000001100001111101011010000101
00000001110001110111001001111111
00000000000110000110000110011111
11111110111010100000101010101111
11111110010011011100010110001110
11111110011111100100111101101001
11111110101111001100001010010001
11111110010111111011010001000010
00000000010010111000111000011011
11111111111100011011000110011000
00000010010000111111001010100101
00000001011001100010001011111010
00000000100100111000011111001001
00000000100011010001000000101110
00000000011001111000010101001100
11111110110001011110000001011111
00000000110001101000000000110011
00000001100001100101000000110000
00000000010100010111111101000101
00000000010011110110011110000011
11111111111000001010000010000111
00000000011100000000111000110110
00000010100111000011000111000000
00000000101111010001011010000011
11111111111100011001100101100111
00000000100101111011110000011000
11111111111111100100101110010100
00000001100101110000010011000100
00000001010110000101100010111101
00000011101000000110001111011100
00000001101100000110000110111100
11111110101110001100001110011001
11111101111101110001101110010111
11111110010110001100001111011011
11111111011000000011110000001000
11111111111100011111011101001111
11111111101011101101110101000100
11111111010011111101111000100110
00000001100000011111100011110001
00000010100101100101101100110000
11111111100110011011111001111111
11111111000101100111000110100011
11111111100001011000011000101101
00000000001001000000011001000111
11111111001110100011010010110000
00000000100011000011110000100101
00000000111001000110001000110010
11111111110001010111001001000100
00000000001000101110111011111101
00000010000011001111100110111101
00000001110110101100010001111101
00000010001100100000000000010101
00000000010010010110111101011101
11111111101000100001100011101001
11111111000011010110001100111001
00000000110111100000110000001101
00000011000011110001010001111000
00000011001110111000000011000111
00000000010000001011100111110001
11111110010001010000000000100000
11111110001000000100111101000011
11111100101100110011001101000010
11111110101110110001000111001110
11111110010111111010111111101111
11111110100100000001011111010101
11111110101101011010101111000010
11111110110111000110001111111111
11111111011111011111001110101110
11111111111100111101110111010110
00000000000110111001010100010011
11111110111101100110000111110001
00000000011100110010010111001101
00000000110111101110001000000101
00000000001000001010110101000011
11111111100000110101001010010010
11111111110010000110111110100101
00000000111100011101011010100001
00000001110100110100101101100000
00000010110000011010110011111011
00000010001110100101111011011011
00000001011011111101010111100100
00000000000001110000010110101010
00000000101001011101011111111100
00000010001001111111100111110101
00000010110000111110101001001100
00000000111011101001110101000010
00000000010010110010000100100111
11111110011011011101010111011001
00000000001011000000110001101000
11111110110110011001011110000101
11111110100100101001101010011001
11111101011001010010101110101101
11111111000110111000100001110010
11111101110110011010011010111011
11111110000010011110011110011011
11111111101111100010000000011001
11111111011011110111010101111001
00000000011111101100000101011001
11111111110001011000101101101010
11111111111101100110000101100011
00000000110110101001001010000111
00000000011111111101011110110000
11111111111010110001001110100011
00000001100110010100011110111010
00000000111111011011010000011011
00000001110100001000001010011000
00000011010101000111010101100010
00000010100100111111111001000100
00000010001010001000110111011011
00000000001011111111011000100001
00000000100110001100011111010000
00000010001101110100100110001000
00000011001101111000100000111010
00000001111010101000110010000111
11111111110011001011011110110100
00000000010100011000011010000011
00000000011110101100001011110110
00000001000100011101100100001011
11111110011101100010110100101001
11111110011000011000110110000011
11111101100110101000101100000101
11111110001000111100000110011100
11111101111001000100000010011100
11111111010101110011010111111001
11111111001001010101011011010001
11111111101110001011101000001111
11111111111010111001010010000111
00000000001111011011001110110011
00000000001110110001011110110001
11111111100101000001101101000110
00000000011110110110000000000111
11111111001101101100100110111100
00000000000111001011000011010100
00000001101110011010001111101000
00000001101111110110100100111110
00000010111011001100011111111001
00000010001101000000001100010111
11111111000101000011111111101101
00000011000110010011101110000010
00000001111010101111100001111001
00000011010111000110110110000101
00000010100110011100011110101010
11111111110010010010100001101100
00000000100000100010110111110110
00000010100101111110011011011110
00000010010001010001010100110101
00000001101001100000010001000010
00000000000101110011001011110110
11111111010110010000000011100111
11111110010111000001110011000111
11111110111001101111110110011110
11111111010110000000011100010110
11111111011111100011110100100101
11111111000100101011001100111100
00000000101000100000001000110101
00000000100000001000100101110000
11111111110010101010110000011001
00000000000011111010100000110001
11111111010010010111100010111011
11111110101100011110010010100111
11111101101011111111011100101001
11111110010111011111100101101000
11111111101100100010111000100011
00000000010000100100110011011011
00000001010101010110111111001000
00000001010101011101001011001010
00000011011101011010011110010001
00000010110001101011110100011100
00000010100000100111111111000010
00000010000101111111010011110011
00000000101110011000000010011000
00000001010001011110111000011111
00000001011001110000100100111010
00000001011100101010111101101011
00000010000000111011101111101011
00000000110010110111100111000000
00000000010101111101000110110001
00000000101000011110011110101111
11111111011100111001011111101110
11111111010101101101000000100101
11111110111000010101010110101100
00000000010011111011000101111110
00000000011110110011101101111000
00000000011000001100111010111010
00000001000011000110100000110011
11111111111101011010111100010010
11111110011011111100000101011110
11111101010110010010101011100010
11111010110100110111000101100100
11111011010101010100101111111001
11111101001101000001111100010111
11111100000100100000100001111111
11111100010001111011000111000111
11111101011000001001101000000010
00000000001101111000000111011111
00000001001000100001010110010000
00000010100011100101110100111100
00000001110011011101110101001111
00000000100000011011100111010111
00000000010011000000001100100001
00000000110111110100001001010000
00000001001111000111000011100110
00000000100010001011000110100101
00000001010100101000110010011100
00000000110000010110101001000110
11111101011111000110100101001100
11111101110010101010110100010000
11111110100101101110001000100110
11111111001000110110000011011111
11111111110010000110011001000011
11111111011010110111000000111110
11111111101111110101101101000101
00000000111010011001100001100111
11111111011000001010100101110111
11111111010011011010111010100101
11111101001011001110001000001000
11111010100101000001110111110111
11111010010000111011000001110011
11111000111010001011001010100011
11110111010111010010010000000011
11110111100000111010011001100001
11111001001100001111100001111001
11111011001110010110010110010111
11111101111101010101011001100011
11111111111000110110101010000000
00000011001101111000110100100011
00000001010011100011010110110001
11111111111011111101011001010001
11111111111011111110100111100100
00000000011001000111110000110000
00000000000011101010111000101111
00000000001000001010100111110001
11111110101011011000011011010000
11111100111011011111101000001111
11111101110000001100110111101011
11111101110001011010001101100111
00000000001101000101111010111010
00000000001000000010100110110011
00000000000110000000011011100110
11111111101111110010110000010110
11111111100101000010110101011011
00000000011110100010001001100010
00000000000001000100010011110101
11111101110011000110111111110000
11111100100101110010101001100000
11111010011110011011001001100100
11111000110001000111111001111010
11110100111101011010010010001101
11110110000000100001110111011101
11110101100110001111000000011101
11110111000110010111101101110000
11111100010100101111000001110000
00000000001110001111110111000010
00000000101110011000011000100110
11111110111100111001011101111110
00000000110001011111101100000000
00000001000010100111000100011000
00000000101101100011111001000001
00000000000011010111111110011000
11111111001010010111011111100001
11111101100000110000000000101000
11111100010101000111101110011000
11111101000100110110011111100011
11111111000100011110001001101001
11111111110101010110111101100000
11111111111111110100000001100101
11111111100100111110101010011111
00000000000010000010011101001101
11111111101001111001011011010110
00000000010001000000010001101101
00000000001001101000101111001000
11111110110111101111001111010111
11111110010000010011101101111011
11111100111001110000101111010000
11111011110011011000001101100011
11111001110101110010000111010011
11111001100000000001111100100111
11110110111010110111100010110111
11111000101010101111100111100101
11111101010010000110101101100010
11111111110001101111111001101001
11111110010000001000101111111100
11111110011010011100110111110000
11111111011111011011101101110000
11111111010111011011100111001011
00000000111011111111110001001101
11111111100010110001110101100011
11111110011011000010010010011000
11111100011010100011000111001101
11111100111010011111110001010010
11111110100101000101101010001101
11111110011010000100001000001100
11111111110011111010011101110011
11111111010010101010100000000010
11111111111011101111110001111100
11111111101111000100110010000100
00000000001000011111000111011110
00000001101111101010000110100011
11111111111001110000110101001011
11111111001100100101110001100110
00000000010111011010010111010111
11111111000011100001011111011000
11111110100000000100111001101100
11111110001110100111001100101100
11111110011010001011110001010001
11111011101010101000101010110110
11111011111101010111000000000110
00000000001011010111001101110101
00000000101100010100110111010000
11111101110010110001001111001101
11111111011000111101001101011001
00000000001010011000111000110000
11111111001111000100010011010010
00000000111101001010001100110101
11111110110110100001000110010010
11111101111000011010100000011111
11111110011111111100100111001110
11111100111011011010000101111101
11111110010000011111100100100100
11111111110000111100010011111001
00000000001111010010110101110010
00000000000010111011110100001011
00000000111000001001010011001010
11111111100010001011100110111000
00000000101101011111111010010001
00000000101100101110110100101011
00000000000110111001101100110000
11111111101100110100100111111111
11111111110001011101010100011000
11111110001000000011100010011111
11111111100111110101011100110110
11111111000001110000001110110101
00000000001011100100110111001100
11111101110110000100110101101000
11111110010011011111001110001110
11111111010010101110101010111101
11111111110001110000100110111011
11111111011011000010100100111100
11111111010100001110100001110111
11111111101000110011111001101100
11111111100001110011010100111000
11111110111011101100100010001111
11111110110011001100111111011100
11111110000100100001100010010011
11111100010101010101111000100010
11111100111011001000101000011001
11111110100100100111001011101001
00000000000010110101100101101110
11111111101100001011001101011001
00000000001111111110110100000000
11111111111100001001110011110101
00000000011011000100001010010010
00000000110010101000110001011010
00000000000111100001000110100100
00000000000111011100010000001100
00000000011011110000011001000010
11111111001000111100100001110110
11111110010110111111010101101110
11111110100010110000001110010010
11111110000110111101110111001100
11111110101101101101001101001010
11111101001100100001110001011011
11111101000111110001000111110011
11111101100101011011011110001011
11111111001110011010000000011100
00000000001001110000011011100111
00000000001001010010110010111000
00000001010111010110001010011010
11111111001111010001111101111110
11111110100101001101110001101111
11111110100111011011111100111110
11111101100010101000101110111100
11111110011001100000001011001101
11111110001110110011110111110011
11111111100001100010011101001100
11111111111101010110110001000110
00000000001000101100001110111111
11111111111111100011100010010011
00000000010000100111111010101011
11111111111001110000110010000011
11111111101101111000000001001101
11111110111000010001011100010011
00000000111100110001110101010111
00000001000010010010010101110000
00000001100001110111100000010110
00000001110010100000001111011001
11111111110010010111111101100101
11111111000101100101010110111011
11111111001100000101101100001011
11111110010000001110111011100110
11111100100010110011111001010010
11111101010101100010010100000000
11111110101101010001001010011001
11111110100110001001000001111010
11111111101011010001101111101100
00000001001110011010110001111111
11111111111011000100101110110001
11111110110111011000000110011110
11111110011101010110111000000110
11111110100101100001011000000110
11111110000111010111001011101110
11111111111101111111100011011000
11111110111110101000111010000010
11111111101110110100100011110010
00000000101010100100110000011100
11111111010100101101100111110111
11111111101001011101100111111111
00000000101010101111100110111001
00000000101101011000010110001100
00000000011011110101101011101101
00000001010101111001011100010110
00000010001000110010111101001010
00000011010010110101110110010011
00000010010010001110000110000001
00000001110001010001100101100100
00000000110101000001010100000011
00000000111111001001111100000111
11111101100100000110111000010010
11111101100010000100110100011100
11111110100110011110110011110100
11111101100110100100001001110101
11111101101010010111101010101100
11111111100001000000110101011111
11111111011011000001101100100111
00000000001111000010000011100101
00000000010101001110111111000111
00000000010011100001000101100100
11111111101000010000000010001000
11111111101011110111110011100100
11111111010111000001001111100000
11111111101100000001110010110100
00000000000000010001011100011111
00000000000100111101101110101001
11111111100000000111100001001011
11111111101100010011111000110001
00000000110000010101010101110110
00000000010000010111111101000100
00000000010000110000000110011110
00000000000101110110101101110100
00000001100100011001010001100000
00000001111001101011101111111000
00000010111010010001111001101101
00000011101100110000100110011010
00000100101111011100011010111100
00000010111101100110011010000001
00000011010111001011111111101011
00000010110010010110101010111001
00000010100010110010001110001101
00000010101001110111111010101011
00000010001000000111010101111101
00000001101011001010011110111001
00000001101111001001110001011111
00000001101001011011011010011111
00000001100110110001001100110111
00000001110000101101001000111011
00000000110000001001000001101100
00000001100001110101111110001011
00000000101010011010010100001101
00000000000001011101111110111100
11111111100100100111111101000010
00000000101101010010101110101100
11111110000000100000111110101111
11111111110111101110011100100010
00000000001001011011001001111110
11111111000010100011001111111011
11111111100010111000000110001001
00000000011001000110010101011010
11111111100010011000001111101000
00000000011011011001010011011000
00000000111111000100001101100011
11111111110010110111000100101100
00000000111101101100011110100001
00000001110110110000111111110010
00000001010010011101000100101011
00000000100101001110000111001011
00000000110111110001000001100001
00000000101001001000100110111001
00000000101111110110000101110100
00000001101010100101000010111111
00000000000110111101011010111100
00000000111001100100100001111011
00000000111000110011011101010010
00000000000111101000101001010101
00000000010100100000110011010111
00000000010100110111010100101110
11111111110011011010001010111001
00000000111011000001100011110100
11111111111001010011010001010111
00000000100000110001001000001010
11111111101001001101111101100100
11111111111000100110011010010110
00000000000111101100101101100111
11111111110011101101011110011000
00000000001010101100000011001101
11111111110000001100010011010101
11111111111010001101010111011100
00000000011110001110010000101101
11111111101001101101001011001100
11111111110111001011111000000011
00000000111100101001011010110011
00000000100111011011011100100111
11111111110000110001000010000101
11111111011000011100000000000001
00000001010000111010111001100000
11111111010000011001000111001100
11111111110001000111000000111111
11111111010011011001111001010101
00000000000111010010111101110100
00000000011011011100101100010000
11111111011110100100001111100101
11111111101101111011011010110110
00000000100010010100100111111001
00000000011111001000010001001010
00000000000111100101111000000110
00000000010011001010010011011101
11111111101100100100111111000111
00000000101010001010111010000000
00000000101000011100011001111110
