00000000111111100010100101100010
11110111010011100000011110101000
00000010011100100111010010010100
00000100011000111001001011100011
11111101000001010110000001101111
00001000000110101000000011110010
11110101001111001011010101110100
00000101010101101000001010011100
11111110110001100111000010100011
00001110101111101100001001100101
11110101011110101100111101010011
11111001100000010110001101001010
00000111101110001011111000101100
00000101100001111101000000100011
00000110100100001001111001101001
00010000001011111000010101110011
11101100000000111110101110010010
11111101001110011111000101011111
11111010011101111001100010101111
00000010111110011010111101001101
11111011111000101110001000011010
11111000000011001111010011100110
00000110000110001000000001110100
00001010011100101011011111001111
00001000001000010110011110000000
00000011111010000110110011110001
11111110110100101001011110001111
00001001000110011111111100000100
11101010110101100110000000010010
11111110100111011101100101100001
