00001010001010000010011001110100
00000111011000101101000010100011
11111000111001100101111010000100
11111001011111110100011100101000
00000110000000100000011110101000
11111010011110110110000111111110
11110110100111010001110001110100
11111101000110110011111000100110
00000101100111111111001110000000
11110101001100100111111110001010
11110111111100000110100110011010
11111110010011000011100000101001
11110001101000001110011111100011
11111000001110011001000100011010
11111010010100000000100110011101
11111000010001111101110011100001
00000000000000110101000001010001
11111000000001011011111110100111
11111111101001101111010010010101
11111111000011000101111001000010
00000010101000110011000011001010
00000000101111110100100001110101
11111010000011001011000100010000
11111101001111001001011100111110
11111110011101110000011010111000
00001001110101001010101110000011
00001011000100110011111011111110
11110111010101011100110111111001
00000101111001011010110111110101
00010110111000110010001101001100
