00000000001011011000110110111011
11111111111000100110101111000000
11111110101001110001100010110100
00000000100000110011100011100011
11111110110110000100100000111010
11111111000100001110101101100000
00000000010011000110101011010110
11111111111100011011001000000101
11111111111011010010011010110000
00000000010001111011010111010010
00000000010000100011001001001110
00000000001111100000011010101101
11111111111110001011001010110001
00000000100100100000011100001010
00000001000001100110000111110001
00000000011011010100101111110110
00000000100001101101110111000101
11111111100111111110101100001010
11111111101011011000111001011100
11111111000001010110011101011110
00000000010110011011101110100111
00000000110010110000111001111010
11111111011100101111011011101110
00000000010000001000100010010111
00000000100010011000111010100110
00000000011111000001100010011010
00000000000110110101001110010001
00000000001111001010100100101011
11111111011100101110011010000001
00000000001100101111001111011001
11111111001110010001000011011100
00000000011101100101000111000111
11111111111111111101011100001000
00000000111001000100000101010110
11111111011001101111011100000010
11111111110011000011100001011100
00000000010010000011101111110110
11111111010100000001110010011011
11111111110111001000100001111111
00000000001100101100101010000111
00000000011111111100100011111001
00000000100010101100110010001000
11111111101101101001010101110101
11111111001110000111101100010011
11111111011100000001101101011011
00000001000110011100011100111011
00000000000100001000110100001111
00000000011000000100011100000111
00000000100000001110100100000011
00000000010011001010010011011011
00000000110001100011110001001101
00000000001110001000011110100110
11111111100011110001011010010001
00000000001001011011011110010111
11111110100000011100010110110100
00000000000011101001111001001100
11111111001001010100000010000001
11111111100010000010001000101101
00000000000101111001110110100101
00000000101000101100001000111000
11111111110111111001010100011000
11111111011110001110110110110100
11111111111011100111100101110011
11111111110001111110001011001001
11111111111011101010011101101001
00000000001111011010011111111010
00000000110011111110110010010100
00000000010110110101110001100000
00000000110101101010010110000001
11111111100010011110011011000110
11111111110001010111011001000011
11111111011010101101101001110110
00000000011101101011101111000010
00000000100110100001111110101110
00000000001101011000000010010110
11111111110110110001111110011000
00000000111111111101000000000100
00000000001110111010010010110110
00000000100000011100000110100011
00000000110010000111100011100110
11111111110001000001110100010000
00000000001001010011101100110110
11111111100000100111110100100111
00000000011100010110001000001111
00000000000101010110010110010011
00000000001000010010111101010001
00000000101010001010101010110000
11111111011111001101110001110110
11111111011111110010000100111011
00000000000100001111100100001010
00000000110110101010010101110000
00000000101010101011110001110010
00000001000111100101000111010000
00000000110100101000011001110010
00000000101000101101111110111110
00000001010011001001011111011001
00000000110110100101110101001001
00000000100011010100010110101101
00000000010000111000010100000000
00000000000100101100111111110010
11111111100111111100000110111010
11111111011111101001000110011110
11111110100001000100011011110101
11111111010000111011100001001001
11111110111111111010111101010111
11111111010011110011001100010001
11111111101010010100000110110110
11111111001111111011100011001101
11111111111000111111110101010001
00000000000100101001010011100101
11111111100011110110000011001010
00000000100000101110101101101100
11111111110110010001111011101001
00000000000000100111010110011110
11111111100101010010000101010111
11111110111111111110111111100101
11111111101101001101000010000101
00000000010010000001111010100000
11111111101101110111111101011111
11111111001100110101010110100111
11111111110010101011011010101010
00000001000001110101101011110000
00000001000111110001001000001110
00000000100101011100001001001100
11111111111011110111001000010000
11111110100111100001110101010101
11111111010000101101011101110100
11111110110110111110100000010000
11111101111101000010101111110110
11111110111010110000110100101011
11111111000010110111110101000000
11111110110010010101011111101101
11111101010011100110110010010010
11111110001101000011101001000100
11111101101010111011111101111110
11111110110010101100001001101000
11111111110010000001010010110100
00000000001110111000000111010010
00000000011010001000111100110001
00000000100111110001110101100110
11111111100011011100011000111110
11111111111001000100011111100010
00000000100111101100010110110001
00000000001000010011101001010100
11111111100001001010110110101101
00000000000100001111001000010101
00000000010011000111101111101111
00000001101101000010000101001001
00000001110111000010101001000011
00000010011010100101011101100111
00000001001101011110111111010111
00000001101110000010111011000111
00000000011110110001001010100101
11111111000010001010110110111000
11111110100100001011101010010110
11111111000101100000110000010011
00000000000011010011001001010001
11111111100011011101111100101101
11111111011000101110000010010010
11111110110010011110111011010010
11111110011001000001110011101000
11111110011001100111000100000111
11111110111111110011101000111101
11111110110111010001101100100100
11111111011111001101101010011010
00000001000001000100101110001000
00000000001000101101100000101010
11111111100111010111000011100111
11111110110111101101011011110001
00000000100100111011001000011101
11111111101010001110001111000110
00000000001101001100010100001000
00000000010100011000110100100010
00000000110011110011010011000011
00000001100100010010100110001010
00000001001011000110101101110011
00000010001001111010000100001101
00000010001111010011001001000000
00000000011110001011001000101000
00000000000010111110111010111111
11111111111100001110110100001011
00000000100111101101101001011010
11111111100100000111011000011010
11111111101000010110001101000101
11111111000111111010010101101101
00000000100001001110111001101011
00000000101100111101110101001101
11111110110000111001001111101000
00000001000110110101111001000111
00000000000111110000000111001001
11111111111100011100100000001101
11111111100000011011010011110000
00000001101111110010100111001110
00000000111110100000010001010111
00000001101010100111000000111111
00000000110011011100001111101000
00000000000011000101111110110111
11111110110001010111111010011000
00000000000111100100111000110000
11111111010011001101000100010100
00000000111001001100101010101111
00000000101101011010000110101100
00000000111001111100111111011001
00000000100000101111111111001110
00000000100010110010001001010100
00000000111100111010000000100111
00000000000000111101111010100110
00000000100101100111010011011100
00000001000010111110100101000101
00000000110101011101000001001000
00000010000000101011101111001000
11111111110011111110010010100010
00000000010011101100011101000101
00000001000001011111111001000110
00000001100001100110011110100110
00000001011101001111001000010011
00000000001011000001111000110110
00000010000101100000010110100001
00000000111111101011010011101101
00000000111110111100101110010001
00000000110111001110100000010100
00000001110111110111111111111000
11111111010001100001100011111100
11111111011101010010101001011010
00000000111010110010110000010111
00000000000111101110010011110010
11111111111101111100100000010001
11111111110010100101111110110110
11111111100101011010111000111001
00000001011001010111000001011100
00000000100011000011100010001001
11111111001101101011011001110000
00000001010001101010010000011111
00000000101000001111101100110101
00000001011011001010101110010000
00000010001010000111001001100000
00000010010011000101111010001101
00000001111000001110011001101101
00000011000101100011001010111001
00000010110010000100100100011100
00000010000001001110011010100100
00000001101010111011111010011100
00000001011001101100001110100100
00000001000000010100010010000001
00000000100010100001101001010101
00000001001001101000010111111010
00000001011011101010000101011111
00000001000101010001010011101100
00000001010000100101000010001101
00000010010111110111111111011110
00000000101011010010000101101101
11111111110011101001100101100111
00000000010000111000011011000010
00000000001010111100110010011010
11111111101011001011101100000100
11111111100011100111010110010001
11111111101011101001011111011111
00000000010110111001101011111110
11111110111100100100101011100110
11111111100001001110011010011011
11111111001010101011111011010110
00000000100100010000101101101111
00000000111110010111001000101111
00000000100100001000100011000001
00000001010011101001010000101100
00000000100001111100011101011010
00000001010011111010000100111111
00000000100101000010100001010001
00000001111110100101011001000000
00000001101000100110101011010011
00000000110110110000111000000000
00000000011110100011100110010001
11111111001000000100110101010111
00000000110010101001011011011111
00000000110111000100001011111101
00000010001111101001111011111001
00000011010110101001111111001011
00000010101111100010110100000111
11111111011100100110100110000000
00000000111101001111101101100100
11111111110001111111111001010100
11111111111101101000100011101111
11111110111000000011001010111110
11111111001000011010010111110010
11111111011110100011000110011110
11111110111011011011111111011110
11111111000011101011000011000001
11111110011000010011110111010100
11111110100111010000111110000000
11111111010100011011000111011001
11111110100000000001110011100000
11111111101110111101101001100100
11111111001110110110000111001000
11111110000111111111011001000010
11111111011001110101010110000001
11111111111000101001110011001001
00000001110010001010010110100101
11111111111110101101111011010000
00000000010100011111111101100011
11111110111010010111011110100010
00000000001011000011110110111010
00000000010011111110100100000011
11111111111010101111100010100001
00000010010010111001001111011011
00000001011001100010001101100000
00000010000110100100000010000110
00000001001000010111111110100101
00000000101001100110111010011100
11111111100001000101110110100001
00000000001000000101010010001001
11111111001110001110000101111011
11111111010111001001101001111101
11111111110001011011110101111000
11111101111100110101001100011110
11111110011100011000010110000101
11111101001111110110010111101101
11111101001010000010111110101101
11111110100101010001000111100100
11111110001000011110100110110111
11111110010100100111010111010011
11111101001011001111110010111001
11111100101110110011101101110101
11111101001110101101001110111111
11111100111100101001000100011101
11111110100001101000000111100010
11111111110111110001000110101100
11111110001001001100110100000101
11111111101001001100110001110101
11111110001001101010010001111110
11111110101011011100100000000100
11111111000011101011010111101010
11111111111000101010110010010000
00000001101011011110011100011000
00000001010001000110110110101101
00000000001011111010111001110100
11111111010110111000001110100101
11111111111000011001100011101100
00000000011011010111110101100010
00000000010111001001001001111011
11111111100001101100000100111011
11111110010011111001111110101100
11111101101001000011011101000101
11111101000110011001000100111101
11111100100101011010110101111101
11111110101010111111100101100010
11111101100010001010111101110000
11111111000011101010011100100100
11111111001001100110101000010111
11111110001011011100001000010110
11111101001110001000000011111010
11111100101110100000101011010110
11111100111110000111100111110010
11111101101110101111101011110101
11111110001101001100110010110001
11111101110010100110011100001001
11111101100100001111110001010000
11111101010101000001000001011110
11111101111101001101101110100011
11111110100101011000000111001010
00000000111010011011001101000100
00000000010011111011001110111100
11111111111100101100010001011100
11111111111111100011101100010110
11111111110001110101011000000111
00000000011000000100100111011001
00000000001010110010000101011110
11111111011011001010001101011000
00000000001001101000000011110001
11111110100100110110010000110000
11111101110111001011111001000100
11111101010011011011001000100111
11111101010101110110000000100010
11111110110011101110100110100011
11111111011101011010111110100000
11111110101000010111010010011100
00000001011100001111110011011001
00000000111011010011001111110101
11111110110001101101001110100111
11111101000110011110010110110010
11111101000110100011010000010011
11111110100001101111011101101100
11111110101100010111000000100010
11111110110101111110110011011111
11111101010010111111100011100101
11111100100010011101000010110110
11111100101011010110011100100110
11111111010111000011001101100010
00000000000110100010000010101010
00000001001001111100001001010110
00000000010111110111101010011100
11111111100101110011011111111001
00000000111001001110001011100100
00000000000001000110111001000110
00000000110000011011111101101011
11111111000011100111101101010100
00000000001000001001101010110001
11111110110110011100110101110010
11111111100001011100011100001000
11111110101001100110100011101010
11111111110010001001001100000000
00000000001000011011011111111110
00000001111101001011111011100111
00000010000100011101100011011111
00000000011110100000000111000011
00000000000001100001111010111110
11111101101011010100110110000001
11111110000111101000001011100000
11111101010011100100110110000111
11111101110110010000001001100000
11111110010110011011001101110001
11111101000110101010100101111110
11111100101111111101111101111100
11111101000101110100111000110110
11111111101110011101111011110100
11111101111001011111100110100110
00000001001110011011010010001011
00000001011100110011000001101110
00000000011000111101100000110000
00000000000111101001110001010110
11111111111101111101100000110110
00000000001011110111001111001100
11111111100000001011100000100010
11111111010011000110001101011000
11111111100010001100110000001100
11111111001101101111100110011110
00000000100110100100101000000001
11111110111111000010110101110101
11111111111001000011011100010010
00000000111010001010000110001101
00000001101111000001011001011011
00000001100111101110000101111101
00000001000100110000100011101110
11111111101000101101010100000001
00000000010001011000100110011110
11111110001000101000010011000111
11111110100101101001100010101111
11111110101110101011011000000110
11111101000001100011110010010001
11111101101111001111000001001100
11111101111111101100110001100111
11111110010001110100001111110011
11111111101100100010010010111001
00000000010110010100011011000001
00000001111001100110101110010110
00000001111000110101101010001100
00000000100111101010110100011011
11111111111001101011010110101101
11111111111111011001011101010110
11111111101001100100001001111110
00000000001010111011111001101000
11111111011111001100010011001100
00000000110010011111100001100001
00000000011110010110010101100000
00000000111001001100011111011110
00000000010011000011000011110101
11111111001001001001100100010101
00000000100001000000110011101000
00000001010111010110011001100000
00000000100011100111111011101111
11111111010010100100111100100001
11111111011001111000001110110101
11111111001011011100101010111101
11111101111011100001110111001100
11111111001011001010101000100001
11111110011100111001010100100011
11111101101111001111100001010000
11111111000100000010011101111001
11111111111100011111100101110110
11111111010000001111110010010000
11111111011010101111010110111110
00000010000100101100010100010100
00000011101110111100111010010110
00000011100010001011101100000001
00000010011001100110111100001111
00000001001000111111100100100000
11111111010101011110101011100001
00000000011101001101001010001101
00000000001111110001001100001011
11111111110110010001100100100111
11111111100110001010000000000001
00000001101001010010001100010100
00000010011110000110110010100100
00000001001010100110010001011010
11111111100100010110001000101110
11111110010101010011010100011110
11111111000110101101110101001010
11111110101000010111000101011010
11111101101110011101010110001010
11111101110010001110001111111111
11111111000110101000110110011010
11111110000010110101101011001000
11111110100010000001110110101000
11111111110111000000110010010110
00000000101000100101111101011101
00000000001110001100001101110101
11111111110010100110001110110111
00000001000000001011100100100101
00000001000000001100101111111011
00000001111001101101001010100010
00000010110101011101110000001110
00000010100001110110100001001110
00000001101101111000100001011010
00000000001000100001111101101110
11111111101001111110010010000101
11111111111100001101001111111100
00000000100010100011010101100000
00000000001100101000110110100111
00000010000111111110011111100111
00000010011110001101111010001101
00000010010110101100110101101111
00000010110001000100010010011000
00000001010010001000000110000110
11111110110100111010011111011001
11111101110011101001110001101000
11111110001001111111010001000100
11111110111000011100100100011100
11111110111110100010010101100001
11111111011000000001110000000111
11111111001110001001110011110001
11111111000111011101011100011110
00000001110101011111110101110100
00000000101111011111011000100101
00000000001000000010011011101111
00000000000110000100011101110010
00000000000110100011111001010000
00000010010011011101001111011100
00000011110001011001100001010110
00000011011010010110110010000011
00000011010001111011101110010111
00000000111100011001101110110111
11111111100001111101101000001101
00000000110111001001001000100010
00000000011111111110010011001100
00000000011100100001001101001010
11111111100100101010011011111101
00000001001010000010100100101000
00000001111111101110001111100001
00000001111111100100110101011101
00000011100111001000110011110111
00000001110010111110011101111100
00000001101011010110010111011101
00000000010011010000101110101110
00000000001110000111000011100011
00000000000111100111000101000010
00000001000100111000001100001011
00000000100000111101111110011101
11111111110110101000110011010000
00000000100000001001011111011111
00000000001101000011001100010001
00000000010011000110100011001100
00000000100100101110000011100111
11111111111110101100101000000101
00000001001010111010100011011100
00000010111010100110010100011001
00000010101010001100011011111010
00000011011100110011000111110111
00000001000100111100010000010110
00000001010101001001000011000100
00000000110111001110100000000001
11111111010010001110111100111100
11111111100101100100111010100100
11111111110001111011001010111110
00000000010010100110010011111110
00000010000001001111100110001011
00000010100101101000000111000000
00000010010011100101111100110100
00000011001101001010100000000011
00000001110011011110001100110000
00000001010000001100111001011010
00000000001111010001111011110100
11111111101011001101011010111100
11111111111110101100101011000000
00000000110110110101011001000000
11111111011001010110101111111111
11111111000111111111001111100100
11111111100111111100111111101101
11111110111001100011000011001010
00000000101101111111111001100001
00000000101111101000101100110100
11111111010000010100011101100110
00000000101011010010100100110100
00000010001110010111111101110000
00000010101011100011111100000100
00000010101111100100011001110100
00000000111010011111100111000111
00000000110101010010101101101100
00000000101111110111000101110000
00000000001101001000101000111101
11111111101111111100001011111101
11111111011100011101010011100101
11111111111111101101000000110100
00000001111110101010111001010100
00000010101000111110111101100110
00000001100100001001110100011011
00000001100110111011101101011100
00000000111001100101111011001010
00000000110111111001100011110011
00000000010111110010011011001011
11111110011010101000111101010111
11111111010000011000101001101101
11111110100011000010100001011010
11111111110001001010111101010101
11111110101110011101010010010000
11111110111010100010001111110000
11111111010111001010000100011010
00000000010011000010000011011010
00000000111010111111000000000111
00000000100110011010111010111010
00000000000001110001010100010010
00000001001100110001000010011100
00000010000011100011110010010101
00000001001001011000111000001010
00000001001000100101011110111100
11111111111000100001000100110110
00000000111011000011001011001010
00000000100000011000010101100011
11111111100000100000110011011100
00000000010111110101100100101011
00000000000011110010001001010000
11111111100000010001100110100011
00000000111010111100100111110110
00000000101111111010100011111101
00000000010001111010000100101001
00000000000010001110110100110011
00000000110011010100110011110110
00000000000011100110110011100111
00000000101111011100001001010001
00000000001100101101111010011110
11111111100110011001110001000001
00000000010100010010010011101010
11111110010100000111010110111010
11111111100000111010000001110010
00000000000001010001010100101101
11111111011001001001111101011110
00000001001100111101001110101010
00000000011110010010101101100010
00000001001101000110000001000010
00000000100111001001101110111001
00000000101101011011100001100000
00000001010011101101010010011001
00000000100010000010010001100000
11111111011011010101001010100110
00000000010000111011010100010010
11111111001100100101100110100010
11111111111011000000111111000001
11111111111000100001011010110111
00000000110000100001000010110100
00000001001100011000001011111010
00000000000101110011100101000100
00000000101000000101000101000001
00000001011001010100010110111100
00000000101010001000011101100000
00000001010110001101110110111001
00000000110111111001001111011101
00000001000010011100011000101101
11111111111110100000100111000101
00000000100100110100010110111101
11111111100101001011000110101100
00000000000111111101000000101001
00000001001111100111110010101011
11111111111000111110100100010011
00000000010000011001101101010110
11111111011111111100001010011110
00000000001000101100010100110110
11111111101100001101001001101000
11111110110001010001111001111000
00000001000100011011111000001100
00000000011011011111000010110101
11111111110010000110000101011110
00000000010001111011011111011000
11111111110101000010110110000110
11111111111100001110000010010100
11111111001001001001100111000100
11111110110011010001010101100011
11111111100110000111110111000000
00000000011111101011010010001001
00000000011101101011010010100111
00000000000101011111001000100011
00000001010010011111001001111001
11111111111011110010100100011011
00000001010110011111110000011101
00000001000001000100111111001100
00000000100001101011101111010000
00000000011001000110011001110010
00000001010110010110011100110001
00000001111010111001110100111110
00000001011111001101110110100111
00000001110000100011101111000100
00000001110100110011100001111110
00000000100011101011100111111011
11111111101111110100100010111000
11111111000011001011010010111010
11111110011011000001001111100111
11111110010111010110001111001000
11111111010010000000111001111001
11111111101101100011010011011111
11111111110100101110111011100010
00000000100011101110101111101111
11111111101001101110111101000100
11111111110001010000001100100000
11111111011110110011011000001011
00000000001111001111101001110001
00000000000011011000111100111010
00000000100110100111010110010110
00000001011001100100011101010100
11111111100101001011100101000101
00000000000100100001110000100001
11111111101010110100011100110100
11111111011111111010001000011111
00000000001101011110101101100100
11111110110000100101110001111001
11111111010111000100001110101101
11111111100011010001101100101000
11111111011001100001011011000111
11111111100100101001101110001101
11111110110110011111011100000110
11111111010001000111001101100100
11111111101011010000111000010100
11111111110010100100111001111111
11111111000010010111111101010111
11111111010011001100001110111111
11111110101011010000101010111101
11111111101110010100110010100000
00000000100101000001100111010110
00000000000010010111101000011111
11111111101010010100011000001011
11111111000101011111110111110101
11111111001000111101100011101111
11111111011001001110000010110000
11111111011011101000111011011001
11111111100110100111011010110001
00000000100111010000010010010110
00000000010011101010001110001000
00000000001001101000010110110011
00000000011110001110000011010111
11111111010100010100110011010100
11111110101000100101111100111001
11111111010010111011010000000001
11111111001001111111001110000000
11111110110011110011001111001001
11111111000110001011000011000101
11111111000111101100110010001100
11111111001100000101011011010110
11111111001100100101101110001001
00000000101001011101100101011100
11111111010011010101111111001000
11111111001110010011100010110011
11111111110111011010010101011010
00000000101111101111110011111101
11111111100001111110110001100101
11111111011010100011101010011101
00000000000111011001011011110101
11111111100100101001101011011011
00000000010000000001010110110001
11111111101000101111010010100100
00000001000010111101000111111101
11111111101111100000001001001100
11111110011111011110010011100011
11111111010000110100010110001111
00000000000111100001001111100101
11111111111001101100101000111000
11111111100101010010001101111100
00000000000011010110111100000101
00000000010101100111111100011110
11111111100000100101000110111111
00000000001110100100001111100111
00000000000100110100100011110111
11111111011111011111001101011011
11111111111111111011100011100110
11111111011101011101101001101101
00000000011001010000000011110011
00000000000100100001100000101100
11111111100011011000010000100110
00000000001010111100001110011011
00000000001010010111001000111100
11111111011000101001100101010110
11111111011000101110000111000011
11111111010110100100000010101111
11111111100111010100001101000000
11111111000001101010011001101000
00000000101000110001111000011100
00000000011011010111000010101010
00000000001110111011010111010000
11111111011001100101110001011001
