11100000101100110100101111001110
00011111100110000000101001010101
00010101010101100100000111010000
11100011010011010000101110010010
11101000010010001010000011000101
11101000000010011010100111110100
11010001011111011100100000000111
10111010010101110011001001100011
00000001101110000011001001010001
11111010011100100111001100100011
00101010011101101010010010100101
00010000011111100110000101011110
11011110100100101110010001110101
11100000100011111111000011111001
00001011010101000110100010000001
