00011011101000101011100011101110
11010000100001000110110110111110
11101000010001000010111010101100
00000100010011100011100000101110
11111111001100010110000111000010
11110010001011101110111110000101
00010010100101100110011101001010
00011110010001011110011011000100
10111100101101111110000111001011
11111010010110000010000101111011
10110100011100101000111000110010
11011100010101001100001110111000
00011010011011100011111100101010
00010000110001001110110010100000
11110100000100111101000100110000
