11111111010011011100000100110111
11111111100101000011011100010100
00000000000001111010001110100001
11111111111100000101001100111001
00000000010101010011000011101111
11111111111011111000100100000101
11111111101110010001100010000111
00000000010111010001110010000101
00000000001100100011111011001001
00000000010101010011101111100100
11111111111011001110011100101011
11111111110000011000010001011110
11111111011011010111000111011010
11111111101001100111000000001101
11111111101101110000101001100110
11111111101101100111000100111100
11111111010110101110010011101100
11111111111100110010111011100100
00000000011101111111011111100011
00000000100001100000110011001010
11111111110110101001110011110001
11111111011101001010000101101001
00000000000100100100010010110001
11111111100111010010101101001110
11111111010000101000100001101010
00000001000000111110011110111111
11111111111000011010010011101001
00000001010011001011111011101010
11111111011110110000111001110000
11111111111111000011000110000110
00000000110110111110100100100000
00000000001101010110100100111111
00000000100000010101100100011111
00000000000011101001100000110110
00000000100011110010010101110111
00000000010110101111001001010101
00000000100000100011001000110000
00000000000101011000110110111011
11111111110001110111000011111110
11111111010100101101011010011100
11111111101110010100101111111110
11111111110011111110010111011011
11111110110100000110011110010110
00000000001101010010010011010101
11111111110011010110000111001111
11111111110100000000110001111100
11111111000011111000001010110010
00000000001111000000011000010011
11111111011100000111100110111001
11111111110101101011101011110001
00000000000010010010110000001011
11111111010011110110011001100101
00000000011100100111111100000110
00000000011101010110011001110100
11111111100100101011011100010000
00000000101011001110111100111110
11111110111100101011010110101011
11111111001001101001000110100111
11111111111111001011011101011110
11111111101001011001101011000111
00000000001000101110101010010111
00000000000000101001001101111110
00000001001100111110011111111101
11111111110010110100001101011111
11111110101010001010010010110011
11111111001110101010100000011000
00000000011111111110100101000010
11111111111100110010111011101110
11111111101010110100110010011000
00000000011101000001010001001111
11111111111010001001011010000001
00000000110001111111000110111111
00000000100000100001000100101001
00000000001111100000100101000000
11111111100101000011001100011110
00000000000110101110110100100010
11111111110001010011110011000101
11111111111101010010111011011100
11111111100110010110111000111011
11111111101100101011111111011011
00000000011010011010010000011111
00000000101010011101110100001010
11111111010110011110101000000101
11111110010010001101010011100011
00000000000010101011101001101000
00000000001011100110000101010111
00000000001111101001100101010100
00000000100011100111101111000000
11111111101110100010011010001101
11111111111010001000000010100011
11111111010000110111011000010001
11111111010001110100111001011101
00000000101100000011011111100111
11111111011101101111010001100010
00000001100000101011100100111010
11111111010110000111101000111110
00000000001001110001011010011011
11111111110010100000000101100111
11111111110001110110010001110000
11111111110011010101001101101110
11111111011010110111010110011001
11111111101011010010000000000111
11111111011101100011100000011001
00000001000101101000110001011011
00000000001110110010001110101101
11111111101010101000101000001011
00000000000010010011010001111010
11111111110010110111111011100110
00000000010011101100001001101010
00000000000111011100110111011001
00000000011011001110100001111010
11111111110010110110111010000110
11111111010100000001001010011100
00000000011111110111111000001010
11111111110011000100001011110000
00000000011110100011001011010000
11111111101011101100010001010001
00000001011100101011010111111011
11111111111101101001101001001001
11111111100010010101100001100110
11111111101110111110110000000110
00000000100010001101000101001000
00000000110111010101110001001111
00000000111101000101010000101101
00000000100000000101101011101010
11111110111111111100111011111010
11111111100111010100110111100001
00000000100010110111110010010000
00000000110011111101111100110100
11111111110000110110100101011011
11111111011100111110010110110000
00000000011100010111001011010001
00000000010111000011110101000111
00000000010101100110001010010000
00000000000000101000111110110010
00000000111111100011111100110111
11111111011111100111011100110111
00000000000000011010111100010010
00000000100111011101001010100011
11111111111010100001001101111000
00000000101110100000010001011011
11111111111011110000010111000100
00000000101110011100001001111110
11111111111111001010110011010000
00000000000101010000001010001001
00000000100100011111010110111000
11111111000001111000000111110001
11111110101111010100101010100011
00000000000111010011010101110010
00000000010000001100101000011101
00000000101001010100010011001110
11111111011010010010100101101010
11111111110001100000000100000111
11111111010111111011100001101001
11111111100110111010011111100001
00000000010100110101101110110111
11111111111110000100111011000110
11111111011101100110000111110010
11111111010011011010101001111011
11111111110101101101110001000100
00000000100010100001000110110001
00000000000100101000110010101000
00000000001100000000000100101000
11111111001111110100111100110111
00000000111001111100111111101101
11111111010101110011111101011101
00000000110111100000100100100111
11111111011011001011011011011000
00000000110101111011001110100110
00000000011001110110111101011010
11111111111011010111001011100000
11111111111110101000100000101100
00000000100001100100101101110011
11111111010010011000001110010001
00000000011000111001100110001000
00000000000010101011001001111010
00000000100001110101100001100001
11111111111101100101110101000111
00000000010100011000100011011001
11111111111010111010010010100110
11111111101111000000100111010100
11111111101011101011001111110100
11111111011011101100010000010000
11111111111011011110111011100011
11111111100111001111001110110000
00000000010000100111111101100100
11111110111101000010010110100000
00000000110111000001000100000101
11111111101111100100101101111111
11111110111011011011100110100001
00000000010011000001100000110011
00000000001100100000011001110111
00000000101001101111101111001000
00000000001110111101001110000011
00000000000111001100000100100110
00000000011101001010001001110001
00000000101111000011100011001100
00000000010011101010101101011011
11111111101111001010101011110100
11111110111110010100001001101011
11111111100010101010110101000101
11111111100110010001000011110101
00000000100110010011010010010010
00000000110101110101100111000010
00000000010110000101111101010010
11111111111111110010101100111100
00000000010001100000101101100111
11111111110100010111001000101101
00000000000100010100100001100100
11111111111010000111010000010001
00000000011101011101010010100110
11111111100011101101111011011101
00000000000111110110100101110100
11111111101001101101101001110000
00000000010000011000001000010100
00000000010101111011011111101111
00000000001000100101001110011000
00000000010011001101011100000010
00000000001000001111000001001001
00000000110011111111001111010110
00000000001111011100100111010101
11111111101110010000100011001000
00000000101001001000111110001001
11111110110111111100001111000010
11111111111000101101000001000101
11111111110111011111000111011111
11111111110010110011011000110111
11111111101010100101101001001100
00000000010101111100000110001100
11111111101011011000001111011000
11111111100011010011000000101010
00000000100111100010010101000010
11111111111000010010101001100111
00000000100011000100001110100001
11111111111001010001000110000110
00000000100100010111100000111001
00000001010110111001110010011110
00000000000101101000110011011001
00000000111100010111011001100010
11111111011100000011111111001101
00000000001100110100111010001001
00000000101101110000100001011011
11111111010010111001100000010010
00000000010001010011010110001100
00000000011000001001010011000100
00000000011000011100111110110110
11111111100101101100100101011010
11111111101111011101101110011011
11111111101001100011110101101110
11111111010111000101111000110001
11111111110111101000111001011100
00000000111010000001011010010100
11111111101101111011011001110011
11111111101010111010010010101110
11111111111100110001101000100010
11111111111100100011101110011110
00000000001101001000011010101101
00000000001011111110010011111100
00000000000011010010001110100101
11111111101010011100000011000110
00000000100000110110100000110111
00000000011110000100110100110110
00000000000001000000011110111011
11111111011111001100100101010101
00000000010010000000111110101011
11111111000010001111110001100011
11111111110010111110101110001001
00000000000111010101000101001001
11111111110100010111000100011011
11111111100010010001000111101110
00000000000111001110000010010001
00000000111011011110010111100101
00000000100111100010001100001111
00000000001001010001100000111001
00000001000101001010111111111010
11111111001100101000101011110101
00000000011101110100010100111111
11111111110110110101001001101100
11111110110010000000110111010100
00000000101111100111001000110100
11111111011000100101010010000001
00000000000011110000001100100100
00000000010011110001010010111001
11111111011101100110101100101110
00000001000000010101010101010101
11111111100101101101100101111011
11111111101001110111100011111110
00000000011010000010000001011001
00000000010110011011010111011111
00000000001101101000001100101010
00000000100000010000001011110101
11111111100111111101000001101011
11111111111000100010001001110010
11111111101100110001100110011011
00000000001111110010000010110000
00000000010011011100101000011110
11111111110101101111101010110101
11111111110101111110000011000110
00000000010001100101100011100100
11111111110101000101110011000010
11111111111001011010110101100001
11111111111101000111011000011100
11111111110001001110011011111010
00000000001100111111001101100010
11111111001001000100100101110100
11111111110010110101110101011010
00000000000111100101011110101010
11111111101111101100000111100011
00000000000001111000000000001100
00000000100100100011101111011010
11111111101010011110111111000110
00000000011101111111001011100111
00000000100010000111111100011000
00000000101110111011011001011010
00000000111110010110101110100001
11111111011100001111111100101100
11111111110001100001010001000001
00000000001111110001111011110011
11111111100010010001110011111111
00000000001010110111100011111101
11111111101001110010011001010111
11111110111100000011001110110101
11111111001111110001111111001010
11111111000110111110111010110011
00000000010101110011111011011010
11111111001000010001100011101101
11111111011111111010111011100100
00000000000000010110010101010000
00000000111100000010100100100011
11111111111101111110001010111111
11111111100110010100001011001101
11111111010001000010100100110011
00000000001001011100111111010101
00000000110101010000011010011110
00000000010011010100010110011111
11111111110100111000110111001110
00000000011011000011010100110101
00000001011010111100111100001000
00000000110111011010000111111110
11111111101111110101000101101111
11111111101110111001100111010111
00000000100000100011001110010101
00000000000100000000100000010101
11111111110001110111101000001100
00000001101001101000011000111001
11111111010001011011001010101010
11111111110110010110111000000000
00000000100001101010100111010000
11111111111011010111011111111000
11111111100110011000011011100110
00000000001110001101101001100011
11111111111101111001111110111101
00000000110001111000001110001000
11111111111000111100000101101100
00000000001001000110110101111111
00000000000001100101001110111011
00000000011000011010010100100011
00000000100101100101000011111000
11111111110001011011111011100001
11111111000011111110110110011010
11111111000010011000101100101000
00000000000110111001101010011100
00000000101010110101101000001001
11111111100000110000100010101101
11111110111110111000110110110100
00000000000011000000101000110010
11111110110011101100110101001001
00000000101110111000100011110101
11111111110000111110101101101110
11111110100101110100101000110010
00000000000100010001111010010000
00000000001011110010001010110010
11111111110011001000011011110100
00000000010011001010000001111100
00000000011100100000011110110111
00000000111101001010110101101001
11111111000111010010001100100110
00000000011010001011011111001110
11111111100111110001100001010111
11111111101011001000000110111001
11111111111001110011110000101101
11111111101100101111000010000011
00000000010010010111101111001000
11111111001111010100010101010010
11111111110100001111111001010011
11111111110001011100101110101000
00000000011101111010101011010100
00000000000000010011111010011111
00000000001110110001000011011110
11111111101010101111011000011111
11111111100000011110011111110000
00000000000001111110111000000110
00000000011000000001101110001101
11111111110111100100011011010010
11111111011100111100111001001100
00000000001000111101010010100000
11111111101011101011011111111100
00000000001110100011110110101111
11111111110011111000001010000110
11111110111010010111010011111001
11111111001110111101011010001111
11111111000111110000010100000101
00000000001111110010001011110111
11111111111100010100111110111010
11111111110100010001010001111010
11111111111001101011111101000000
00000000011000100111010100000111
11111111111110101100101101010000
00000000010010111000000110111001
11111111010011010010011000010111
00000000001001000000010111100011
11111111111001110010101010101110
00000000100111011000110011100110
00000000100100010111001111010100
00000000100100111111001111010111
11111111110000111011010111111111
00000000000000010111000001011101
11111111101011000011010000011000
11111111111111011111111010110001
00000000001010101101110010001111
00000000000000000010110001101100
11111111111101011100111001101011
00000000001000001101110100110110
11111111010010010000100100001010
11111111000001110110001010110000
11111111001100110111001011100011
11111111110110101110110001000111
00000000011000101111110011010011
00000000001000101110010001010110
11111111101001001111000001000101
00000000101111011010100110001101
11111111111101100010101101001100
00000000101111111010011010100100
11111111110010000011110100011011
00000000010001100111110000010100
11111111001100100000101000111110
00000000001101001000101111001001
11111111111010000101111111001111
11111111101010001100101110001010
00000000000101100011011001001101
00000000001010011011001100110101
11111111001101010011011101001001
11111111110011001110010111100101
11111111011110010111111011001000
00000000001010011000000111001101
00000000110010010011000010001111
11111111110101101111000011011000
11111111111111111110110001100111
11111111000101101101011100100111
11111111101010101001110001110000
11111111000110111000011001001100
00000000101000110001100001100000
11111111101000011101110001001000
11111111011100110101100001101100
11111111100001001000101011100010
11111111111110000010100001111100
00000000011000001010111100011000
00000000000100110101101100001011
11111111111100101111101011110101
11111111101000111000011111111010
11111111010110011000001110011010
00000000010011011110010111000111
00000001011101111100110110100110
00000000000011010010110000110101
11111111110001111100111001001110
11111111011100000010010101110010
11111111110100101101110111100110
11111111110111010101011101100110
00000000010100101110111111011010
11111111110111000100000001101110
11111111101000000110011100011111
11111110111110101110110101011110
11111111101110111101000010100111
00000000110100000000101001011101
00000000100111001011000111010101
11111111100011101100110001010100
00000000101010000010101010100110
00000000001101000010101011010000
11111111010110001100000001001100
11111111110111010111001101011101
00000000000101011001101100111100
00000001011001000110011010000001
11111110110101000101101110010100
00000000001011000101111011000111
11111111111101100011100100111110
00000000011001011100111100011110
11111111110111000001010000001101
00000000001100000001010010010110
11111111011000000100111001110000
00000000000011100010011101000011
11111110100010000000110000010101
00000000101110111001010011001111
00000000111100111101011010110100
00000000100011110010100111001011
11111111110011010110110110101011
00000000000100010110110110100111
11111111110101001110001011010100
11111111100111001000010110000111
00000000010101001000001010111001
00000000000100111010101011001100
11111111111110000000010101101001
00000000000001011101100100110110
11111111100010100001101110111010
11111111010110011011111110100000
00000000000100100100011101010000
11111111110010100011001001101001
00000000010010100010101000001000
11111111101011001100100000101111
11111111110110010000000000010111
11111111100011110110100001100011
11111110110010100111000101100000
00000000011100011111000110110010
11111110111001000000110100100111
11111111101101111111001100111010
00000000010001100100110100001010
00000001000100100001011111111000
00000000010010110011000011110101
11111110101101001111100011010111
00000000011111010111100010110010
11111111101100101011001000000000
00000000100101111000000101111100
11111111110010010101110100101011
00000000111001111010111101100110
11111111011100100101110100110101
00000000000110010010010110000000
11111111110000110110100000111011
00000000001001001110100010010101
00000000011011011110010100111000
11111111111010110010011101011101
11111111100101100000111000001000
00000000011011010111100000100110
11111111011001001111100110100100
11111111101000001100100100100000
11111111100011000100010011001111
00000000000000011110001011011101
11111111100100100010110001111111
00000000010001110101001110111011
00000000010100110101100011001101
11111111010010111101001100000001
11111111101101001110001010100111
00000000010110001010011001011100
00000000100010000011010111001100
11111111011001000000111110000101
00000000011100001010101100100011
00000000010100011000000100000000
11111110101110001110111101100011
11111111011100001111000100100010
11111110111100101100010101100100
00000000010001110000111011010000
00000000010111100011000110111111
11111111001010000100011001000000
00000000000100011010000011110000
11111111100110011010000011011010
00000000110000001000001101001001
00000000010000100000110101010110
00000000001001000111111001100010
00000001011000100000110001101100
11111111101010111100111110011100
11111111101101111100101000111000
11111111001011010111100001011010
00000000000101000010000101110010
11111111110101100111110111000111
00000000101100100111111111010010
11111111011001010110011001000000
11111111011101000100011001111110
00000000000110110110110011001010
11111111001010000001000110011100
00000000100101101000111011111010
11111110101001000001011111111001
11111110110011000010100000101101
11111111001011110101111111000101
11111111110000111111100101001010
11111111010111001011100100110100
00000010000010111001011001001000
11111111011101101001111101110011
11111111100111111001010111111010
00000000010011100000001111011001
11111111111011101001001000111001
00000000000110011000110101000001
00000000001001001110010000011010
00000000010110011010111000010010
11111111111101100111010101000100
11111111101010100100100010001101
00000000011000101111100111111000
11111111111011010000011110011011
00000000000101000010101010110111
11111111110110111110100011111101
00000000011000101011001110100101
11111111101111111111001001001101
00000000010001001110101001101101
11111111110111001100010110000101
00000000000011111101110111111101
00000000011001001100011111000000
00000001110000111110000000100011
11111111011110000110101101010011
00000000001110101001110111100000
11111111101001010111011010011110
11111111101110000011010001011001
11111111100011011001100000000101
11111111101110011001001011110111
11111111101011101000100110101011
11111111000110011100101101000010
11111111110100111101010010011000
11111111101011010110100101100101
11111110111001111001111000101110
00000000000011101111111000111000
11111111011101011011100000010101
11111111011000000011000100111100
00000000011110001101000001010000
00000001000011101100001111000010
00000000110110111101001111100110
00000000011001011001100111011011
11111110111000011101001000000111
00000000101000010110101111001001
11111111100011111010100101111011
00000000000001111000110111100010
11111111011111010100101111100010
00000001001101011011111101110000
11111111111011110000101001100010
00000000101010011010101000101111
11111111011110110101110010100010
00000000010000111001001010101001
11111111111010111000000111100001
00000000001011000101011011110001
00000000010000111101000010101000
11111111000111100111100010101110
00000000010001000101010011101100
11111111101010101011011001001111
11111111111111100100101111111101
11111110111110011011111100110010
11111111110000011100001001010100
00000000100011111000010111100101
00000000111001010001001100010101
00000000000000011101110011111110
00000000011000010011110100011111
11111111100101101001010010001010
00000000101101000000001011001011
00000001000111110101111000111011
11111111010010100000001110110000
00000000110110010110100000011100
11111111101010000101000100101110
00000010000101100100001101011111
00000000001010100110100000001110
00000000001101100011010000001100
00000000000010100101100001000001
00000000011011010000010100101111
11111111110100010010010000011100
11111111111001110110111000101111
11111111101100111110111010010001
00000000000001100100000110110110
00000000111000001011110111011010
11111110110111101001110001100000
00000000101011010101111111110000
00000000000011111100011111011010
11111111100100100110101010111000
00000000010001001010010111011000
00000000011001010100100000001011
11111111011100001101011100111010
00000000101001001100111010100110
00000001010001100000100000011010
11111111100000001101100100000100
00000000101111111110110000011001
00000000001010101101011110011101
11111111101100010010110000000111
11111111111101010100101011101101
11111111110101010100101001000010
11111111111001011010110110111111
11111111000111101101100011000111
11111111101100100111001000011110
00000000011111000110011001010001
11111111011100000011010100011110
11111111011111101110001111101001
11111111101100000011111110110100
00000000011100010000110011011111
00000000010111010001110100110100
00000000101111110111100110001000
00000000101000000011000111001011
00000000001110101010010101101000
11111111100110001101000110101111
11111111111110100111010101010110
11111111101110100100010111001000
11111111010101101110101101100001
11111111101000100111110000001101
00000000100100111100111000110011
00000001010110000000101101110101
11111110101100111110110111010010
00000000000001010010100110001111
00000000011000101010110100111001
11111111101010011101100011000000
00000000100001001011011110100101
00000000001101110110111010011001
00000000010001011000110000100111
00000000000101110010000010010001
11111111000101100001011000001011
00000000010010000001001010100011
00000000010010000000000010110111
00000000111101110111111011100101
00000000011101001000000100011001
00000000100001101111111100111000
11111111110001110010111001110010
11111111000110100010111110100100
11111110110110010000110001001100
00000001000100011101111101100110
11111111110100011001001101101101
00000000011111110010110001011011
00000000001011010000101101110000
00000000011010100101001111110111
00000001000110011011011101101101
11111111101100010100111101111101
11111110110010000000000111100011
00000000010000011111100111100001
11111111111011001001011000101000
11111111010000111101100000101000
11111111111001011011000101110000
00000000100101111010100111101111
00000000000101101011011001001000
11111110101001000001101100000011
00000000100101101000001101000000
11111111101101010001011100101111
11111111100001110001010101000101
00000000000001100101001001111110
00000000100001111110101110101101
11111111010011010101110101000101
00000000000001000011000011000010
11111110111000000000001011011111
00000000011111110001000101110110
11111111011101011100110111011011
11111110111111110101101101000011
11111111111000101001100111100010
11111111100000101111010001000111
00000000001101001011101000001001
11111111110100100010111110000111
11111111110111011110000011100111
00000000011110001110100000101001
11111111101001011010001011011100
00000000000000011111101001010011
11111111101011100001001001010011
00000000100111101100110011101110
11111111101011001011011111110000
00000000010101011101100111010110
00000000010101000101001011011101
11111111111111000000011011101011
11111111100001010100001110000000
00000000000011110010111111101010
00000000110101100011000001011100
11111111111010110111001110000110
00000000001001010010010111000111
11111111111011101010101000100000
00000000000110111100110000111101
00000000011100111000110011011110
11111111100011010100010100010010
00000000001011101010111001000000
00000000010010101011100000010101
11111111101101100110001100111010
11111111011110011101100000100010
11111111110110001000101010000010
00000000010100010000001100101000
00000000100000110111000101010011
00000000010100111000011001001101
11111111110111001111111010001011
11111111100001010000000111100010
00000000000010011001011001011100
00000000000101111100101100110010
00000000001111000111010110110000
11111111101101110001101111011101
00000000000010101110011101001110
00000000000100010100101010100010
11111111111110101110101110101011
11111111110011001111111010011001
00000000010010001011001111010001
00000000101101010000001100010001
00000000001011110100000001111101
00000000010011110011100101100101
11111111000100010011010010100010
11111111011001001110100001001101
00000000101111100100111010100011
11111111111101100000001010100111
11111111100110110001011001001110
11111111011010001111010101101011
11111111110010111001110111000100
11111111100000011110110001101010
11111111100101001101010000011010
11111111101101111101010000111001
11111111100111010011111000001111
