11111110010100111001110101100011
00000010110000011000000100001111
00000000011000001000101000111000
11111101100111000010100101010101
00000100110000101000011101101000
00000011111101010101110010110100
00000010100000011111000100010101
11111101100000011110101001011111
00000001111011101010101110101000
00000001010011011010101011000000
00000101001101000001100110110000
00000001101100110011101110010001
00000010100001011000110011001010
00000001001111100100001100101001
11111101000001100100101101010100
00000011101001000111101001011000
11111110110011010011000110000000
11111101001011110101111000010111
00000100011111101011000000101001
11111110010000101010001011101001
11111101110100111100010100000010
11111011000001000111000010101001
11111011001111110001001100001111
00000011010111110100001101101000
11111011101100110010001111101001
