11111100111100100111100110000110
11111010101000001001110011001010
11110000100101010001001110111101
11111001001000011001000101101011
11111111000000011000000101001000
11110011011010111010000100101000
11101111000000101011000000000111
11101110110001011101011101111100
11111000011110100000001101111110
11101010100001001010010011101010
11110011011010111000100011111101
11111000100101100100100010100110
11100111101011010000111010000000
11110000001010010101001111000011
11110000100000111010000101100001
