11111111111110001000110000001010
11111111111011010001010111010111
11111111111011100100001011000110
00000000000011001111000001011001
00000000000101011100001110101100
00000000000110100001101100000100
11111111111111110111110001100000
00000000000101010110100010111100
11111111111101010111101111101100
00000000000110111101011110111010
11111111110111100001001000101110
11111111111010001001000101100000
11111111111111001010101011100000
00000000000111101101111101110010
11111111111110001110011001110001
11111111111000011011101010100101
11111111110101010101110110000001
11111111111100010110011011011101
11111111111101011101010011111000
11111111111010110011111010110100
00000000000011100110100111101101
11111111111100111010011010111100
11111111110101100011101011101010
11111111111100001011111000001110
00000000001110001001111110101001
11111111110111010101001001011110
11111111101111111011011001111110
11111111111011101000100001011100
11111111111101001011001100011001
00000000000011001100100010111001
00000000000101111101001111100110
00000000001100001001110010111001
00000000001001110101111010110100
00000000000101111110101100101001
00000000001000101100101110111111
11111111111101010011001110110111
11111111000110001101110010011100
11111111101110101111100100100100
11111111111110010111101010100000
00000000000011101000001011010001
11111111111110100010010101110000
11111111110011110100010001110100
11111111100011100101101110101001
11111110111110101001010010100110
11111110110000000101100010101111
11111111110111110001000001110100
00000000000001001011100001010111
00000000101010101000111111001111
00000000000110100100010110111100
11111110101111000011010111001100
11111110101110010100010001101000
00000000000100010010100000010001
11111111111011000110001010000010
11111111111111110100011010101001
00000000000001110111010011010101
11111111111101100010001101000010
11111111111000111101001010110000
00000000000001010011110010000010
00000000000101110111010110110000
11111111111001000001000000101110
11111111111010111001010011000001
11111111111100111111110001100110
11111111111000001100000111000101
11111111001010011010010101110110
11111110011101110101111010001101
11111110011011001010111011100111
11111111000010101001010101101100
11111110011010110101011100110001
11111100011100110111101101111111
11111010101101001110101000001011
11111010001000011111010010010010
11111001110111000111100010000011
11111101100001010011111011111001
00000000000100001100000100110101
00000001110010001011001010000001
00000010001111001011001001011011
00000000111111011101001100001111
11111111011010010001111001010110
11111110110111011100111000111010
11111110011011111111101101010100
11111101011010100001100000011110
11111110101010001001010100110110
00000000000110011011000011000001
00000000001000000010101011010011
11111111111100111101000100010000
11111111111101111101010111111100
00000000000100011001011110001111
11111111101110001101100010101101
11111111111111010100000110100001
00000000000001001101000011000110
11111111011111111011001010100100
11111110010001110100111010110111
11111010011111100101100010001101
11110111101101011010111100101011
11110100000110100001111101010101
11110100110100101001000010100001
11110010010110010110101010110010
11100111001011111111111101110001
11101011011101001000011110110000
11110001011100100100110101010110
11101101100001011101111111011000
11111101011111011010110101101000
00001000000000111000110000001110
00000000011110001111111011100110
00000111110001111001100010001110
00001001111111100100011010111000
00000100010110011101100011111000
11111101100000101011001010110001
11111010000101101101101111110100
11111111000110000000110011101001
00000000000010001011011010100001
00000000000100000011110100010100
11111111111111011101000111100100
11111111111100010100110010100111
11111111111111100011101000001010
11111111101000100001000001000110
11111111100010000110011111011010
11111111100010001001010101011101
11111101110010111001000101101010
11111100101000000010110010001100
11110100001001011100100101011000
11110000011000001110010101010000
11101100101100111110101110000010
11110000111011011110101011011001
11110111111101011101000000001011
11111011100010111111101101011011
00000001011011011101100100000000
00000001001011110001101011001000
11111111010101000001111101010111
00000101100101100011001110101111
00000010110110110011110001001010
00000000001001111100000101000101
00000001100010010001010111000000
00000111011010010101111001010111
00000010011001001010001110101000
11111101110100011011000011100001
11111111000010101011100110001110
00000000101111010000101010001101
00000000100000010100111111001000
11111111111001010000101010000010
11111111111011001001100000110101
11111111111000001101011111100011
00000000000100100100001001000011
00000000001101011010001100110110
00000001011110011101000001100100
00000000000011011100100000110001
11111110101011001100000111001111
11111100010100010100000111000110
11110100101001111010111100010101
11110011110001110111110011111111
11101111111101101110011110110000
11111111100001110000100110110111
00000011000010110100111001110001
00001100001001100111011001001101
00001010001001100101000111010100
00000011010010011011100000000010
00001011100100001111010111001110
00000011101000101010111110101101
11111100111011101000001111100010
00000010010011011100011011110000
00001010001110010111100100110000
00000000010100011000100010100101
00000100111010011001101010101110
00000111011111000111111001110111
00000100011111011010111001001110
00000010101000010011101110100101
00000000010001110110111110001100
11111111111010011011011100000111
11111111111010010010001011100100
00000000000110110011000110010100
00000000001101001111000111011010
00000001011111110101011101111100
00000100010001101010000100001001
00000110011101010011111000111000
11111110101011001111000100101110
11111001100000010001011100100101
00000011110000011010110101000110
11111100010010100000111100010001
11111110110000001001100101111101
11111111000111001111000111111111
11111110110000100011010010001100
11111011001111110111010100010100
11110001110010110010000010011111
11110010001000001011110011000000
11101111111001010100110011110101
11111110011011011111001110010001
00000100000101000111111000101110
11111010100011011101010101000000
11110010010001011100100101110100
11111010101010111001100110011111
11111111000110101001011111100101
00010000100001101100101011111110
00010000011001111011000001001110
00000101101111100110110010000100
00000001011111011110000011101010
00000000001101010101111001100101
00000000000010001010111010010010
00000000000001001011110101110101
11111111110111001100100101001011
00000010110101101100111011000101
00001001001100011000101110101110
00000110111100101000000101110000
11110111101010111011011110011011
11111001110011010111110001001001
00000101101010110010001100111011
11110111111101001110110101011000
11110001011000000001011101100000
11101001010111000011001001100001
11110000011100001101010010100111
11100101010010000011110010111110
11100101111001110101100011011111
11110000100101001001101011100000
11110000110001110111011011101110
11101110011001101100101111000001
11110001000111110110110010001011
11110001011011001010111011011010
11101110111101001000111110111001
11110010101010111000011010001101
00000011010100001010100011001100
00010010111100011010111010100111
00010101110010101011010101001100
00000110001010011101111100111110
00000001010101111110001000100011
00000000001001100010000001110011
00000000000000111110100101011100
11111111111011001011010011010010
11111111011011111100010000001000
00000011010100010010001101101010
00001010001110010000011110011100
00000010100010111010011111001100
11111000001000100100100101001100
11110011111001001101100011010100
11111111100110001000101000011010
11101101000100110101010001000101
11101100001100111000101010011111
11100111100010101000101000101000
11100101010001001001110101110101
11101100011111100101000111010111
11101101001111111011100000011000
11101011111000101001000101000001
11101001001001010001100000011011
11101000001000111011010110011000
11101100011011110111000111101110
11110001100001001110011011101101
11111011101111101010000101100010
11111001001000011010110100001000
00001011101011000100100000100000
00010111111110010110000011100011
00011110010111110110001111000000
00001011011111110111000110000010
00000010110011010100011100111101
00000000010011011110110101001001
00000000000000110100100010110000
11111111110110001101010011100101
00000000001001001011001001110111
00000010001111001011110000011010
00000011101010010010010110000110
00000110000110110011010010001100
00000011000001110011100011110100
00000100101011110100001001101110
11111100101001111011001100101010
11110001011110011111100110011011
11110110001101001111110101010100
11101101101100011000100010010001
11110011000101000100011000010010
00010011100000001011011100101000
00010010001000010100000000111100
11110101111100101111110010101111
11011011001011100111100100100100
11101101000010000001110011010101
11101100010101010010011001011000
00000100000011000001111010001101
00000110010001001110101110100010
00001101010001101100010001011011
00010100010100000100001001111101
00011111101101011000100000110111
00010111010110101010010011111111
00001010100100011000011001101000
00000010111101100101110011000000
00000000010000010101101111010011
00000000000001100110000001111111
11111111110101001101001010110001
00000000000111000000110101001111
00000001010010010010111010011001
00000000001100100111011011100000
00000011011101001001001101000010
00001110111010110011001001111000
00001011011101101000100001110011
11111111001100100000100000011100
11111100111110111100001111110100
00001001101011110101000001011001
00001011001111011100111000101011
00001100101011111111111001100010
00100011110100011000101010010011
00101101000111111011010110101011
00000101100110010110111001101111
11100100101010100101011110010111
11110001011110001100011011000000
11110111010111100101010010010101
00001000010111101110101100100110
00000010100011000110000011110000
00010011110110011101010011011111
00010101111110000110101110100000
00011001101001001010100010000100
00010100100011110110100011011001
00001001011101001011110011101100
00000011111100011000100111101100
00000000010011001111111101000011
11111111111101011000010100111111
11111111111001000111100100001110
11111111111010110011100100110100
11111111100111100001101000100000
11111111111010110100000100011101
00000100110110001111001000010000
00001110001001010111100111001101
00000111101101111110110010010100
00000011101000001010101001001011
00001000101011000011001010001000
00011111011101000010000000011100
00101001100000000001001011101110
00101001111100000010011000000100
01000010100111001001110111001101
00110100010010101010001010001010
00010000001100100001001101110010
11111000111110111011000011011101
11111010000110110110110000010010
11111110011010110111010100011000
11101110101000001010001001011001
11111010100010110101100100110111
00000001010000111011100111110111
00000111101001011111010010100000
00010110100101000010010011100110
00010100111101010010111000110111
00001010001011001111001011101000
00000100100010011110110101011001
00000000001011010001101010110000
00000000000000101111101110011001
11111111110111000000011011100000
11111111101100010010111100111001
11111111010100111011100110110011
00000000110000011010011011101101
00000010011001100001101001001101
00000100101000111010010001011000
00000110011011011001001000000110
11111010110011100101000000111001
00001100001100010000001110101101
00100011000000101100110010000101
00100101011110111101100100101001
00101111010001100001001001010010
00110011000110111000111101111101
00011101000011000111001001001101
00000111101010000011101100000100
00001000111000000100101101111110
11111111011011110111000011110011
00000001101110111010111100010010
00000010010011010110111101110110
00001010101011011010011101000100
11111110000100110110010110111101
00000100010001001110000100000010
00001100011001101100101001010110
00000101011110110100000001100110
11111111100110011001111100011001
11111111011101100010111111100001
11111111110011111111010000000111
00000000000000100110100010111101
11111111111010000101001001110000
11111111110010101010110101110011
11111111110111110001000000011110
11111111111010001010111011011111
11111111011001010111111010001000
11111110010100110010000011101001
11111001110100111011011010001001
00000110101101111100101111100100
00001111110101100111010111011101
00010001010000111010100001100110
00011101110101001001101001001101
00011111110111110110011100011000
00010100011110011111011101011001
11110110000001111101000010000101
00001001101000010101000010110111
00001110000111000110000100001101
00001010000000110010000111101011
00000001011000001100100001001110
00001000111010101101010011100111
00000000101010000001100011011111
11110011011001010011000100001100
11111100111000100111100001110001
11111011111110110000101001110101
11110110101011001110110101111000
11111010100000111010010101101011
11111110110110010100100110100001
11111110111011110101000000010100
11111111111110100000010010100010
00000000000111110110100111110011
00000000010001110000011001100010
11111111011110000111000011000110
11111110000000010001110010001100
11110111111010011001101100110001
11101001110110001001101101111111
11100001111111000110100010000000
11111101001000101111111100000010
11111011101101101111111001000010
11111101100000110011100100000100
00010000101000101100110001101010
00011101000011100011011000100101
00000001100111101010011111111101
11111000100011000101101000000010
00001011110011101001110111100000
00010100010000110101011001101110
00011110001100001000110110100011
11111101100001110011110001001001
11110100001011100101000100001010
11110001101100110111000001001001
11101101011110111110111011110100
11110110100010100101110011111110
11110110011100011101001110001001
11110000011110101100011011110110
11110101101101110011010101011010
11111010101101000011010001100001
11111111100001101110111110111000
11111111111111001010110110100111
00000000110101000110010010101000
00000001000000011100101100101101
11111111001001110001111011101001
11111100101000000101010111010001
11110010010110011111101110010011
11100010001111000000000100111000
11011001111100011000101110100000
11100010010101011000100001101001
11100001011001110111100100101000
11011010100110011101101111101100
11111000100001010101000101100111
00001011001010000010010110010001
11111100011101101011001100100100
11110011100001111100011010000100
00000100010010010110011011110110
00010000111111000110100110001101
00000101100010001010111011100010
11111101010110100101110001101111
11110010111011111101001100011000
11110000000110110101000011000111
11101111100100000110110110110101
11111001110010111011001001010001
11111001100101010101110101101000
11101110101010101000101100110111
11110010100110111000100000011111
11111001101011111100010011100011
00000000000000011001100100010010
11111111111101010000001001100101
11111111111001100101111010111101
00000001011000011100110111111001
11111110011000000110110110001110
11111000001100010111011011110101
11110110011011101000011101101101
11101000110110001000111111000000
11011111110010111011000011111100
11100000110111101011110011111010
11001111111010110010110111111100
11011000101111000110100000100110
11110111100111101100111011100001
11110010110000101111010011000001
11101110010100010101110110110000
11111100011100111000001010101000
11111110111001100001001010110011
00000110111111101100001011010101
11110011101011000001100010110101
11101100110001100110111101111011
11101000100100100010010011100111
11101110000101101100010001100100
11110000000001011010111011101001
11110101100100000111100001100000
11111000110001110110101011111111
11101001000111101111001011001000
11101101000001010111001001010010
11111010101100011100101010011111
11111111111001001001110011011010
00000000000100010110011111000000
00000000000110001111111111101100
00000001000001111001001001110100
11111110101111010110111011011001
11111000000011001101000011011100
11111000011111001100111001101001
11110010111111101011000001101101
11101001011010011101011011011000
11101010111111101010010010101111
11100110111000011100101101010000
11101111000011001000000111110000
11110110111111011101110001000001
11110010100100010111101101100010
11110011101111000010100001111110
11110010010011000100011100101001
11100010111100001111011011000001
11111001101110101111001111101111
11111000100111101000100101001111
11110100010101111101011100010101
11101001011010110001001101101100
11110111000100000100001011111100
11111110000110110000010101010010
11110100100100110000000100110010
11110011111010110001100000000110
11100111001010110000111011001011
11101101101111110101001000011010
11111011001100000010000011000001
11111111110101100001010110100111
00000000000011101010000001011000
00000000000100100001010110101001
00000000111111111100101111001001
11111111100111010000101011110110
11110011011011101110001101111001
11111100111110111000001100100011
11111111100101100101111111110010
11110100001000011110010000000010
11111001010101010000001110011111
11101111111100100010011101010010
11101001010100110110111000101001
11110000110011010010101111010100
11100100101110100010000001100101
11101011101110010111101111010110
11100011000100001110110110000001
11100101111000000001101110001100
11101111000011001110110000110100
11101111111111000101111010101001
11111000110011011111100111000011
11110011110000001101101001101111
11110111001110100101001101000010
11110100111110010000111111010000
11101111010001011110101001101001
11100111000111000100011101111001
11100110110101100101100000111001
11110110100010101101110001011000
11111110011100010001010110100110
11111111101011100111000100011101
00000000001001110000100011000111
00000000000011101110011001101100
11111110111010100100111111100001
11111011101110010111100000100001
11110011011110010111100001110101
11111111000101101111000101010001
11111110100011011001110000111110
11110001000011000000111111011001
11110010001110111010010111001111
11101110001110011100011001110011
11101111010001001110100000010001
11100110100100010111111001011101
11110100000101011101111010101101
11101110011010101100111000101001
11110010101010101010000001111111
11110110011101011011100110011101
11111111101100100111110110111001
00000001100010101101001110101001
11111111111110011010000111011111
11110110001111000000001101101011
11101101101100001011100100010001
11110111011010101000001110110101
11100010110011011000111101111100
11100011011000101110001000011001
11110100100110111110100101010111
11111001100000011000101101111110
11111110101100100101000011101110
11111111100100101011011101010010
11111111111111101111101000111011
00000000010110011000111001100011
11111101110110100011100010000110
11111001011011110010111101111101
11110010001101001000111101000001
11111101101101000001011110010001
00000000110000110100101001010000
11111100100010000011101001111010
11111101110011000110001111001110
11110110010010111111100111011001
11110100101111011100000001111110
11100010101110101111111110000101
11101110111100000010010110101100
11101001110001111010101010110100
00000001110101000000010110100011
00000010101101100010100111111011
11111110100101001010101001000110
00000011011111001011011011100010
00000011101000110111101110110010
11110110001100110100011001000011
11110101101001001010010000001100
11110000101011010010111100111011
11100001101001010001010110101000
11100000111011100010110001111100
11110000000000011111111011000100
11111010101111011011011100111110
11111111010111010011011001111010
11111111110110100100111001011111
00000000000001001001000011011101
11111111111010001010001011000100
11111101110000010101011101100000
11111100010001000110110111010100
11111001010100111110001111000010
11110101000011010001100011011001
00001000100111001011011010011001
00001110100110011100001101101101
11111100011111100110100000111001
11110110111010100100111100010111
11111010100111101010100001100010
11110100010001111011111111101111
11101010010101011011101100101111
11101011111100101111001111000000
11111000111111101001001001110100
00001011101010001100111010101110
11111110111001100101100100111101
00000111000101111010000111011101
11111111000110000111111000000011
11110010101010001000101001011100
11111101111100001101111010101100
11110110101111101110001100101010
11100111000001100101000011001000
11100100010100111010011111001011
11110010001111100111100000000011
11111001000000101101010111110101
11111111110111100010101100100011
00000000000001001000111011010100
00000000000100110111001111000011
11111111111101011110111010001100
11111111101100001110011010110111
00000000011101100101101100011011
11111010100000101100011110101010
11101111111011010000000100010100
11111101100101001011010000111011
00001000000010001100110110100101
00000001001100111110100001100011
00000001100111010110000000111111
00001110100111011010010010011110
00000100010110100101000011110000
00000110010010011100010101111001
00001101000001011001101011100111
00000011101000111111100001001111
00001000010110001011010011001111
00010100001110011010100001111110
00001010010110101111101100100110
11111001111000001001110010001100
11110010010111010000011001000000
11110011100110100011111001011001
11101111001111010010010100100001
11110000101100110001110101010010
11110001000000001010110101110101
11110110100000111011011110110101
11111001011100010010010011000110
00000000000100110001010110111101
11111111110110101101101000111001
00000000000001101011000110110011
11111111111001010110110010110111
00000000011001100000010001011011
00000000100111100111011011011111
11111100011000010001001100101001
11111000010010101001001001111110
11110111001010101110110011111101
11111100000111001000010110111100
00001010011101011101011011001110
00001001111101100100000111100111
00001011010011001111110100001110
00000110110001111001111101110010
00010000010111001010010011110001
00011100000110100010010000000110
00100011100100110000010011111100
00101110110110110100011010001110
00011010111100110011001111111001
00001010011011111100100111110111
11111010011000000011011100011001
11110110111001110111101000101001
11111000110111110111000010110101
11110101101010010101100001011101
11110110111110001000010000110010
11111101001101100010110110000100
11111111010011001111011100101001
11111111000100011111011011011111
00000000001011110011100001010000
00000000000000101001110100000001
11111111111111000101101111001000
00000000000010000011100010000110
00000000000101101111110100000000
00000000011001010111101100100101
11111110101111011111011011101100
11111001111111111101010110101000
11110111010011100101100100010101
11111010011101101010100111001110
00000001000011100001101001100110
00000111110100111011000010101000
00001100001001101100000100110000
00001111011110110100101010111011
00010001101001001110001000111000
00011011011001000011001010000001
00011011100000000110011100011011
00010011110101110100010111101110
00001101000101100100100110101100
00000100101011001000100010100001
00000100100011111011101000001011
00001000010000010000011010111001
00000011100001001000001111111110
11111011010111101111011001101000
11111100100011110110110111011110
11111110110011010101110101001000
11111111001100100110010010100001
11111111011011101000110101101001
11111111111011101110001111111101
00000000000110101101100101110010
11111111111001110101010111101001
00000000000101111011011111000001
00000000000110110011110110001111
11111111111111101100000100100000
11111110111101000110111100100111
11111100001111010100000110000000
11111010000110110000100001010010
11110110101111000010110111011000
11110110011110110110101011000001
11110111001111100110110110111000
11110111001101010111011111110111
11110111001010001000010001100001
11111000110011010010100010001010
11110111101110010100001101001111
11110110001001000000000101011001
11111001011010010000101111000001
11111110100110000000011111010011
00000011111001000000001010100011
00000110000101001010111001111011
00000100000111111000111010011001
00000000100010111001011000100111
11111111101000010000100100111100
11111111110010111100000010110101
00000000001001011111100001001010
11111111111100100010001011011101
11111111111101110111101101000110
00000000000001011010011010110000
11111111111100010011111101110111
00000000001010001010100101100011
00000000000101100001101011110100
00000000000001001101001100101011
00000000000100000101110101010100
11111111100110001010111001101111
11111111101111110000110101001100
00000000001011011100110011101100
00000000111001000100010000111101
00000001000000110000011001011010
00000000000000111010000001100101
11111110001010100111000101110100
11111100111011111011010001110101
11111011100011110011000110101111
11111101001000001110101011000111
11111100110101010111100001110111
11111101101111011011100010000010
11111101001011101000101000110100
00000001010001011011101111110100
00000001100111101111110001000100
00000000010111011000111001001111
11111111101111010010101001101010
11111111010110000111111011010001
11111111111100000110111101110110
00000000000101001011001110100111
11111111111001100000000011001100
11111111111000100111100000101101
00000000000001111101110011110110
11111111111100000000111010100011
11111111111000101000110100011001
00000000000001101100111101111100
11111111111110011000011110000101
11111111111110100000001011010001
00000000000000010101110000011011
11111111111011011111111111010011
11111111111100101100011010111010
00000000000100000011100011100001
11111111111101101101110111110011
00000000000110100010111100001000
11111111111110100110100101101010
00000000000001010010010001010011
00000000000011010000110101000111
11111111110101010011001111100100
11111111101011011011111100001101
11111111111010000010000011000101
11111111101011010011001111110110
11111111111010111100001111011010
00000000000010101000101000010010
11111111110100000100011001111000
11111111111101010000000000110101
11111111111010010001100101100111
00000000000000000100111000101110
11111111111111000101010101010111
00000000001010010000001110101011
00000000000010000010100011011110
00000000000101010000001011001101
11111111111100101100100110011101
