00101001000001100100000001100110
11100100101100000001000101011101
11111100110010010100001110110110
00000011001011100001000110011110
00010011000000111110111110001110
11111001110010011001101011101100
00011000010110110110110100101000
00110111101001110101010001101111
00010010101111010010010110110111
00000110101110101000110101010100
00011010101101001111111111010000
00001011011111010000000100111111
11110011010101101111010110011110
00000001111010110101110010011011
11011011111100101111010110011111
11110100111100100000010000111011
11010001111000110000000111100111
11000111110111001010100101000000
11101001110010101110000110100111
00010011111101001100111111001111
11110000010000110010011100110110
00000111100101101011110011111000
11111001010100010010100011000101
11111101101001001001011000111001
00011011000110110100010010000101
11001101100110110011100010110010
00000111011110010111010101111000
00110011110011011000101001110111
11111101010111111000101100010011
00001110011100011000110101100010
