11111111111111101010101011110011
11111111111101001010000110010000
11111111111111111100010001001011
11111111110110010110011000001101
11111111111101011100001011001000
11111111111101110110010100000000
00000000000100110100000011100101
00000000000110100000100010010000
11111111111101000010000101101100
00000000000100110000101001000010
00000000000100000110111001011000
11111111111101001110010111010011
00000000000000011011101011000001
00000000000001001110101001100001
11111111111001101100000101111001
00000000001000000001011011000110
00000000000000111011100000101111
00000000000010100101100101101111
00000000000000110010001110100111
00000000000011000001001110101000
00000000000010000101100001100110
00000000000001001110100000001011
00000000001000000000000111111000
00000000000010111001110111011010
00000000000001111011101010100000
00000000000000000111000011000110
00000000000001101100011001110000
00000000000011011001110010111001
00000000000101101000001001100010
11111111111111001011110101010011
00000000000001000101010011110001
00000000000001010011001111111011
11111111111110010001000000011010
11111111111111100101001001000000
00000000000010010101011010110001
00000000000100000011110100011111
00000000000100001001100010010110
11111111111010110111101110000001
00000000000001100100101000011111
11111111111110011111001100001100
00000000000010010010011100001101
11111111111011111001110001111110
00000000000010000110101000111001
11111111111001001001000000010000
11111111111000100100011101110101
00000000000100111000011011000111
00000000000000001111010110010011
11111111111101101111101010001110
11111111111010001011100100111100
11111111111110011110110101110001
00000000000110000000010001101011
00000000000110010001100010010010
00000000000010011110111010101011
00000000000001011010110010001111
00000000000010100011000010110010
00000000000100110111001000100110
11111111111011111000110011101100
00000000000101100100110111111010
00000000000001110110101101010101
00000000000101101110101111010011
00000000000101010101000101010000
11111111111110101101111000101110
11111111111011000110010011101101
00000000000000111101000000010110
11111111111111011101101111111000
00000000000011111011001010000011
00000000001000000101010110101111
00000000000111101010010110101100
00000000001101100011001000011010
00000000000001100011111100110101
11111111111001011001000101000101
11111111111101100101011111101101
00000000000101101111010101100011
00000000000110111111100100110001
00000000000010001010111000100100
11111111111100111010000100010000
00000000000010001101000111110101
00000000000111101000011001110100
00000000000010111000100101011101
00000000000100000001000101100101
00000000000100001111001110110111
11111111110101011110011110011111
00000000000000110100110000000001
00000000000010110001001100110011
11111111111101001110100010001000
11111111110111111110010010111100
00000000000010111011100101001011
00000000000011100110111100000100
00000000000101001111111011010101
11111111110110111100101011000010
11111111111110001111000110100110
11111111111100101001100000100111
11111111111001000000101101001101
11111110111101111101101100000101
11111111001000111100111111010101
11111110010110001101011101010101
11111110110011011100011010001110
11111110101100101101001001000111
11111111100101010111001100110010
11111111111011010101011100001010
11111111100101100111000100001001
11111111001010100111101010010111
11111111011100101010101110000001
11111111101100110011100001100110
11111111001000111101111010100111
11111111011100011000100111100110
11111111110101100011110101000000
00000000000100101101110101011000
00000000000101100000011110101000
00000000000000100000011111101001
00000000000100110000110101001011
11111111111110001001101011110010
00000000000110011111011000101100
11111111111110111011100001001010
00000000000010101000111110010010
00000000000111010100111011110000
00000000000100111111011010010111
11111111111111011100011100010111
11111111110111101010010011010101
11111111110010110010000010100010
11111111011111111110100011011111
11111110000100100001111001110000
11111101101110110001110001001101
11111101011111000100101110111001
11111101011011010111000100010110
11111110000110100110111011001011
11111110110010111111001000011010
00000000001010011000101111000110
00000000101101011101011001000101
00000000010111101110010011011010
00000000000010000110001001111101
11111110110100100000101111100100
11111111100101111000100110110001
00000000101001110000100110101111
00000000101010100110111011101001
00000000010010001110110011111010
11111111111001100101100101100111
11111111111101010011001110011101
11111111111111011011111001011011
11111111111111010001010000000011
00000000000110101001011100110000
00000000000101001011100100110010
00000000000000010001101110111101
00000000000101110011001110010100
11111111111110110011000111100010
11111111111000000010111100001000
11111111110001101110100010111100
11111111001010101100110101101001
11111110011101011011100000011110
11111101100110100101011111101001
11111101001011100011010111010000
11111101001111101001110111111001
11111101000101011010001011010101
11111100111001001101110001000110
11111101111001110001101110011011
11111111101011011100101000100001
00000000100101011111000000000100
00000000001110010100111011010101
00000000100110100111001101011100
00000000010011100111110000011011
00000001100100100010110001100110
00000010111000100110010000010001
00000010001001001000001011001110
00000000011110100110111010001011
11111111100100011001010010011000
11111111110000010011001001011110
11111111111010001010101010110110
11111111111111111111000100011111
11111111111110110001111101101001
11111111111111110111000110100001
00000000000000110111110011011011
00000000000000010101001111001010
11111111111001010100000001100100
11111111101110101011000101010100
11111110111110110010100110010110
11111110100111101011010101110010
11111101111110011101110101000011
11111101011011010101011101001110
11111101000110110111010000001110
11111100010011111011001111100010
11111011101010000010100011000101
11111011010010111000100001101100
11111100010001111010111000001010
11111101101100011001101100101010
11111101111010011111110011011101
11111110101001000001010000001011
00000001000110110011001100110011
00000000110010101000100011010101
00000010000111110101000011111101
00000001010101010101100011000110
00000000111101100010101010011100
00000000000101010001000000111010
11111110111110101000101110001100
11111111100001010000111100101010
11111111111110010010100000000000
00000000000010011101011000111000
00000000000000110111000000000111
11111111111110011111010001000011
11111111111001100110001110010101
11111111111110110110011011001110
11111111111000100000011001100000
11111111011110100101000011101001
11111110100100101100100111001001
11111110010000001010100011111100
11111101100010111000111011010110
11111100110101111100000111101100
11111011110010011011101000000100
11111010111111100101001111110011
11111010100011011010101010001000
11111011101001100111001101100110
11111100010110001000111111010000
11111110100010001001000110010001
11111101001101010011110000101011
11111110010101001010001010111010
00000000001001111011110011101101
00000001110001010010001010101000
00000001010111101101010000000010
00000000011010110001011000100101
11111110111101000110011101011110
11111110000100101100010010111100
11111101111110011000110001100011
11111111000011110111000111001000
11111111111010110100001011100011
11111111111110010100001011101001
00000000000110001110000100101001
11111111111111010000101011111011
11111111111111110010000110100000
00000000000100001011111001111100
11111111111001101100001100111101
11111111010101011010000101101010
11111110111011010101100101000001
11111110010000110110011101000100
11111101111010110111011010011111
11111100111110001011001101001101
11111100010010000111000000100100
11111010111101101011010010110110
11111010011011100110001000110110
11111010100110100110110100101101
11111100100101011110110111110100
11111110111100101001010010010101
11111101101010111110010010011110
11111111100110000001011110111100
11111111110010001111010100000000
00000000100111100110000100100100
11111111011101101011011101100110
11111110101000010110010011011111
11111100010010100000100000001010
11111011111010000100000100010101
11111100111111001001010001011010
11111110010010000010010111100101
11111111111000001011100011001101
00000000000010010010101101001011
11111111111100101101100111111110
00000000000010100011100011101100
00000000000000011111000000010110
00000000000010110100110111110100
11111111110001111011010000001010
11111111011011001100110010000000
11111111001010000100101110111001
11111110111011110110111111111000
11111110010001101101011000100111
11111101111010111101101010100000
11111101000101010101100110101111
11111100000010100110101011000011
11111011010010011010100010011111
11111100110111110101110001011010
11111110100101001101001110010010
00000000101010101011010011111010
11111111101010101001011011110000
00000000010000110101000101100010
00000000011001100111011010010010
11111111001010110011011000011100
11111101111110000000100000000001
11111100110000000101000010111000
11111011111010111011001000011101
11111100001110100111001110010111
11111101011010110001000011101110
11111110101100110100100010110000
11111111110100101010011011110011
00000000000101011100101110001111
00000000000101001111011010011001
11111111111001111101000111001110
11111111111010111011101010111101
00000000000001100110111110010111
11111111111011010111001100011011
11111111011110010101101011000010
11111111001011010010101010100010
11111110111011101011001001101000
11111110101101011100101110000010
11111110000000001100000011000001
11111101100101110001101100110101
11111100100011100001100101101111
11111011111110010110111100110001
11111101101011000001111100001010
00000000001100000010001011010011
00000001011100001100010110011100
00000000000001111101000101011001
11111111111111110011001011011111
00000000101001011111110010000101
11111110110011100001001010011100
11111101000010000001010110101101
11111100110100111001001001000110
11111101001111001011010011100110
11111101101110010100011110101000
11111110110000001111010101001000
11111111101100110011100101101000
11111111111110100001101111000010
00000000000000001001011010010111
11111111111111101000001001101011
11111111111111101100110000011010
00000000000101101010100000110100
11111111111100111100110110110000
11111111111110011011000101111111
11111111110011111110100011010000
11111111010011000011100001001010
11111111001010100110110011010100
11111110011011011101001011001010
11111110001111110000101101010101
11111101110010100000110110110101
11111011111111001000000100100000
11111010101101011101100011000100
11111110000110100001001101000100
00000001001001100010000010101001
00000010001111010111111111100110
11111111101101100001000001011110
00000000101111101001101100111101
00000000001001001010011010110110
11111110010010001110100100100011
11111101100100011101001111000010
11111110000101101000101111111001
11111110101001100011111001100101
11111111001001111101011010100011
11111111100000011000111000010101
11111111110110111001011000111011
11111111111100000011000110000100
11111111110110011001001110011110
00000000000001010011010101110011
00000000000101001001110111111111
11111111111101101001100101011111
00000000000001100101001110100110
11111111111101011111110110000111
11111111101101100011110110001101
11111111001011110100010010001101
11111111000101001010100111000111
11111110100000101100011101010001
11111110011011000101001110011000
11111101100000101010001010001011
11111011000101110010110001101011
11111011101001011110010001111000
11111111011001101101001100101000
00000010100000110100101101100001
00000011001001011101111011110100
00000000111001111000100100100101
00000001100010111110000011110100
11111111001100110010010111100011
11111110101100100100010111100011
11111110100011101001001000111001
11111110111011110000101101001001
11111111010010001110101110110011
11111111101000001011000101101011
11111111100010100001011100111110
11111111101101111010010000001111
11111111111101010011001110001010
11111111110110100111000000101010
11111111111110110001110011000110
00000000000001110101111011010000
00000000000100100111111101000100
00000000000111011101011110110010
11111111111000101110011101000011
11111111100010111110000011111110
11111111001010010010110111010111
11111111001100000111011000011111
11111111000010101001110111100100
11111110001011101010101100101000
11111100101111000101101110011000
11111010101001100110000010101000
11111011011001101001011001000011
11111111001111001110001001010111
00000010001010011100110100101000
00000010001100110110100110010010
00000001100000100010010101110011
00000001011000110011000000111010
11111101101011000100111011000011
11111110001100000011110111010010
11111110100110010111011101101110
11111111000111000011101100001001
11111111101101111101011110000100
11111111100101100011000111101110
11111111100111100110010010000000
11111111110011110000001001010011
00000000000000110011110011111100
11111111111110010111101010111001
00000000000001100101100010110000
11111111111110100110101000100010
00000000000011011100001010011010
00000000000110100011111010001110
11111111110010101110100011110101
11111111011001010000101011101111
11111111000101110111110011111011
11111111010011100110100111000110
11111110111110010011011000000101
11111101110001011111101110111010
11111100111101011011001111101001
11111011111101001000000110010001
11111101111110010110000100010011
00000001000111111100100110100110
00000001101011110100010011011010
00000001110001011110010000100001
00000010000111100011000110100001
11111110100010010000100110010110
11111101000100101110101000010100
11111110000110010001010100010110
11111111010001011100000001111010
11111111100100101110011000011000
11111111101101101101000101100011
11111111101001001100111110101100
11111111101100110001111011010100
00000000000110110001111110001001
11111111111100110110100100101110
00000000000110000010010010111011
00000000000000001100100010000001
11111111111100011100011001110111
11111111111011111010000011111010
11111111111101100011101001101111
11111111110101010000011001110100
11111111001011010000011011110010
11111111001011111010110000100111
11111111001100100001110110010010
11111110100001001011101110110111
11111101100111100011111000010011
11111100110000000000100001100100
11111101110111000111101001110110
00000000001000011000101110100000
00000000111010111011011111111010
00000000111010100100110011111011
00000000110101111010010101010110
00000000010100100111011110111010
11111100010001101110011001001011
11111100111100110011001001001110
11111110001110111100111110001100
11111111001100101001111100101111
11111111110010100010010111001100
11111111110000110101100000010110
11111111110011010100101000001010
11111111110110101101111010110011
00000000000110110001110110010000
11111111111101111000001111011101
11111111111100001010010000011011
11111111111110011011010000101001
11111111110101110110000100011110
00000000000000000101011110011000
11111111111111000011111101100101
11111111110000111111111011101011
11111111011000101001001110010011
11111110100101001101000010100110
11111110100000111000010110111000
11111110000100011001100000111111
11111101101100100000000011001000
11111110000111110100101100110011
11111110100111101010011010010010
11111110110001101100010010001010
00000000001101110101111001010001
00000001010001000010000111110000
00000000011010100011101100001100
11111110000111000101011110010110
11111100101100010000100001100001
11111101011100101000111110001000
11111110101111100110010000101001
11111111010010111001010001100000
11111111111011111100101101110101
11111111101010101101101110000101
11111111101110011011000111100111
00000000000011010111100100110011
00000000000001001001011101110011
11111111111100010011010011100011
00000000000001110110111100010010
00000000000011010101001011011000
11111111111011100010100010110110
00000000000011110111100100101010
11111111111111010101111101110101
11111111110110101100011001011110
11111111010110101110110111101111
11111110001111110000000010001110
11111101111000110110000001100110
11111101011011100000010000000100
11111101111111110111100100001111
00000000010100110111011101000010
11111111010000100001000010001001
11111110101110101010011101111111
00000000111011101111110100111110
00000000100011110001101110001000
11111110110101111101101000001111
11111100100011100000011001001111
11111100100111100100011011010101
11111110001110011001110101100010
11111111001000111010111010110011
11111111101011110101111011111110
11111111001110011000101101110010
11111110100011100011011110000111
11111110101010110100001110110010
11111111000101111111011100110100
11111111101011101110001011101011
00000000000000000101011110111000
00000000000100101100101110100110
00000000000011000111100101110100
00000000001100011110101101101101
00000000000000010010010100000101
11111111110111011100101000111001
11111111101111101000101111101011
11111111010000100101100111000111
11111101011101111100011011101111
11111101010011010011000001101100
11111101100101101010001010100101
11111111001100101100100100100011
00000000010010001111110001110111
11111111101100110111001000000101
11111111011111100001100010010010
11111111011110110111000100100010
11111111001101111010011000011001
11111101011111111000011000100001
11111100000100111101000011010011
11111100111011001101111010111000
11111101111010011000001111110110
11111101111010000100110111010000
11111101101111011000111010001111
11111101110100010011101100111100
11111110001010110000110001110100
11111111010001010110011000101010
11111111100110010010111101010110
11111111111000010111010001001011
00000000000001110111001010110000
00000000000000110000110010101111
11111111111011010100010000010101
00000000000010100111101010100111
11111111111111111100010100110101
00000000000001101100011001010101
11111111110100010101000110000000
11111110110001100111000101100000
11111101101101100011000010100111
11111101100111110111101000100110
11111110001100000100111100011100
11111111111111011100001101100100
11111111101111111011111111001000
11111111001001010001110110111010
11111101101111101101100001101110
11111111101011010001010101000000
11111101101000100111010011110011
11111101000001110000101000011001
11111100010000000011011000111110
11111100001111111011000000110110
11111100101101000010100011100011
11111101000110010011110001110111
11111101100101001001010010101111
11111110100001010011010011100101
11111111000101100101000110000101
11111111100011000110001000001111
11111111110000010000010100110111
00000000000101011000100001010110
00000000001000110000100001101000
00000000000010111001110111011011
11111111110100011001011111000110
00000000000001001001101001000000
11111111111100001111110101110011
11111111111110101110111011111001
11111111111001010111110010110100
11111111001111101110011100000101
11111110100100100100110010100011
11111110100001100011111101111011
00000000000110101011000001100011
11111111100000001100000101100101
11111110110001110101010111110111
11111101001110010010010001001110
11111101010100000011100001001111
11111101001101000101100000010100
11111100011000010000001110010001
11111011011010010110101111100111
11111010110110001011001101110010
11111011000000011111101001000011
11111100001001111111000010000110
11111101000001101001111110101100
11111110000010001110111100100000
11111110011110000001100100001010
11111110111001111110101010101110
11111111011010110111101010100010
11111111100100010000011101101011
11111111110010101011011010001111
00000000000110111111100101100101
00000000000101110000111010100001
11111111111101111010011001001000
11111111111110011101110101110011
11111111111100010111101111001000
00000000001010010011101101101111
00000000000100011010110001111110
00000000001010011110111111110100
11111111101101000001110111001010
11111111010010011110000010001011
11111111011011001011011101101111
11111110000100111011100011101010
11111101010100011011001101000011
11111100010101000100110101100010
11111100101011010011010000100000
11111100100001010101000111101011
11111101011011001101110011111010
11111100001011110110101000000100
11111100100101110001100101001110
11111100101111001001101110100010
11111101101110100100010001110011
11111101110100010101100101101111
11111110001011110010000100011011
11111110111010110000111001100001
11111111011110100001000101011000
11111111100111111101100110011011
11111111110011001010000111111100
00000000000000101001000000100010
11111111111101010010010010100101
11111111111111001001110010110011
11111111111111100000001111100011
00000000000100011111000100000110
00000000000100011001100000001101
00000000000111010000110001001001
00000000000110100001010101010010
00000001000111000110111100100101
00000000000111001010001000100010
00000000000000111010011111010010
11111111101001010010110000111101
11111111010000100100010100011101
11111100101101001011010011100000
11111011101100011001110010001000
11111011111111110001100111100001
11111101111001010011011110111110
11111110100001110110000110101110
11111110010011001111110101111110
11111110100110001000000000001010
11111110000110101011101010001000
11111101111011111011011000100001
11111110010010111110000110110101
11111110111101000010010001101100
11111111011110001000010110000001
11111111110110110000101010011010
11111111111000001100111011011101
00000000000000011000010010000110
11111111111111101101011101110110
11111111111001111100110000111100
00000000000001011000011100011011
00000000000110000010010001000011
00000000000000001000111110100111
11111111111110101101111001010110
00000000000111110111100001111010
00000000000110111000111100011010
00000000111011011100111011001000
00000000111000011011110101010010
00000001001111011010001011111010
11111111111011110100100010001100
11111111111010000100110001001100
11111111111110100001101111100001
11111111100100111110101110110000
11111111111111111011111100011111
00000000001101011001101001110011
11111111111111110111110000101111
00000000001111000011001000001110
00000000001011001010110000111001
11111111001100110001101000100101
11111110111001110101111111111100
11111111000010101001100010011111
11111111010001101101110000000001
11111111100001011110111001011111
11111111101101111010010111101000
11111111111100100101111010011000
00000000000100100100011110010101
00000000000000101010111111000001
00000000000110110111000111101010
11111111111101110011010101100101
11111111111000000001011010100110
00000000000010101000001010010110
00000000000001010001100110100100
11111111111000011100010000001001
00000000000111010010110100100110
11111111111100000101000000111000
11111111100100011001010110010011
00000000111110011110111001100101
00000000010100000001000111001010
00000000000111101011111011000001
11111110111100110110100010011011
11111110100101000111011011110000
11111110010101111011110010101011
11111110111011111101010110011101
11111111011101010101111011110011
00000000000110100001101010011011
11111111101011000100011110111100
11111111011001000111100110000000
11111111100101000101000111111000
11111111100011100011001101111100
11111111100101011100111100100111
11111111101100010110101110011011
11111111110101011100100011101000
00000000000100000111001011111110
11111111111010001111101111100010
11111111111000101000000110011110
11111111111000011010111100010001
11111111111111101111100101111001
11111111111111101101111101110001
11111111111100111000101001111101
11111111111110101101111111101111
11111111111011000011110111100101
00000000000000011111010110010010
11111111100111110110101000010110
11111111001011100100111111110000
11111110110000100001011111001101
11111110111011011111000111101000
11111110111100011011011111110101
11111110101011111110111000011010
11111110111010110000101110001011
11111110110001101010100100011001
11111110110010000100010000000000
11111110100110111001000101011110
11111110111100011001010010110010
11111111100001100001101001001100
11111111110000100010110110101101
11111111111100000000000001110001
11111111111100111011001011100001
11111111111011110000101101100011
11111111111111101110110110000111
11111111111100100110001001100001
11111111111111110110011110010000
00000000000001000111001001010001
11111111111110010100011110011110
00000000000011101001010010101010
00000000000011000100011101011101
00000000000001010001010111010011
11111111111010011101010011101000
11111111111111101010101110010011
11111111111101011110110101101011
00000000000000101000000010011101
11111111111111010101110001011111
11111111111110100100001111010110
11111111111101011000000110111111
00000000000001101101100100110100
11111111110011110011001000101111
11111111100011001110111101001011
11111111100001000110100111011001
11111111110000110010000000101110
11111111100110011000110110111001
11111111110000001000010011011011
11111111111110001110110010010110
11111111111011000000011001000011
00000000000011011111000001101001
00000000000000001001101010000010
11111111111010101000011001011100
11111111111000101101011001011011
00000000000010111101100111111010
11111111111010101100011010110100
11111111111010100000100001010000
00000000000101000000001110100101
00000000000001000101010110101001
11111111111111000001011000001111
00000000000000000011001000111111
00000000000001100000101011000001
11111111111110100100100100100000
11111111111011110011001011001101
11111111110101010011010111011100
11111111111001000000001111010100
11111111111010011010001101001110
11111111111101001100011011110010
00000000000001110001001101110010
00000000000111000100101000000011
11111111111100001001110100010111
00000000000110110000001100010000
11111111111001101000000101110011
11111111111011110100001101011100
11111111111010110110011010011111
11111111111110101010111000010100
00000000000001110001011101111110
00000000000010010110101000010111
11111111111001010001100001011101
11111111111110010100110101111101
00000000000010111111101100110011
11111111111111100010100111111111
00000000000100010011000101001100
11111111111010000100101111000011
00000000000010001110001101100001
00000000000011101100110111010100
00000000000110111000111001000110
11111111111110101001110111000111
11111111111100101110010001010000
