11111111111000111011001000101010
00000000001110101111010110100011
11111111110000010101101110011111
11111111101010101110010100010011
00000000000100100011100000101010
00000000000001001011000010110001
11111111111010100010111100110101
11111111110001100101100100001111
00000000000111111011000011001110
11111111111100010010101110010101
11111111110110101101110110011001
00000000001011000101100011110101
11111111110100110001101101010001
11111111111111000010110100010010
00000000001100100100110111001101
00000000000101111100011101111111
00000000010101011011100010011010
00000000011010111100111111011111
11111111100100011000101010101100
11111111110111100110001010000010
11111111111110100001010001001011
11111111101110100110001000001110
11111111110010100000110000001000
11111111111001010100111110011111
11111111110110111001110100100011
11111111101101111100010010000111
11111111111011010100101010010110
11111111110110111111010000111010
11111111110010110101110001101110
11111111110011100010100111000100
11111111110011101001111110011111
00000000001110101011010000110100
00000000000101110111101010111000
00000000000001111101010000011011
11111111101000110100011001010111
00000000000101000010000001001101
00000000000001110101100111101100
00000000001011001110111100011101
00000000000110010111101111101001
11111111101110101111110001001011
11111111110000010110011001111110
11111111111010011101110000011001
11111111110000001101110100100000
00000000000001011110000100111010
11111111110000000011100001010010
11111111110111110001110000011011
00000000010011101001110110001011
11111111110001000100110011110111
11111111110010111010101110011111
00000000001111000010011111001110
00000000001111001011101101110000
11111111111011001000000000001100
00000000010101110001000011011111
00000000010101011101111101001011
00000000001100001110110111011011
00000000001011001111000011001100
11111111111100001001110100011110
11111111110001010100010001110110
11111111111101000100111110110001
11111111111000001111111100111100
00000000010001101111101101010111
00000000001101010001101111110110
11111111101000101000001111101010
00000000001001001100011001001111
11111111111010111110100100011101
11111111101001110010001111111010
11111111000111110010111110000100
11111111001111110010010011110000
11111111100111101101101101010010
11111111011101100110101001111111
11111111110010010111111001011011
11111111110111011101011110111111
11111110111111001000111111000000
11111111101100000101011001110001
00000000011100100100001100101111
11111111010100110111100100100101
00000000000111100111001000010001
00000000000010100011101101111101
11111111111001000001100111000101
00000000001110100011001010010001
11111111111111110011111101100000
00000000001111101000110001111000
11111111101101101110101111011001
00000000000100110101111110101100
11111111100011010011010000000111
00000000000011110100001110110000
00000000001010000011100110111011
11111111101100001111010100011110
00000000000100011100000101010100
00000000011000111110101000000010
11111111011111101001111011010111
11111111101010000111000110011010
00000000001001101100101110000001
00000001100010111110001011001010
00000010110011111010111110100100
00000100011001000000100001000101
00001001000110111100001110000100
00001000000101011111100101001000
00000111110110101110001100000110
00000100011001010001000010101010
11111101111110011011110111110010
11111100010111111110110010101001
11111111000010111110001011011101
11111110001101111110000111101001
11111101110010111010000011000100
11111111000101000111011101100000
11111111100111011100110101111110
11111111001111101101111110001010
11111111110101110011001110111001
11111111111110001001100001101111
11111111110100101111011110001111
11111111110110011110101010001110
11111111101101000110110011000001
00000000011010001001100100001001
00000000000001011100100101110011
00000000001011011010001111100000
00000001101100110010011100000010
00000001001000101111100011111010
00000001010101010000101111011011
00000011100101111100100001110100
00000010111100000000011010110000
11111110000111100011000011101010
00000000111001011011110110101001
00001011000100010000111101000010
00000110111111001010101001111000
00001010111100101010101100010001
00000010011001011111110101101111
00000001101101010000110100010101
00000000010000001100101001011010
11111101101110100000110001101100
00001010010000101111111000111111
00000111110111100001100101101010
00000001111110011100111110111000
00000100111000001100110010000011
11111110110001111101111110100001
11111011001011111111100110001110
11111110101011110100110111110111
11111111111001100101100111010110
00000000010000111011110001100111
11111111110101011011101011000010
00000000000110000010010001001000
00000000010010011000001011101010
11111111110110010110011001011010
00000000000010001001010011010100
00000001000110111111011011010100
00000010100110010011010000110011
00000100100111101000100000010111
00001000100101101110011001101011
11111110110101010011110010101100
11110011001100001010000010101110
11111000110101010000000111001101
00000101011100110101001001001110
00000010100100101000110101011110
11111101011000000010011101000110
11111011000010110011110100100110
00000001000000110010100000000001
00001101101010001110001101001000
11111101101000101011001100011000
00000010110010010001011001110001
00000101101000011100111100001110
00001111110000111011000110011001
00001101000100101011001011010111
11111110010010000101001100011000
11110101101001010001111101011110
11111011110100010100101010001101
00000000001000011001100101100000
11111111110101110100010000010010
00000000010111101111001100111110
11111111111001011000010010001001
00000000001000001001100111001101
00000000000100001110100110110001
00000010010110100100000101100011
00000111101000000011100011101000
00001000111111001111011100101110
00001010001111110111100011111011
00001001010000110001110100011100
00001001100111001101110010110011
00000001100001010000100111111000
00000010111000010000011100110110
11111001110110110100100100001101
11110010100010001111101010010000
00000101011111110111111101001010
11111101111111110110001100011110
11110101111100110011100000010011
00001100101111001000100000111010
00000001110011110101001111100101
00000011001000011011100101011100
00000100000111001100110100100101
00000101010101111001101100110110
00000011111101001100111101000100
11111110010000011111100010010111
11110011010010111100110001001111
11111010010111111110011111010100
11111111000101111000010110000110
00000000000000011011110011011011
11111111110110111000000111100100
11111111100011110100001010000001
00000000010001000010000010100010
11111111111101000101100001011010
00000100011101001001100010101000
00001010100011100010110010100001
00001110111100010011100100110000
00001011000111000101011000010000
00000100101010010010000010011010
00000000011100010010101001000101
00000110010000100001111110000100
00010010011111011010011011100110
00001110110101100000111001000101
00011010000110111000101100010111
00010011101110110101111011101100
00010011100110011001111100010100
00001011000000110101101001111101
00001011000010111101111101011100
00001100110000011111110010000110
11110000101111001010111001101001
00000011110111110100000101110101
00000010011000101010101100101001
00000001000101000011000000011000
11111111111010011101110001111001
11110011000111001111000110100010
11110110101001101010001101110101
11111101001011001011010101110111
00000000011010110001110111101110
00000000000111101001011101010110
11111111101111000000001010111000
11111111111010111010101110001010
11111111111100101011011010101001
00000011011100010101110110001000
00001100010000101011110000011010
00001101110100110011000101101100
00000111100000000000110000011111
00000101011110110101111101001010
00000101011001001011111000100000
00001110010000110000011101100011
00001011011101010111001110101010
00010011010000101111110010000011
00001111000011000000101110110100
00001100001101011010010011000010
00011010101101111101000110000110
00001101011111001110110010110011
11110111001011000111111111110111
11111111110001100101100111001110
00000000000000001011011000110010
00000000101000110001110010100011
11111010111100000101010001100111
00000001101110010101101111100101
00000010010110011000011001000001
11110001001101010110110001010011
11110101110111110110110111100001
11111011000101100000000000011111
11111111111001010000001000111001
11111111111010110000110001001101
11111111111111011111110101010111
00000000000100000100100011001010
11111111111100100101011110010010
00000100101111010010100011010000
00001101000001101000010111000010
00000111010001001000001011110111
00000000101110111000101100110100
00000011011111010010011110101111
00001111000000110010001010000000
00001000100100001111110110110010
00000100000101101101110001000100
11111110111001001110010101100000
11110110110110001011001111010001
11110011100100111101001001000011
00001010010000101000100010110011
11110110001111110001010101111010
11110110100010000101110000110110
11101011111101110011110000010011
11101111110010011001101101011001
11110000100110011010010010111000
11110011111111010010111010111001
11111011010000111110000000100111
11111010011110011010011010110010
11110011011010000000110101000010
11111000111101100000111010011001
11111110110110001011010011100100
11111111110100101111100111111111
00000000001100010101010000110101
00000000000100100001101011110000
00000000001001110010010010101010
00000000001010010010010110011010
00000110011111000100100011010000
00000101100111100111111000011100
11111100110000110001101011101001
11111011010010111100001000100000
11110111010001000010101011001010
11110100011011100010110000111101
11101001101010100111110011100000
11100101000000100011111011111100
11100110101011110000010110010011
11101000010011111010010101000111
11100111111001001100111101000000
11110100001011111111000001111110
11111101100110110010001000100000
00000010000110101110100111101110
00000100001111101111110011100101
11111011100110100010001001011110
11101100101011100101010100000101
11101111010000110011110010000000
11111111010000101000101000110011
11111011010011100001000111100011
11110011000111101000100101000010
11111011110100100000101111011001
11111110111100001100011000011000
11111111110100000011001101110010
00000000000111100101001101101001
11111111100010001110010000101010
11111111111101101101000100001100
11111111110110101101110001010100
00000101001011011110001001111101
11111111101011011111101101000101
11110000101001000000000010101011
11110000100111010001011110010101
11101110001010000001001111000001
11100000010011010001101010100000
11011011111110110110001111110100
11101101110110011111110010110010
11111101101111001001011011110101
11110110101010101110100111010111
00000010011001000010111111101101
00000001111111010101000000010011
00000010010010110011011010111011
11111110001100001001000100111101
00010001100000110001101101000100
00001101111010001101000000001101
00000101100111001110100010110001
00001001001010010110000101000100
11110110011111011101101110111010
11110000010111010101100101010011
11110110010011111110011111010001
11111101011000010110001111110010
11111111101011100100001010110010
11111111110110000110000011000001
11111111110110001111010000110010
00000000011001000011000010001000
11111111011001101111100000000010
11111111100100000110100110001001
11111111001111000101111100100101
11111110011100111111010110000100
11110001000000100000011111100010
11110001011010110010001110101001
11101000101010001100011101001100
11101000000101100011011001111010
11101110001101000100011110010111
00000101101001011001101011111111
00001101111101111000011111001001
00001011001100111001110010011100
00001011100000111100100100011110
00010010011111000100010001100010
00000111001100010010110010000101
00001100101111000100110011010000
00001011101100001010011011000101
00001111101011000010110111001100
00000001111101100110010000010001
11111111011011010101000010100001
11101111111010101011111010011110
11110001100010101101000011110101
11111000110011111001000101011011
11111101111101000111011110101010
11111111110101010011101100100101
11111111110000110011011111001101
00000000001001000001100001111001
11111111111100111100010010011110
11111111110000010110101101011101
11111111001111001010011101000101
11111100000011010111111111010111
11111010110000011010111100100000
11111010111110011001111000101010
11110111010010100000000100000001
11110010000011111111100111110110
11110101011011101110110100111010
00000011111011111101110010110000
00000100111000001001001100110001
00000111001000100110111111001010
00000111101110010001111000100100
00011000101001101111101111101101
00010011010001010011110111101011
11111100101011101000011100111101
00000011110010110000000001110011
00000101010110000011011100011000
00000111100100001001010110100000
11110110000101011110100111100101
11110110101111111100011101011001
11111100111010101001010011110110
11110010011000000100101101000110
11110111110010010101001110111010
11111100011110001010000000111010
11111111101111010000000111000100
00000000001101000000101110000110
00000000001011111110001111101101
00000000000010011101100110011110
11111111110010110001000001110010
11111111100111110100111001010000
11111100001001111011110110000110
11111000101111010011001001010001
11111010011111111000101010000000
11111000101010011101011101111010
11111010110110101111101111000010
00000010110110010001011101001000
00001100010001100111110110110100
00001000111011011001101011001010
00000110101000011100000011000011
00000111010100000101011100001001
00000100010011010010111001001000
00001001010001011001101100000101
00001111001000111100000001000111
00001101010110010110110001100111
11111101001111001010101010001011
00001000011100100000100100000110
00000111010101000000000010000100
11111100000110011010010100011011
00000010100011010110010011000011
11111000011111101001101111010011
11111000111101010010000000111101
11111100000111011011110110100000
11111111010010010111010101100001
00000000000010011000111011110111
00000000000110001001100110011111
00000000001101011010010011111011
00000001010001001111010101100111
00000000101110000111001110000101
11111100100010110110111100101011
11110110100111110011011110010111
11110001110001111010111011111010
11101011001111101010101110100101
11101111111101011110001011010101
11110011000111111110100100010011
11111110110101000000100111100100
00001100000000110010100110110001
00011100001111101000100001101001
00100001111110010100010010010000
00001000001011111011010000100011
11110011011001011011110011010100
11111011111000100011001010011101
11111101010000001010101100110110
11110110010101000100010011001011
11111110101100001011001110100100
00001100011011101101111000000110
00001010001001011010001110000011
00001011011111111100001001111010
00000100110001010011110101011100
11111111110110101010010111001110
11111011011101100101010011011110
11111110110000100111111111010001
11111111010010100000111000100101
00000000001101110001001101110111
00000000000001011110110011100111
00000000100000110101111100100000
00000010010010000010001110011110
11111110110100101111010100001110
11110101101000011101100110000001
11101001110001100111011111111000
11100100001001100011100001100110
11011011000110100001111101100110
11001010001000111010001000111011
11010011000010101001000101001110
11101110110110110111101110000000
00010011010111111100011010000101
00011011000111001101101110101001
11111011110100101110011011001100
11101001101110101101001101000001
11101000011100101000111100001100
11101110101010101010001000110010
11110000000111011000110000010000
00000001001110000111100011011011
00001011111101001100011001111110
00000101001001011000011011010010
00010100011000101100011101101101
00010010001101110111000100010000
00000101110011011111100001000100
11111101111100000111001111010010
11111100111111010010111000010100
11111111010101100110110110101001
11111111100101011010111000011011
00000000010001110011101010100111
00000000010010010000001100110010
00000011100001001001000110110010
00000010011100001111011101111101
11111000101000011011011010111110
11100111011111010111111010000110
11011001010101001001000011001001
11010000001110111010100001110111
10111001010001011000111011101110
10100001001010110001110111000000
10110011000000011011100110010111
11010011010011001010000011101000
11100010001100110010000110010100
11101110111101110111101110011110
11100000000101000100000010010001
11100110111110000101100100000010
11111101011110100010010101101001
11111100110101100001000010101111
00001000100010101011010001001010
00010100001010101010100000011000
00001011111010110101111101000001
00001100100000000111100110111111
00010000010111000010000110101001
00000101100001010000110101111110
11111010110101011000010101101001
11111101010010000001100110110111
00000000000100101010101011010110
00000000000001000110100001101000
00000000001001111110001001011100
11111111101101010010001011100110
00000010011101011100001100111000
00000110011001110001000100110001
00000101000010010100010011010101
11101110110010001001011010011001
11100001001010001110101011110101
11001111001100101011100001100010
10111111001000010100100001110101
10101010100001010000000001000101
10100010010111101011101111000111
10101101000110100100101010110011
11000111110101110010101000011011
11010111011010011011101110010000
11100110011111000101101000011010
11110101001000001011101010111000
00010010111101000000001111001010
00000010000100011011111011111000
00010010010000111000010111001111
00011001110111000101110010101100
00010100000100011011101110100111
00001000100010111000011111111111
00000011011000010101111001010110
11111101101010110001111100111111
11111000101111000111001101001100
11111110001101111011010110010011
00000000011010001101110011110110
11111111101100111101001101101000
11111111111100000101100101101100
00000000010101010010101001101001
00000010000001011010111011111110
00000110011111010100011001011100
00001010100101010010110010100110
11111001110111000111001010000010
11110101001010011010100110010000
11100101011000011001100000111101
11010101101011110110110000000111
11001010100100000001001100100100
10111101001011100100110010011010
11001000010011000000101110001101
11010111111111001111111111110111
11011011111111000110100100001000
11101010000101010101100011011000
11111010110000000110110110001100
00011110010101000011000110010011
00010101000111100100101111111011
00001100101001110100010110000001
00001101101010111010111001110001
00001001101110011011101010110100
11111001100011101100100000000010
11110110000101100010000000100111
11111010000011110110110111100011
11111001100001111010000110111001
11111110010000011110111111000010
00000000000001100010001101010011
00000000000001101100110001000011
00000000011111000111111001111100
00000000000100101111000100001001
00000001100011011000110010001001
00001001010000010100000000110101
00001111101101001111111110010101
00000101000101001100000001100001
00000111011001100111111011101000
11111010000011111111000000000100
11110001000110110000000111111011
11111010101100110100100100000011
00000000001111100001101100011001
11110010100111101011010111010101
11110011111111100011010000111000
11101100101011101010100011101011
11111101101000000001101011111010
00000011100101001110010011111110
00011010111110101101011010011001
00000111010010110000011100101111
00000111100101101010011000101001
11111011010000000101000111011001
11111101011101101001100101001110
11101111110110011000010101110001
11101111011011000111100100101000
11110100010000110011110100011101
11111011101011100101101100001011
11111111101110100101111001101001
11111111101011001110100111100111
00000000000110100101010111001100
11111111110001110101010011100111
00000000000111101000111101010011
00000001001000111101100010011010
00000110111111010110011001111000
00010000010011011101111110011100
00010011100010101111101111011011
00001100100011110000000111101011
00001111101110001101110110010101
00010001101011000111011101000000
00010000010001110100010001101001
00011100111010001001110111111100
00010111111001011011011010010001
00001111011110101000110000100011
00000111111000001101111101100010
00010011010000101100111011000111
00011010010110011110000100111010
00001111101111101010001101000111
11111110100111001010010011100001
11111011010100101000110100010000
11111101100010001000101110011001
11111001001010011110011001011010
11101101011101011000101101110100
11101101001111000001111101010011
11110111100001111001100111100000
11111100010110110001110111010100
11111110111010010000101011001111
11111111100001100000000101000100
00000000011111010001011000011010
00000000000001000001001001010101
11111111110011011110000010001000
00000000101010100001100100111110
00000110011101100111110100101110
00001111001110010100100011000110
00010010100101000011111101001001
00010100000110010000011001101101
00010001101110111101010000011000
00011001010011001101110000011010
00011001100010111101000110110011
00010011000111001110010100000101
00010001011011100111010011101111
00000101111101011001001111011111
00001100010100100101010101001000
00001101010010011101000100111110
00001010010100010110110101100000
00000011101010000101110011000100
11111000010101010001110100011110
11110001011110111001000001111010
11110110011010101110111000010111
11110100000101011111001001111010
11101010111001110100010011110110
11110010110101100011100000001100
11111010010001000000010110100100
11111100101010110011001000100110
11111111000101001001010000000111
11111111111110000100011100001000
11111111111110000100101000101111
11111111111100110100110010110111
00000000000101111111110101011010
00000000101101110101100001100001
00000011110000110010001000011000
00001100010110101101010110110000
00010100000100101111001100101100
00011011101111111100001110001110
00100000110000101010001011001011
00011011001110010111010110110010
00011000010110001100101111101110
00010011111000111100101010110010
00010010000111101000011000111111
00000111011000011001000000010101
00001100110011001010111101101001
00001000000111010001110101111001
00001011111110110000101011010101
00000101100001000101101011110100
00000011100001011000001111001110
11111110101100101111000110000000
11110111001011010000000000000000
11110111001110010000011101101011
11111001000011001101101101101000
11111100111111010001111011100101
11111110101101011011000111011001
11111110110110000100011111100101
11111111000101000101011110000010
11111111111001011011110101111110
11111111111101011111101010110010
00000000000011011000110111110001
00000000001001100101111110001111
11111111111010001011100000000100
00000001000100111101011111000000
00000101111000000100000110001111
00001001110111000111010100100010
00010000011011011000110010001001
00010110101000101110111011010100
00010100110110011111001001110011
00011011110101000000001011101111
00010111111100011100000011110000
00010010110011111110011011110110
00000010001100111001000010111111
00000111101001110110100010000010
00001100110111001111011001000011
00000101101101010000101011101110
00001101001010000111010101000010
00001010000110001010111000100001
11110100100100110000000111100010
11101111111111010000111110000010
11111000001011010001101111101111
11111110101001010101010010100010
11111111000111101100101000011011
11111111010110101101010001100111
11111111101011001010001101011100
00000000000001101001001001010101
00000000000000100001011001110110
11111111101010111100100011101001
00000000011001111111010111100101
00000000000000111010111001001111
11111111101011000100110011010011
00000000001111001000011101111100
00000000110011100111011000101100
00000000110101111110000110100110
00000000000101110101110001100110
00000001000100101100100001101100
00000101001101100011111101110101
00001000011011100011101001110101
00001010100110100000100100000000
00001110011111010110001000100100
00001011110000000011000101011011
00000111001000110101111101001011
00000101100001011011010010101010
00000100111001010100101101110001
00000110100101110101011010000111
00000011001111110111111110001110
11111110011111000000010001000010
11111111001101001110011100011101
00000000111000001101011101100110
00000001000110011001001101100010
00000001000100000001010111111100
11111111111101111110000111010010
11111111100100100101100101001001
11111111111000010011001000111010
11111111111111100001111111100111
11111111110101001110001110101111
00000000100001111111011110001110
11111111111111101100000101110011
11111111110110111011001100011000
00000000001101100101001010111011
11111111101010000101011000101011
00000000100000100001011010001011
00000000001111100001111000100110
00000000010100101111100000001010
00000000010011011011101100001010
00000000011011010010010100100101
11111111111101100100001011110011
00000000001100011011000101100111
11111110000111001001101010110011
00000000010011111101100100001001
00000011110110110110001101110110
00000100001001010001111101100001
00000011000100000011010011110101
00000001100000011000111001101000
00000001000111000001100001111110
11111111110110000011101001001011
00000000111011100101010110111100
00000010000101011000101101111101
00000000111000011000100001101111
00000000000010011001001110000000
11111111101110101000110010001101
00000000000000111010111111110010
11111111111100011010111011100011
00000000001011100110101100001110
11111111100000101110001000111001
11111111111110110001010110111111
00000000001110110011000010011101
11111111110110111101001100100011
00000000000100110011110011000111
11111111111001100100111110010000
00000000000110110000000101001100
00000000001101000100010101110100
00000000011011010011010101000001
11111111101111110110110001010011
11111111111010111110101000010100
00000000000111001010001011001101
11111111110000111101000110010001
00000000010101001000110101101011
00000000010011010010000000011111
11111111111110000100100111111001
00000000001011100010111110011010
00000000010100000111110011010110
00000000011010010111011110000001
00000000011001100010010111111101
00000000010011011010101100010101
00000000010101111100010000010010
11111111110110100000010110001111
00000000010111000010111100010101
11111111111111101111000101001111
00000000010000100010001110010111
00000000000111100010010111000011
11111111111001001001100000001110
