11010000100010111010100111011110
11100100111100110111100101110010
11100101111110111000110111100001
11010001000011101001011011010111
10110001101110101100000100100000
11011110111001000111011001101100
11001100101001110001101001010111
11101001011001100110011011111010
11110000010100011100101101011011
11100101110000101011110100011111
10100110011011110111111010110111
11011000101000001101100011001101
11111011110100010011010110010011
10000101101110111111000001001110
11101001100110101010100000110011
