11111111110111101101001011001011
00000000101010000110100001111100
11111111101111011011001101111101
11111111101010101001010101000001
00000000010101011101000010010010
11111111101111011011000100111001
00000000001101010101000000110011
11111111111010011111010001110011
11111111001101100000000111111010
00000000000111010110010000101010
11111110100101101101100000001110
00000000001000000100110101111100
00000000101111000010010101010011
00000000000010000000000010100001
00000000011110101101011010001010
11111111110110101010010101100101
00000000011110010100101011010001
11111111100011011101011001100001
11111111000110100101010100001111
11111111100110001010001011001000
11111110110011000010101111001110
00000000100001110010110110110010
00000001000010011110111000111011
00000000001001110000001111110101
11111111111101011110011001011000
11111111101100101110111001011001
00000000000011110100001011000111
00000000100110011111111110000011
11111111010010001110100100000010
00000000011000011110111011011010
11111111111100010010100111001110
11111111010110001110010000001011
00000000111011110101011110110010
00000000000001101000000001101011
00000000000110010100000001110010
11111111000010000111111100001111
11111111010000101001001000110001
00000000111101101010111000001100
11111111110100000001001111110111
00000000011000000110001010110010
11111111100010011001011001101011
00000001100011110101010010010001
00000000000000111111011011110001
11111111101101001110001011000110
11111111110010110001000000000101
11111111100000010110010001110101
00000000011001100011110000100110
00000000010110001100011010010110
11111111001010001010101100011011
11111111101110010010000011111000
11111111010011001111000001110011
11111111110001111010000000001010
11111111011111001111000101100111
00000000111101001110101001110010
11111111001101110110110100010000
00000001001100001001001100111011
11111111111011010110100011010101
11111111011011010011010110101001
11111111110010000111011011110000
00000000001111111110011001110111
00000000000111110000111110011101
00000000100100000000011100100111
11111111100100111100111100010010
11111111110101001000000001010101
00000000001010101010010010100100
11111111110100111001110100010000
11111111011100001000011011100001
11111111101111011110001011101111
11111111001001111010110100011000
00000000100010100001100101110100
00000000110011100111001010011100
00000000100010111011101111111110
00000000001000101000000011100111
11111110110110011111010101111001
00000000010001011100100101110010
11111110100010011110100101000001
00000000000000000000011001000100
00000000000011000000110010000011
11111110100101100110110010000110
11111111000000110100000001011011
11111111100010011001101011100001
11111111111000110111100010010101
00000000001000000110011101011110
00000000010110101001111011110000
11111111011100011111001010011011
00000000100010010010111011001011
11111111000100101011000010000111
00000000011001000010100111001000
00000000100011110001110000101000
11111111111111100110001111000101
00000000001100011111000111011100
00000000001010010101010111001101
00000000110111010100001011000110
00000000110001001000101111000000
11111111011110110011011111110100
00000000001011010000101101000011
00000001001000000000101111011100
00000000110100000100100001101000
11111111111111011100100111110100
11111111111001101000010000101111
11111111001010010111001101101101
11111111111101011011110111011100
00000000010010101100100001010010
11111111111101011101100010011001
11111111110101000010110001001000
00000000000101101000010110000011
00000000000001011101110101001001
00000000100011101001101010010011
11111111101000001111010000110011
11111111110011111101101000011001
11111111101011001010000011001101
00000000000001110011010001101010
11111111011111011000010110110000
11111111101011001000011100111100
00000000101100101101010111101101
11111111101000111100011110001100
00000000001001111010100101100111
00000000000001001101000011100110
00000000000010010011100001000100
11111111101111110110101001011000
00000000110000111110000110001100
00000000000001000111000100011010
11111111110011100101010010100011
11111111111010101111011000000001
11111111001001100001011011110101
11111111000011010110011011000000
00000000100011101101100001111100
00000000010011101011100110010001
11111111011100000110011111111111
11111111010010010010101100111001
11111111110110111110110111011011
11111111010101101000011010010011
00000000000010010110111000101111
11111111111110100000101111010111
00000000010001100100001011110011
00000000001010000110100010001001
00000000010111110001100011010101
11111111101101110011011101101111
11111111101100000011011110111101
11111111110110100000010111010110
00000000000100000110011111111111
00000000000101000011011110001011
11111111001100101111100110000100
00000000000000101111010101110101
00000000011000110010011000110111
11111111110110111100000001100111
00000001100000110100101001010001
00000000101001000001110100011010
00000000101110000111011011110100
00000000010011001100111001111001
11111111000010101111111101110011
00000000001101011111000111010000
00000000001011100111111110001000
11111111001010110111101010010110
00000000101111000100110010101010
11111111011100110011111110101100
00000000010111110011101011010001
00000000000011011110010010111000
00000000100110100011000110011101
11111111101000010101110110001100
00000000111100000001011001011010
11111111111001010010110000100011
11111111101011000110100010100100
00000000000011000001000000111001
00000000000001010010100000110010
11111111111001101101110000101000
00000000000101100000010100100110
00000000000001100111011101001101
00000000000001111110010110101101
11111111100110111000100000111000
11111111001110100111001110000111
00000000110011101011100011110110
00000000000011011100001000110011
11111111010110111011011111110011
00000001000011010100011111111000
00000000111011010000000111101000
00000001000001100100011000111100
11111111101000100001001101010111
00000000001000100001111010100101
00000000100001111111010011011011
11111111111111110011011000010100
00000000001101110111001000110000
11111110110000000101100100000011
11111111111100010100111000000100
11111111110000100011100101111011
00000001011101111111100111011111
00000000011101111010111000001001
00000000001101111100110110101001
11111111111110100101101001010010
11111111111001000101010110010010
00000000100011110101011111100101
11111111100010011000001111110100
11111111001101001101000010111110
00000000001001101101001110100001
00000000000100111100001110001010
00000000000011111100110010110011
11111111110011001010101011111000
00000000011110000111110101011101
00000001010101110110001011110001
00000000101011101110111010010110
00000000011011000011110011001110
11111111100110010110110111111001
00000000101110010111000100111101
11111111101110011011010110100010
00000000011101111111011100110101
11111111111100100111100110011001
11111111001110110001111011001100
00000000111010100010110101110010
00000000010110110100001111100111
00000001011000011011101011100000
00000000011000111111010111001001
11111111001100010101000000000100
00000000101111110111111101010001
00000000000101100100000001110000
11111111111111001100111001111100
11111111110110000011000011010101
00000000010101000010010000110001
11111111101110000100110111001001
11111111101011011100100110111110
11111111111101000010110110100110
11111111101001111000010110001111
00000000000101100110010010000111
11111111100011011010101110000110
00000001001101111110100111110111
11111110110001110000011100101101
11111111100110000001100011110100
00000001000000100111000101111001
00000000011101011100110100101110
00000000011001000011001000000111
11111110101001100010001100111000
00000000000011001000110110101100
00000000001111000001001111100101
11111111111110010111010111100000
11111111110100010001110001100011
11111111110000011110011011010101
00000000011001101011110011010111
00000000101001100110110000011101
11111111111000101010111100101100
11111111100110110111110000111000
00000000001100001011111110110111
11111111001001100011001110010110
00000000010001100010011100111001
11111111011101011011011010101001
00000000010001110110001111000010
00000000010000001100101100111000
11111111101100111010010001101011
11111111011110011001110101011000
00000000001000100011101011110000
00000000010110010001011111110011
00000000100110000010111011001100
00000000111100000101100010001000
00000000010000001101001111101000
00000000101110110011000010001011
00000000000011010011111011100001
00000000001100010111011111011010
00000000010100000001111010010110
00000000010101000000101011110010
11111111011111001001001101010000
00000000100000101111011100000101
11111110111110111111100100000010
00000000001110001111001011111111
00000001100000000100001011101010
00000000011010100100110001111001
00000000000100111011101000110010
11111111010010101001101110010010
11111110110010011100111011101111
00000000000100101011001011010101
00000001001000111011011010100101
11111111110010001110101000000001
00000000010010010100000011100000
11111111101011110110011100110101
00000000010111000000010001010011
00000000010101111011111001110101
00000000000001010010011101011010
00000000001111111010100001100100
11111111110001010100111010100110
11111111111011000011010100010100
00000000011011011111101110100000
11111111101101001001010101111100
11111111110101000101110011100110
00000000110100000011100011111010
11111111111111001101000010001000
11111111101011011010011101111001
00000000001011100011010010110101
11111111101111011101100100111100
00000000011111011110111010111001
11111111110010011100101101010100
00000001000001001111110100101110
00000001011011001100010001001100
11111111011010111000111110000100
00000000100001100011101110100001
00000000000111000111011001001100
11111111011000001101100101011000
11111111011110001010011000011001
11111111110100111000111010000101
11111111101100111111110011011000
11111111101010010101010011000000
00000000101011001010110010000010
00000000000101000011010100010101
11111111101100100111001000101101
00000000001010111111001010011101
00000000100110111011011000100101
11111111100001001001111011010001
00000000010100110101100110100101
11111111110010100100000000100011
11111111100000110010110110100000
00000000110111010011011111001000
11111111001001111001000001011011
11111111101110000111101000110101
11111111011110010101001010101001
00000000111100001111000111110000
11111111101001111010101011110100
11111111010001011101100010111101
11111111010111100100111111011001
00000001010000001000000111011010
11111110111110010110110000001100
00000000101011011000101000111000
00000001000101100001000000001111
00000001000111110011110010111001
11111111111000000000111101111000
11111111110110100010111001110101
11111111011010011101010100110000
11111111011000000000000011101111
11111111110101011100000000010010
00000000011010110011101011001101
00000000011011111011101111101110
00000000001110111111100111111110
00000000001011101111000000101010
00000000100000110001010001100000
00000000000111000100111101111000
11111111100110100000101000000010
00000000001110010000101000001010
00000000011111110011010011100000
11111111011011011001101010011000
11111111110101010100000010110010
11111111100010100001011100101000
00000000010111101010000011011110
11111111111000011101110011011011
11111110101000010010101001011111
00000000010111111011101010011001
11111111101101001101110100011111
00000000011100111010011001011110
11111111011011001001100110111110
00000000101011001100010100011000
11111111101101010110111110100111
11111111010110011011010001111011
00000000010101001100001001111010
11111111011100000101010111010100
00000000010100011011111110110111
00000000110011011000001010001100
00000000010110001101111010001100
11111111100011101111111010011010
11111111110011101110110110100100
11111111000101111001010011101010
00000000000010011000111101101110
11111111100011011000101000110001
11111111101110111111100110100111
00000000000101000001010000110101
00000000100010010001111110100000
11111111111101111101000011110010
00000000000010111010001100111001
00000000110000000100111001101010
11111111010101000010011100111101
00000000101101011110111010100110
11111110110110100100101011111100
11111111010100011011000110110000
00000000010100110111001101100000
00000001001100100110001001100011
00000000101000001101001101011000
11111111100011010011010100100111
11111111010101101001001111001000
00000000001101110100111101101011
00000000111110111000000111100110
00000000110111111010111000110110
00000000001110101110000111001110
11111111111101100110101010110110
00000000010101001110011001011011
11111111100111111000101101101111
11111111011001011011111001110111
00000000001001000110010110101010
11111111001100001000101111100010
00000000000000001101100100011011
11111111101011110111110100000001
11111111010010100101101110000111
11111111000110101101111001110001
11111111010010101011110001000110
11111111111001010011110001011010
11111111000010011100100110111011
00000000000010011110011011110001
00000000000010010101111101100111
11111111111100111011001100111010
11111111111000110000001010011011
11111111011001110011100000010101
11111111110110000110010101000110
00000001000001100001101111010011
11111111110100011000010011001000
00000000110100011001010100111010
00000000111110010101111110110110
00000000001000010101101011100000
11111111100001000000000101101100
11111111101100111011100001010100
00000000000101101011001010010101
00000000100100001001101001001100
00000000001010100011101101100010
11111111101110111011000111001101
00000000100010010110011111110110
00000000101111110111010001011000
00000000000111100111011111010001
11111111101001110010111100100001
00000000000100101010101001111111
00000000101110000110110000000110
11111111100000111100000010110011
11111111100101010000111011001010
00000000111000111101011000111001
11111111000111101011010110011010
00000000000101111010110011110011
11111111101000010101101010110000
11111111110011110000011111010010
11111111111100101011001000010011
00000000101010101000100010110101
11111111011101001001110100010101
00000000001000011111110110110110
11111111011101100101010111111000
00000001000010000110010101111111
11111111010010100010000011100101
11111111101110011000100111100011
11111111101110100111011111000100
00000000100101101000000101110110
11111110110110101001000110111000
11111111111000011100001110000100
00000000100111000011000011100011
00000000011101100101001101111110
11111111110000111100111101101010
00000000100110110110101100111010
00000000010001100111100110110001
00000001001011101011100110010011
11111111101001101000100010010010
00000000001111110011101101100100
11111111101110100100101110101000
00000000010101100001100110011011
00000000001101110100001011000110
11111111101100110010001111010110
00000000010111110111010110101110
11111111110111001000001101111010
11111111101101000000100010100000
11111111110000100001100011011100
00000000011001101011011101101000
00000000001101010010110101100110
11111111111111110010010111001111
00000000011110110011110100110101
11111111101011001000111100100000
00000000110010100100000011101110
11111111110011111001011010011100
00000000111000110000001100001010
11111111000010101110001000101010
11111111100011110111010000110100
00000000001110110010000001011111
00000000100001101010110101010010
00000000100010001111101100010101
11111111110100000110010000011011
00000000000000001011011010111011
11111111111011001101100110001110
00000000111110100000110110100011
00000000000111100111011001110100
11111111111111011110011011111101
11111111101010010100101101010101
00000000001101000011010001000011
00000000010010001100111101001000
11111111100010100101011001011010
11111111111000110010100000010000
00000000100010000011101110110110
00000000001100001011101001110011
11111111111001010111111000101100
00000000101011111111111111001110
11111111001010000010101001001101
11111111001100001110000000000010
00000000001110010101001111101110
11111111001100000000110111111011
00000000001111100010011000101001
00000000010011001101000101001100
11111111110011001101100111111001
00000001000010101011111111011001
11111111100101101101000001100100
00000000110100111000100110111000
11111111110101001000001001001011
00000000010010110001011111011000
11111111101101010001100111100100
00000000101011101011011111011001
11111111101001101000010000111011
11111111111111000100010000110010
11111111101001001011011010111010
11111111101001000000101010010110
00000000000101010011101001111110
11111111100100000000110010101100
11111111101100011110000101111001
11111111100100010010101010001101
00000000101010011111010100011111
00000000100000110110101000011111
00000000001111110001101101101101
00000000000000110010000111110111
00000000100111100100001101001000
00000000101000001101011100111010
11111111110101110100110001100100
11111111110011011011011100001100
11111111110100001100001100010001
11111111101010111101000000011100
11111111111111111110001000110101
11111111100111101110011011000100
00000000010000011111000111111011
11111111111000010111100011000011
00000000001101101011000111100110
11111111110101000111100100100001
11111111110001101100001110010100
11111111101111001100100101011100
11111111001011111100100101000101
00000000011110101100000111000100
11111110100001110100011011000100
11111111110000111001001110111101
00000000100000111100100111101101
00000000011000100011100001010000
11111111011100110111100000010010
00000001001100011001101000000000
11111111111111100101111010101100
00000000110101010010000110110001
11111111111001100001111111101101
00000000010101101110000000001000
00000000001011101110110111010101
00000000001101001100110110000101
00000000100111000101001100011110
11111111001000011011101010000000
00000000100100011111100110000111
00000000101101011101000111110101
00000000010101111101010001100101
00000000110101011010010001001110
11111110001110011101111011000010
11111111011000011101001101011011
00000000010000110110111100101101
11111111100100111010011111110111
11111111011111001000011111001001
00000000000100001011110100000111
00000001011100100001100000100110
00000000010100010111001010011100
11111110101010111010011011111011
00000000100111001011010111010000
11111111101101001111011001100100
00000000001010001111111110101000
11111111111101001010110011010101
11111111110011110110110111100111
11111111100010000110101010101110
11111111101111010110001011101001
11111111111101111110110100001111
00000000010010110100111110011101
00000000110111111011011111110011
00000000111101101100010111111001
00000000101001101000101010101111
11111111111000100101010100000101
00000000100000000100100100101110
00000001011100110111000101101101
11111111111011110100010010011101
11111111101011001100000000111011
00000000001110011010010001000111
00000000101100110101000001000011
11111111110001011111000111011010
11111111101010100001000000111000
11111111000000100000111111010101
11111111111110011110101011011011
11111110110011111011000010001011
11111111111111001000011110000101
00000000111011111100011001011110
00000000100010101010110111001001
00000000001100110110011100010010
11111111000111100010010001101000
11111111111011101110111000111101
00000000111011100111000110001100
00000001000011000000011001110100
11111111011111110101111101001001
11111110110101100111111100011000
11111111111001010010011011001101
11111111110110000100111011111111
11111111111101110001011011001110
11111111000010110000101011111000
11111111100111100000110101011111
00000000001100001011011110011011
00000000000001011100001100111101
11111111011011000100110011110111
11111111111000100100010110000011
00000000011011010100100100110011
00000000110001001100000101111100
00000000100000101011111010000100
00000000101100111110101111000111
11111111100110100100101101100111
11111111111111111010001010000100
11111111111110001101011111111101
11111111110000011011010100100111
11111111110110000101111101000110
11111111101100001000011011101110
11111111010001000110011000100110
00000000001110111001001101101011
11111111101110111001010011110011
11111111010110011111101010000101
00000000100100001110111001111100
11111111011000000100100000111110
00000000010101110100000110010100
11111111100010001011011110111001
00000000000101110100001110000010
11111111110111111110101100001001
00000000000010101011001001110001
00000000010000010101001110001011
11111110110001100101111011110100
00000000011111111100110010001110
11111110101101001010000110000101
11111111101010100000001100000000
11111111000100101010000010101010
00000000100101000101011001110011
11111110110101101111011001101010
00000000001101011001011111111010
00000000001111011110111111101110
00000001011010010111000011001010
00000000100010001110001101011001
00000000100011111010011100110011
11111110110100000100110111010011
00000000001100001101101011110010
00000000011111000000111100110011
00000000101100100101111110110010
11111111111000011001110101101111
11111111101001110011101000111011
11111111100011001010010110101111
11111111000010010010011010100100
11111111101110010110101101111100
11111111010111110001001101110011
00000000100111010001001101100000
00000000000110011001001011001111
00000000011000111000001100100011
11111111111111001010011000100011
00000000010010000110111101110010
11111111101111111110000110101001
11111111100001100010010111100000
11111111111000011100010111010101
00000000100110100001100110111110
11111111110010110111000111101000
00000000000000110111000100001001
00000000101111010000101000011111
00000000011010110110011011111100
11111111111101011100101110101111
00000000001011000110010000101111
00000000100000100100001110111101
11111110110000101100110101010001
11111111101011111110000001111110
11111111111000000010011001010100
00000000101011000110010100001111
00000000111111101110100111001010
00000001000110100110001100100111
00000000010111011001000110100111
11111111110010000111001101000110
11111110111110110001110100100011
00000001001111110101010100010110
00000000000011011110010011000111
11111111110010000111000000000100
00000000010011001111011101010100
11111111001001001100000111111110
11111111110011011011110101000100
00000000001010001111100000010111
00000000010110001110000100110010
00000000011001111001011001101001
11111111110110111000011110001000
11111111111011110111110101010011
00000000101110110001011100100101
11111111001001011010001000100001
00000000000010100101100100001101
00000000110010001010110010101100
00000000011010010011011111010000
11111111110110000010001111010000
11111110111110110010001101000011
11111111000100010101011110011101
00000000000111111100011100000101
11111111100010100011101101011010
11111111010111101101000111111010
00000000101111100010011000000101
11111111010111100010110110011011
11111111111011011100010111010100
00000000101100110100101100110111
11111111001000001000100100110001
11111111101100001111010001000010
00000001010000110101110011101100
00000000110101011110101100010001
11111110101000001101111001100101
00000000011000001000010010010110
00000000011110010111011110100100
00000001010101010101101000001001
11111110110000101011001100011111
00000000010010011101000110001110
11111111011110110101001001010111
11111111001110001001011011111000
11111111001100010011101111000000
00000000100111101000100011111001
11111110011111111110110000010110
11111111101111011100001100111010
00000001010101000101100001001010
11111111101101101100110111011001
00000000111011000110011100001111
00000000100110001101011010111111
11111111100111011001011101100100
00000001010100001010011000111001
00000000010000011100010110111000
00000000100110100100100001100010
00000000001001000011100000000010
11111111110001111110100100111100
00000000000000111011001110101011
11111111100000111111110010010101
00000000011000100011001101010110
00000000010100000010011101000111
00000000000010000101001011000111
11111111011100110000110001111110
11111111110110111000011001101110
00000000011101110010110000001011
00000000010100000111111001010110
11111111100000001101010011100011
11111111111110100101101011010011
11111111111111101011011010001110
00000000010011100111001110111110
11111111110001010110001011111101
00000000000100111101001100110011
00000000011000000111111101000001
00000000000100010100111010011010
00000000100101001101011110010010
11111111111000101101011111001100
00000000000010011111001001101111
11111110101011000100101001100010
00000000101100011100001001100011
00000001011101110110100100001011
00000000010001101101110001110100
11111111101111010101101011011100
11111111101000101010010000011100
11111111100000101101111111111011
00000000100001010001000100000101
11111111110111001010110000011111
00000000011010111001000010000110
11111111110001110010001110011000
11111111000100101101001101101010
11111111100001111010101110001101
00000000000001110110001100111111
11111111100110110100100110110111
00000000100111000011111111011010
11111111101100110101000001111100
11111110110100111110101010010111
00000000010110100101100101110010
11111111100101111011100110100100
11111111110010001011101110011100
11111111110100000011010100110110
00000000001101101011101110011110
00000000001111000100111000100101
11111111111111011010010101000110
00000000011011110100011000010011
11111111110101110111001000011000
11111111101001001100111110011100
11111111010000010001111100101101
00000000010001111011100100000010
00000000111110100001111100000100
00000000110001110111011110101011
00000000001010010001010111011101
00000000011010011011010000110101
00000000001101101010010110101111
11111111011110010000000000010001
11111111111111100100110100000010
00000000010100001010101011110110
00000000101100110101000100010101
00000000010000111011100010001000
00000000000011000010000111110100
11111111111001001111100000110100
00000000000011100101000000100001
11111111110101110000000011101100
11111110101011101001111111111101
00000000101011111111110000001011
11111111101011111110010101100101
00000000100010000101111101010000
11111111111110001011100010110001
00000000101011101101100111010000
00000000001100111100110100000001
11111111110101111011001011111110
00000000001101011011110100010010
00000000000111111100001110100001
00000000001111010000001100010001
00000000000010110111111000101000
11111111101101110011110011101001
