11111111111110000101101110110111
11111111101100010000110000100111
11111111000100001011101100011001
00000000010110011110000111010000
00000000011001010001100111100000
11111111110000111111100110000010
00000000110010101010001010001111
11111110101001000001100010001001
11111111001000111101011111010111
11111111001101001001011001010011
11111111100100000000100101000000
11111111101110011000011000111001
00000000010000010011000100111000
00000001010101010110000001101001
11111110110101011001011010110101
11111110101010000011010110011101
00000000010110010011010001101001
00000000011001101000011001010010
00000000001001111010001011111100
00000000000011001111110111110101
00000000001110000101010010100110
11111111000110000101011000001010
11111111010101111000101100010101
00000000011111010100111001111110
11111111100000101000110100110101
00000000111110101001010001000001
11111111110010100101101000001000
00000000000000101010100010101010
11111110110001100000111110100101
00000000010011011011000010100111
00000001000010010100010110110011
11111111110001010111000011110101
00000000011101010001010011111000
11111111111101001101010011100101
00000000001101110111101100000000
00000000011111001101101100001101
11111111110011001110100110010011
00000000000000111011101000000101
00000000101110111111111100100011
11111111100101101000001110100101
11111111010011101001101001111010
00000000011010011000001111011011
11111111110010010111101001011100
00000001001001100110010010110110
11111111101001111111111110111110
00000000000010111010100000110101
11111111011001101001111011010011
11111111100010100010001100010001
00000000011111000001000011000111
11111111010110010001000000101001
00000001000001110110011011000110
00000000010010110110010010001111
11111111100000101000111010011110
11111111110110000101111010100111
00000000011010000010110010011101
00000000000111000011010001000101
00000000011001011100101111111101
00000000001010111000011001110110
11111111101111110010000010011100
00000000000001110110111101010011
00000000001010001101101001001011
00000000000011111110000010011010
00000001000010101000100100011010
11111110000001000011101010101111
00000000010001011110000110010111
11111111110100001000111010001001
11111111110111011001111110011010
11111111111001110010110001000000
00000000010101100011010111110000
11111110111010100001101000101100
11111111110000010000100100001110
11111111100110011000010100111101
11111111000101101010010001000111
11111111010011100110110101110101
00000000100100100100110110101101
00000000001000100001100001110001
11111111110011001001100001011000
00000000111101100100000010101101
00000000011010011011111110100111
11111111100011100011000000100011
11111111111000001000111010101010
00000000000001100011010101011110
00000000100001101000100011001110
11111111111010010110011101001000
00000000010001011101100000001000
00000000110111011100000011011111
11111110111110010101101001001110
00000000111000010100110101111011
11111111010110110111011010110101
00000000110110001101101001100011
11111111101100110011111010101000
11111111101011100010101001110111
11111111111111001011111001001110
11111111011110110100100101010000
00000001011001011001000100111101
00000000111111101001011111100011
11111111101111111010000111001100
11111111101101001001000100001111
11111110110100000010000011111110
11111111111000100111010100001111
00000000000101000001110001101011
11111111110111000110010001000011
11111111110001101001110110011101
00000000000110000000100000110010
11111110110001111001011001001100
11111111100000100101011101011110
00000000011000001000111010100100
11111111010101101000011110010100
11111111111101000100100110101010
00000000011100101110000101110000
11111111101001101011000101101010
00000000010110110000111111100011
00000000111000110001010111101100
00000000001000101101010000011101
00000000011000111100101111001110
00000000011000100110010110011100
00000000000100101010000100111111
00000000001000101100000001111110
00000000110000111111110110100000
11111110111111110011011010000110
11111111110011000101100110010001
11111111101101100001100100000011
00000000010111000100111110110000
00000000000110110101110001110100
00000000000110111111011101001011
11111111101110010000001101110011
00000000000010001010100011001110
11111110101111110010100110100100
11111111101110101000000111100011
00000000001000100101010110001100
00000000000001010010000001001001
11111111101011000100100001101010
11111111100011100011010110100010
00000000011101001111111101010111
00000000101001111000110010010011
00000000100110010110110010100100
11111111111101110110001010111110
00000000010000000110110100010010
00000000000001000100011010111011
11111110100110000011010000011100
00000000011100001101101001010101
11111111010101101000101001011100
00000000000001100111101101000110
11111111111010111000001001111001
11111111100010110100010111010100
00000000010010100110000101111100
00000001000011010111111100000101
00000000110101010010000000100101
11111111111111011100111101010110
00000000010001101111010110100111
00000000010111100011001110110000
11111111010111001110101101101101
11111111100000111010110011011010
00000000010111101100001010111110
00000000001110010101110111101111
00000000110001101110000011101000
11111111101111110111010100011110
11111111110011100101011101111100
11111111101110111011100101110110
11111111110110101000001101110111
00000000101100101101011100011000
11111111101011000010110110010100
11111111110110101001000100001110
00000000100001001100000110001011
11111111011010101111010000111011
11111111100101111000010000111000
11111111110010001010011001111111
00000000101100001001110110101101
00000000001101110001111110111010
00000001000010101110011111001000
00000000111101011000011010100010
00000000100101101000100001001100
00000000010101101110111111000101
00000000011001011010000101100001
00000000001001101010010101000010
11111111111000100000010101101010
11111111010010010000001011001011
00000000011000010000000110001010
00000000101001010001100010110010
11111111101000101100110000011001
11111111111100110000001101101100
11111111011110010001000100001101
11111111111101111100110010001101
00000000001111001110111100101111
11111111110101111110011111100110
11111111111010100000010001010011
00000000001010001110101101010110
11111111101111011001000011000011
00000001000000000010011000000101
11111111111000100001010101111010
11111111010101101000000101101000
00000001000101110001111001000100
00000000010100110110000011001010
11111111010011110001011000011101
00000000100101111111101001100111
11111111111100101011111100111110
00000000011100101110010001111110
00000000111101110000011110000101
11111111101001010000000000110001
11111111001010001001110100011100
11111111110100110101001011111111
00000000101100011110101101111110
00000000011111001010110001111101
00000000000110110011000111000000
11111111000101100101110000110110
00000000011101000101000000010011
11111111111100110110100001100111
11111111100010011010100000111001
00000000010100001111101111010110
11111111011110011111100011010101
00000000101111011100000001010100
11111111011111110010000111101111
00000000111011000010000011100010
11111111001100101101000011111000
00000000010111111000100101110101
11111111101111110100001001001101
11111111101110111011111101010110
11111111101111100010000111001000
11111111011011010110100111111101
00000000111100001011101010100000
11111111111110000101100110001110
00000000000110111110110001011001
11111111011101010010100110100101
11111111011000001101110011001010
00000000000111011101111000111010
00000000101001011001010001000011
11111111001001101011111001001011
11111111101011101000010110011100
00000000010011001000110111101011
11111110110101011110100111111110
00000000101000110100101110100011
11111111111100100001011110101001
11111111110110100001101000101000
11111111110011111110101101000101
00000000010000110010000000001010
00000000010011001111100010001011
00000000011010010100101001011100
00000000011011101010001110101011
11111111101010010111110010110100
11111111100011001010011011101000
00000000000010111110000011101101
11111111010101100101000100111000
11111111110000110011110110101001
00000000101111000100010011111111
11111110110001110011101101100100
11111111010000101001011010000001
11111111110011001100000111110001
00000000000110011111011110100000
00000000101111101110011011001100
00000000010001110011011101001000
00000000110000100001010100011110
00000000000001010101100101001010
11111111010010011111100010001101
00000000011010110010110010010001
00000000010111101010110111001111
00000000011101100111111000001000
00000001000010100101010110101100
11111110101111101110000010000101
11111111101100110011001000110010
00000000111111101110110110100111
00000000010100100101010101000110
11111111101011011110100100110010
11111111011101011011111010010100
00000000010001111110000001100001
11111111110110101000101011111111
11111111110101000110000001111001
00000000000101101000110001010101
00000000000111010111011100011111
11111111110010111000001100000110
00000000000010110001110101101100
11111111110100101011111010001110
00000000011000110010110001001000
00000000011101100011000101011011
00000000011001100000000101111101
11111111110010001110110100110100
11111111001100010111110110100110
00000000010111000000110101011111
11111111101000000000101001001111
00000000000101101001101001100111
11111111101111010011010100111011
00000000101010010101101100100011
00000000010110101011100011011100
00000000010101101011000101111010
11111111101001111001100000001111
00000000010011000011101110111101
11111111100010100010100011111001
11111111011100100010101101001100
00000000001100011101111111000111
00000000010011111010000111110110
00000000001101100011101010101111
11111111011001100000010110111100
00000000101011110000011000101000
00000000100011110111001101111111
11111111100110000110001101001000
11111111101101110100100011001011
11111111111010101100110010000010
11111111100111110110100100010001
00000000011101110110110111000110
00000000010110110000011001110001
11111111010110101000011110110110
11111111110010101100111101110101
11111111110011010001010010100110
00000000001111111010011100110110
00000000000101100111001001100100
00000000000001011010010101101110
00000000001111100100110111000010
11111111111001111101000110010110
11111110011111101011010100011001
00000000000110000000111110111011
00000000010101111101101010000110
11111111110000100101101011100001
00000000110110001011100100010101
11111111110001001111111000000001
11111111111111111001000011100111
00000000000110010111110001111111
00000000100110010100001110110110
11111111111000000001110000111101
00000000000010001001101111110101
00000000001100011001001110001000
11111111111010010011011100101010
11111111111011110001111010101011
11111111110101001010000000000010
11111111110110100101110100001000
11111111111110011111110011110010
11111111111011110010000010000011
11111111010101001111111101111010
00000000110011100111010110010001
00000000000011101110001001110111
11111111111001101101111001100010
11111111100110110000111111001000
11111111000000000011111001111010
00000000000010000011101000101011
00000000001101101111011000010111
00000000001010001011001101010111
00000000111111010101111100000011
11111111111111110111010010100001
11111111010100100101110011000010
00000000010011101110100110101011
00000000001100000000110001100000
11111111111111110100110100010001
11111111100000011000001000010100
00000000000000001100010011101101
00000000110100101111010100111100
11111111101011010100000010101010
00000000000110101100111000011010
11111111000010000011011000011001
00000000011011000101110001101100
11111111111111100010000110110010
00000000010001000101100000010000
00000001000000111000110000001110
11111111111000000100001111001100
11111111101100000101001101001001
00000000010111011101011110010000
00000000100100000011100100100001
00000000001110000111001000100001
00000000101100011110001110001110
11111110111110001110100100010101
11111111101111010000010001100011
11111111111110011010001111101100
11111111011010011001000111101110
11111111100101000010011100101000
00000000010000111111111110111101
00000000001101110011110011110011
11111111110011011100001111010101
11111111111001010111110011010000
00000000101010111111110011111010
00000001100110101100111111000000
11111111011010110101110010001100
00000000010011011111110111100000
00000000011110101011010001000011
00000000000111100111101101101010
11111111100000011111100000000110
11111111101011101111100100110001
00000000000110010101000100010101
00000000001001100111101011111011
00000000101011011101100011101100
11111111011101010100001000110100
11111111110110011100101001101011
00000000010000101001010100010101
00000000101001110111110110010010
11111111110010111110100011001101
00000000001101100111010100000111
11111111110111010010011101110001
00000000001010101110001110111101
11111110111111100101111011110101
00000000010001011111010110101001
11111111001001100111010111111100
11111111011101100111001111011010
11111111111011111011011010001111
00000000010111001111100111000011
00000000001001110000111111000000
00000000000111110000001111011011
11111111010010011100110100111011
11111111011001000101101010010110
00000001000001011001111101011001
11111111101010001101111110011111
00000000010111010101011111000110
11111111011111111011111111100111
11111111100011010101001000100000
11111111101101011010100010111111
00000000111010000101100100110100
00000000101011100101110101001111
11111111100011110001100110011010
11111111110011111000100110001100
00000000011111011000010010011010
00000000001001100011010010111011
11111111100000111110010110101111
00000001101100100100000001101101
00000000001101101100000111010010
00000000011001011111011100001101
11111111011001101001100111000001
11111111111111110000000010110111
00000000001111111001110110110111
11111111001011001101011101101111
11111111011100000100001010011101
11111111101000100010110001111100
11111111101001101101110100001010
00000000011110111001011001001110
11111111100010011000110000011010
00000000000011011110000110100000
00000000000010101011011010001000
11111111110110100000110101000000
11111111110101111000100111101110
11111111111001000001110100101110
00000000000110111101011000001011
11111111011000110111101100110110
11111111101101001001101010011011
11111111100111001110110110111110
00000000110100011010100001110111
11111111011100001010110010010001
11111111110111111000000111101000
00000000000001000111010011001101
11111111010110111010001110111101
11111111100010001100011100100101
00000001001111000110100110001010
00000000100011111100100010101001
11111111111011001101101101011110
00000001000001000011110101111010
11111111001101100000110111010000
11111111101100100011111100110100
00000000100101110010100110110100
00000000110000111001110011110101
11111111111110111110111001100101
11111111101001110101001000000110
11111111100010010110100100010000
00000000010001101100010000001010
00000000000011000000001111101001
00000000010111001000011100101010
11111111111101110000111000000000
00000000100111011101100001101011
00000000111001100010001100000110
00000000100001100001101011100001
11111111111110111001010001110111
11111111010110111001010011110101
11111111100000010110101011100101
00000000000011011111100110001111
00000000000000101101111000100011
11111110110010101110101110100010
00000001000010100111010110111110
00000000111000000001010101100000
11111111100011000000111011001111
11111111101110011000100111011101
11111111110110101110001110011111
11111111111011101101110011010001
00000000010000111110010111110110
00000000000101111100111010010001
11111111010010111100100001000111
00000000011010000011101010010111
11111111101011000111001010000101
11111111011000110110110110001001
11111111100011010100101010110101
11111111110000001001011111010001
11111111011010010100100001111101
00000000100100101011010100000001
11111111010100001011111000000001
11111111011101010111100110000100
00000000100101011010001100110110
11111111111110011101011111010110
11111111100110100011001011011101
11111111101111110101000000011111
00000000000100001011111110011001
11111111011100100110010101001101
11111111010110000110111010000001
11111111101010100110011010010101
00000000001111101111001100010101
00000000000100100100011001010010
11111111101101110110111010011011
00000000110011001000001011101101
11111111010100010101110100111001
11111111100000101100011111001111
00000000000001000100001110110100
11111111100111011011001110101101
00000000100011110010100000100100
00000000000110011111101110001011
11111111101011000111111010000110
11111110111101111011000010101111
11111111100010010100101111010000
11111110111010001000010110110101
00000000000010010001111100001010
11111111101000110000111101100011
11111111010100111010111111000001
11111111111011101001010111010111
11111111001111101110100100010100
00000001010100110010011111100001
00000000010110100111001111010011
00000000011101111110000011010010
11111111011010101010000010101001
11111111110111001111010000001111
00000000011101001100110010111110
11111111100010111101110110111000
00000000001000101110100000000001
00000000001101111000000100000100
11111111110101100110110101110111
00000000000100010110000010001000
11111111101100011010000001110111
00000001010111101100110000011000
11111111101110010001010101011111
00000000101110001010100101010001
11111111101100111000100001001101
11111111001100011110111001100011
11111111010111001111001100010110
11111111000111111111010111011011
11111111010111010001100011100010
11111111110111111010100010100011
00000000000010010101010010101101
00000000010110111000000001001101
11111111101101101000011101101110
11111111000111000001010010100000
00000000011101100101010010001111
11111111100111001100100011111101
11111111111101001001000111011000
00000001001010000100100010100011
11111111010001110101110100100000
11111111100001110101110001001111
00000000010010011000111000001001
11111111011010011111001110101010
00000000110111101110000010010111
00000000000111010001110110010110
11111111100110101100110101001010
00000000111000110111111010100100
11111111101011001100100001110011
11111111100110100101001101101011
11111111110110111100101101010001
00000000010100001100011001001011
11111111010010111100011010110001
00000000001110110111001000101110
11111111101110100010101001011100
11111111000010011100000000101111
11111111111010010101011000110101
00000000011111001010111000010101
11111111011101110101000100011101
00000000000100101111001110000101
11111111111010001110100011001010
00000000000001010110010001101100
11111111011000001111010100010000
00000000011111110100001110110000
00000000101110001110001100101110
11111111111100000110000101110100
00000000000110111000010101011010
11111110111110100010110110101011
11111111101100001001100111011011
00000000010010010000101101010010
11111111101110101010010100010101
00000000010110001101100000111100
00000000001001001101011111100111
00000000111000100010100011000000
00000000110111010011101011000001
11111111100111111010000111010001
00000000111001110100011100110111
00000000100110111110110100000110
00000000001000011011001100111100
00000000001101110110101111001001
11111111100111100111011100101011
11111111110110010111110010001010
00000001001000010111101110100010
00000000110010000110110010111010
11111111111010111010111011000100
00000000010111110000100101011101
11111111010110101111011101001101
00000000111101010010001010001101
00000000001001010110011010101000
11111111111101011101111000001110
11111111111101000011001100100010
00000000010001100011000010011101
11111111010100011100111000111010
11111111111011110001110101111011
00000000111110000111000010011111
11111111100110011110111111000110
11111111101111101101110110100100
00000001001001011110111101101110
11111111110111000011001001110100
11111111101001101110100000110011
11111111111101010010100000010100
11111111101001101000110010001000
00000000100111111111001000001011
11111111101011101010011110011111
11111111110000100010000001111110
11111111110011011101110110100100
11111111010101110111110000010010
11111111100110011001011110111010
11111111010100100110111100000110
00000000001000011100010110101101
11111111110100010000110101010011
00000000011100100101100100001101
11111111110001010010001000011110
11111111010100100110111010011111
11111111101100101101110000000110
00000000111010011101100111100000
11111111110111111110001001111001
11111111011110101000001111101111
11111111000001100111011100101000
00000000011000110001100000011100
00000000100001111000001110010100
00000000100000001000100010011111
11111111001111110111101110010101
00000000010001011010001011011111
00000000000110001111100110101001
11111111100011001110101110101000
11111110110111010111011111001001
11111111011101100100010101110100
00000000000010010010010111101011
11111111001110011010100011100101
11111111111100011111000111001000
11111111101000110000010111110011
00000000101010011011011010100001
00000000000101111010001001101111
00000001001000001111100110010100
11111111011000110110101000010010
11111110101100110000110111010001
00000000001100110100001010100101
11111111101101111000111111101100
11111111011011000100101011000001
11111111110110010000011111001100
11111111110000110010101000111100
11111111100101110111110000110110
11111111110010001000011101110000
11111111101100000001011111000011
00000000000011110000000110000101
11111111001101100110110011000010
00000000000010000010100010111000
00000000100010111001001101000111
11111111010011011011011011111001
00000000000011111111011011000000
00000000110111111001000111111000
11111111011001011000110010011001
00000000000111001001111101011100
11111111011101101101011101101001
11111110010110100101111100110011
11111111010100010011110111100110
11111111011101111110000101100110
00000000001100111011010110101000
00000000011001001011001100001010
00000000100110110000110010100000
00000000010011001111000111000100
00000000001010010011101101000100
00000000010110011010110100110111
00000001011000100100111010010101
00000000001010011000100110100010
00000000010010010001100111011111
11111110111110110001011001110100
11111111101110000001000011101101
00000000011111110101001011010111
00000000011101001111100100110101
11111110101000000110001101101100
00000000101010001000001000011100
11111111100110010111101100100101
11111111100110000100110000110111
11111111111001100110101101010110
11111111010001111010001010111101
00000000001010100101110000011001
00000000010111000101000101110011
00000000010100100101111111001110
00000000000001010100100111010101
00000000000000011011110011100110
00000000001010011100000000111100
11111111100000111100110100110101
00000000000101100100110000110110
00000000000111110001010110101100
00000000110010001010111101101000
11111111101110001000101011110001
11111111111010110110111110111110
11111110110110000101110110100100
11111111111110011010001000101101
00000000100100010000000111101001
11111111110011110011101111011000
00000000010101001110110000000000
11111111110000100110000111111110
00000000010010001101100001010101
00000000100110010110111101010101
11111111100101011111101100001100
11111111110100101111110011000111
00000000011010101010101110000110
11111111010010100001000000001011
11111111011011001011111000110111
00000000011101111110000100100101
00000000101001011111110011011111
11111111001110011011100101111101
00000000010100000000000010010000
00000000000101010100110000111111
00000000101011011111011100010010
00000000000011000101100100110000
00000000011001010010000101110010
11111111110100001000001010010101
00000001000101101010001100001001
11111111001010010010110001111100
11111111111010000010010111001100
11111111011100001011110011011110
11111111011011011110000110001110
11111111101100010010010100010010
00000000001001001100111011011100
00000000000110111011011010001001
00000000001000110100000110111100
00000000001001111000000100000110
11111111101110111100000101111011
00000000000010111011100000100011
00000000010100011101101101101110
00000001000010100010000101010100
00000000101101001101100111100001
11111111000010001110011100010110
11111111011100100000110001011110
00000000010000000100011011100011
11111111110000100100001000101111
00000000000000001001101011101011
11111111111010011111000101110111
00000000101100010110000110110110
11111111110001001010111011000011
00000000101110010111111110111000
00000000001101111000010010000011
11111111110001100111011010101111
00000000001100011101010001000111
11111111110011011111111001111010
11111111111000000111111101111001
00000000100101101011101001010011
11111110110010001110001010011001
00000000101111111011111000010110
00000000010001101100000011010011
11111111111110110011111110010110
00000000001111110100010000011101
00000000010111110010011110101001
11111111110000010101001000110110
00000000010010011011110111101110
00000000010111010100011001010101
00000000101010101110100000001000
00000000010101001011001100000101
00000001001100011000010011001111
00000000110011110111100000000011
11111111011011100110111011011100
11111111110101001000011101011000
00000000000010010010111100000001
11111111001110001000110110111011
11111111100111101001011111111011
11111111011110011100110010010010
11111110101011100000000111110100
00000000000010011010111001101100
11111111001110101110101100000110
11111111111000000111100011100000
11111111110000000110011110000111
00000000110011101100101001010111
11111111000111111000011100011101
11111111101101100011101100011010
00000000000000000101000011001101
11111111111101000011111010110011
11111111101011001011111011111101
11111111010011011101011000101100
11111111110010101010111101001100
11111111100010011100000100100111
00000000010111110111001111001011
11111111110010001000001000110011
00000000010011000101010101101011
00000000000000001111000110100100
11111111110000101100001010001101
00000000110000000101100011101110
11111111111010011110110001001101
11111111010101001010110100110100
11111110111100010001101010000010
11111111111001100001101010011101
00000000001100011110000011100101
00000000101100110111010100110101
11111111001000100110001001101011
11111111111001100001111100101000
11111111101001011001100111100101
00000000111011101111000011111100
11111111101100001001000100011110
00000000000011100110001000010000
