11111111101111111100110110101010
00000000101001100010011100100010
11111111110111010011000000010000
11111100001010110110000000111110
11111100011111001110110111100001
00000001010110000000010111111101
00000001101000101000100111110101
11111111110001011100010110001100
11111111010100101000010101000100
00000000001000001101010101000110
00000000000010010101101100000010
11111111111110000000101111101001
11111110000100010110100011111000
00000100011011010001101001010100
00000000000101011010000001110110
00000000100100001101001011011100
00000011011001011110100001001010
11111111101101111001111100010110
11111100100111000110101100111010
11111110000011111110110110010000
11111111111111101101010101111101
00000011111111100111100111110001
11111111000101001101101110001001
11111110110010111110011111101110
11111110101100010100010100001111
11111110000100001100111100100111
11111110100011000100011011010001
00000000001110101101101010100111
00000010000010100100110000000111
00000011000011011111111011111111
00000011011101001011011100011001
00000010101011000110000010101011
11111110001101010111100000100000
11111111011011010111101001010100
00000010001100100000111010111010
00000000001000111010100110000010
11111111011001100001110110001101
11111101110010011011011010110011
11111101001011010011001011110011
11111101101100011000000000010101
00000000010100111000100001100000
11111110110010100101010011111001
00000010001010110010101001101110
00000100110011011010011100011101
11111110100000101011000011000100
11111110011001001010001001000001
11111110011010101110110011100100
11111111100010001000000001101010
11111110001011101010101001111100
00000010000010001110010011101100
11111101010001010110111111000011
11111111100001111000100001110110
00000101101100001101011001010010
00000010011010001010011110011001
11111110110100110111101000111110
11111110100001011011011100000111
11111110000101001100100101000000
11111101000011010011001000110010
11111111101001001110101111111100
00000001001000011101101011011111
11111111001001100100101000111010
00000000010000011001011011000010
00000000100000001001110101110101
11111011110110010000010111100011
11111111010010100111011010010100
