00000001011100010000110011010010
11111110111111000000011001001101
11111110000111000011100011111000
11111111101010111110110011001011
00000100001100111011100010011100
00000100111100100000011001000101
00000110000010110010011100101110
00000010001110010111111101110101
11111111110001101100111101001011
00000010110110000001000100101010
00000011111111101100100011111000
00000010111010101010100100001000
00000101100110010000000111011111
00000101010111000010000110010110
00000011101011010101010101111001
00000001001110000110011110111000
00000010110011000111000100110000
00000000111101101011001111111111
11111111001011000011110001000011
11111100111001110110100100000111
00000101011001001100000000011010
00000001100000111110100100010000
11111101101100010101101110010100
11111111000011001110001011011010
00000101000101110000011000111100
