00000000011000101011011101110011
00101101011111110111001110010010
11100110011011010010001100110010
11110100101110000100110011011100
00000110010001000110011010011011
00001000111010010110011001001111
00000110100011010111101110100110
11111100101001110011100001000001
11101100000011110011010111101000
11111100000000001100100010111111
00000110111110000100010101001110
11111111010101111010010001010101
11101000111001011001001110101111
11111111111001000011101000011110
11111100001001001000010111001111
00001010101111111111001101001010
00000101100101000100110100110011
00010001011000100101101000100011
11101011100001000111100110011111
00001000101110000101010011111010
00110010110111101010101110001011
11011101001111000101101011011100
00001101010001100110101011101110
00000111111001000010001111000010
11100011011111111100010111011111
11101000011100011010101100001011
11101101001101110111110101000111
11101011000000110111010100010100
11110100101100111011010110001010
11111110110000111001000010100011
00001101110110011111010110010100
11110101011010010111010110001110
11010111010111001001010010100100
11100110110011110011100101101000
00011110001101100100110000010010
00001000100000110010001111111011
11111000001101000110100001001001
11111111101000101101111011011011
00001110110011000101111001101100
11111111011010001010100100010000
