11100110110011100110111000100001
11111101100110110100001111110001
00010011011000001101100101101010
11100110100001001100000110001100
11011101101000100100001100111100
11111110110101111100001001001010
11100100111100101100000011011110
11111010000010010011111000101001
00000010010000100010111111101111
00001000111011001110001101011101
00001100111010111011001101001000
11110101101010111100010001101010
00001001100001110111101100101011
11011010101011111101100101110000
11110100011011101010100011000110
00000000111011111101011001010101
11100110111011001111111000101010
11101110011111000011101101011010
00011011100010001100111001101010
11100101000011100110110110110001
11111001111000110101001110111011
11100110111010110011000110011110
00010011111100011111010100111000
11111110000101101010101010110011
11101111111100101001110111010011
11101101000010011101010001000010
11101010001110011101100110001111
11110100001100101010010010000000
00000001001110110101000000000010
00000010010100000010111111110010
