11110101001010001100100111111000
00001010010111000000001111000000
11110100101101010101101011011110
11110101100010011001010110100001
11101111101110111101011110111111
11101011010101110010010101001110
11100001111100110100110000101110
00011000011011011011110011111011
11111000100100010110010011011001
11100110111011100100110010110110
11111010110100011011000010010111
11111010100101000000000101101110
00001001111110100101011101011110
00100001001001111010000001011011
00000111100010000111111001010001
11111101010100000011111000101100
11110010100110001110011001100001
11111110001011110010101010001111
11110111110000011111001011110110
11101001000100100100110101101010
00010000001110011111101001001000
00011100000100011101110011001011
11101100000100101010011101101010
00001001100100001100110000111101
11111111111010100010011101100011
00011011010001001100100001011111
11110011001001111110110000111101
11001000010010101100011111010111
11111111100111100011001011010100
11100110110111001111011101111011
