11111111111000000011001000100101
00000000000101101100001101101001
00000000001001001110111001100111
11111111110110101010111000011111
00000000100100111101111010010111
00000000001101110011111101001011
11111111100011000101010111011111
00000000100010101111110100100111
11111111110001011010111111110000
11111111010110011001010111000100
00000000100010011101100110101110
11111111111110111100010110010000
00000000110010011100010001111101
11111111101101110010100101111001
00000000100011100111011101001110
00000000000111110100110101110010
11111111010001010100001101100100
11111111100011101111011010100101
11111111100000101010000010100101
00000000001101010000101111110000
11111111111110010000011010111001
00000000010111100111010010101001
11111111101001100110100011000000
00000000001011111101100100110101
11111111000101010110000001101010
00000000010110101101010111010110
00000000101101111010010001111010
00000000000001110101101000001100
11111111010010111010010011010001
11111111001101001100011000000111
11111110101000000011110110010010
00000000001010101110100100100110
00000000011100100100010011001010
11111111100000000011010000010110
00000000000111100110100010111001
00000000000100111001001111111001
00000000011001111011011110111111
00000000010001101100011100011101
11111111011110110011000110110011
00000000000111111100010001110100
11111111011010101010000001101111
11111111100000001100110000101000
00000001000010110000000000001010
00000000110011111001110001010011
11111111010000111111101101111010
00000000101001011000001100010101
11111111011010001110100010100001
00000000100100010110000001000101
00000000000010101110001001011001
11111110011000110100111101101101
00000000010101110110111101000110
00000000110110000101010100100111
11111110111010011110100100001101
11111111100000111101101111010011
11111111111100100111011011000110
00000000011001000010110010000110
11111110101010010101000101110110
00000000100010011110001110011010
00000000010000010011010110001100
11111111000000110010001110100010
00000000001100110110001110101110
00000001000001101011110010001100
11111111010111011100110001111010
00000000001100010110000001011000
11111111110101110000011101110010
00000000101110001011100001011111
00000000011011000110011111111111
11111111110111101001110000110000
00000000010000010100101101011111
00000000101101101000110011111001
00000000001001100100110011000011
00000000100101011011110010001001
11111111111101111011101100100111
11111111100011111001101100111011
00000000000110010011101010110101
11111111111010101110001011001111
00000000100000100011110110000001
00000001001010001000001101010001
11111110111011000001001101101100
00000000011011100010101110011111
00000000001111011010010011001110
11111111000100000010101110001110
00000000011101011000100101110101
00000000011111010010111101011100
00000000010000001011001000110101
11111111101100001100100011001001
00000000011111011010010100000110
11111111011111110011011000101100
00000000001101000110000010110101
00000000100001101100011001010110
00000000010111001011101111011010
11111111110111001011110010010110
00000000011110101010101110110001
11111111000001101000100010011011
11111111000100100010111011111001
11111111101100111010100111101111
00000000010100101110100100101001
00000000110010110011110101000010
00000000010101010101101100101011
00000000001100000011110100101111
00000000010111100000100000111100
11111111011001111111000101000000
00000000011110010001000011100000
11111111110111110011101100101101
00000000010001101111110001010110
00000000000111111011110100000011
00000000001100100000011111011111
11111111101011101000011101000010
11111111110100101001000111110010
11111111101011101000111010111000
11111111111010110010011001100111
11111111001111001001101100001110
00000000110010100011101010010110
11111111101111110110000001111111
11111111101101100000111101110000
11111111111110111101111011110000
00000000000010100100111110111101
11111111010110000000001010111110
00000000011111000100111001110110
11111111010110111001000000100111
11111111110101110010011100100000
11111111111100111100000110101101
00000000111111101110000100001110
00000000001000111110100101011000
11111111100100111110110011011010
00000000110110111011100011110011
11111111011110110101001011011111
11111111100100101111000100101110
11111111101010110101001101010101
11111111101111010110011110010100
00000000010001110110111100000101
00000000000110110111000110101001
11111111100110110100110010010010
11111111110110010100100111110001
00000000010111000110101001010110
00000000011000100110100011101011
11111111110010000101100111010101
00000000001111011010110011110001
11111111101100001110100100010000
11111111110101010101111010011000
11111111001010001101011011011001
00000000110110011011101101101101
11111111101111101001101100111100
00000000000011010001010110110101
00000000011011101111100111000110
11111111110100010100110111000100
11111111100011101111100000000111
11111111100010111011011001000100
00000000010100110001000010110000
00000000000110011110101010011011
11111111101001010001001001000001
00000000000110001000100110110000
11111111111110101000110010000100
00000000001100011111011110110101
00000000000111010001111101100111
00000000010110100110110110101011
00000000001100001000000001110111
11111111010000001100100001001001
11111111011111100000011010111101
00000000011001110101010010011010
00000000011000010001011011101001
11111111011011110100111011001011
11111111100010011101001111100111
11111110100010100000000111010111
00000000001000111111111110011010
00000000001010001101100001111011
00000000001100011111000010010110
00000000010111011010101100110100
00000000011010001101011111111110
00000000001101010111100011011011
00000000100001100001010101101101
11111110111110001010100110011010
11111110011011001001001010000010
11111111101100010101110110101111
11111110111111100010100010101001
11111111100000010000100000111011
11111111000000111011000010010010
11111111110100110011000111010100
11111111010100101001101100011100
00000000101010001101010100111001
11111111110011111101110100000110
11111111110011100010110000010110
11111111011001000001000001001000
00000000000110011101111010101000
00000000001101111000011111101101
00000000100011011100110000010100
11111111010110001101011001010100
11111111110001101101110101111000
11111111010000110000110111010001
00000000101001101000000101000001
00000000010111001100011011110011
00000000000000010100100101010010
11111111001010100010000100111111
00000000010001101110111011100101
11111111101011111010010011011010
11111111101010010010011111110010
11111110101011101000010111011100
00000000011100010111110011000111
11111111111011111011101010001010
11111111111101010101001000010000
00000000000100100001100000101111
00000000011001010110001010111010
11111111100011100000101001101110
11111110111101101100000010111010
00000000010001011010011100110010
11111111110000010101011001101111
00000000101000101011001111100100
00000000000110010100011010001000
11111111011000110100110010101100
11111111011010101110000100110011
00000000100111111011100001111010
00000000001011011111101000110110
11111111010000011011110010011010
00000001001001010101010110100110
00000000001111011000001001000011
00000000111100101101001111011000
00000000010100101101001011111100
00000000100100101101001010000110
11111111101110110110110011101101
11111110110110000011000111000001
11111111111110110010101100100000
00000000101001010010111100101101
00000000010110011000111011110111
00000000000001001111111001001110
00000000010110011010111100011111
11111111101111011110100001000101
00000000100001100011100001101111
00000000001001011110100111010100
00000000100101001111100011101101
00000000011100000001110100011100
00000000001101010000001111101100
11111111011011111011101000110100
00000000000010100011100101000010
00000000010010011010100100111110
11111111011100110000110011110010
11111111100100010000000101101110
00000000011000010101100010101001
11111111110001000110111011111010
11111111001010000010011010011111
00000000000000100100100001101001
00000000111011111010000110010000
11111111011011101100100001000111
11111111111011111111011011000110
11111111010000010100010011111001
11111110111010010110101111011100
00000000001101010001101101011100
00000000001011011011100010110100
00000000010011111111110111010010
11111111110101100011011000000111
00000000001010001111011001011000
00000000001001101100011111100100
11111111111100010100000010111101
00000000100001100111011111100011
11111111111001101001001111000011
00000000000001111011101110100101
11111111001110110000000000001010
00000000011110010110010111000110
11111110111000111110001111110011
11111111101011010111110000011101
11111111110000000010101000110110
11111111101111010101110001010011
11111111111000011110000011011001
00000000100000101010101101101000
00000000011101001001010101101100
00000000010010100001110111010010
11111111101010010001110010110001
00000001000110011101100001011111
00000000011100011001101011100000
00000000000100001101111001001001
00000000100101101000111110000001
00000001000100010001011110101110
11111111110110011000011010001111
11111111110011011110001100100010
11111111110001001101010001000100
11111111111001011001110110111011
00000000100110111101000001010100
00000000001110110010110111110001
11111111101100110000110111101010
00000000011101001011100001011001
11111111110100100110110010110010
11111111111111010110111110101111
00000000001001000100110100111100
11111111110001011110011111111100
00000000000111010001101111001000
00000001001000101101011011110100
11111111011011001001101001011101
00000000101001101000001100011010
00000000010010101011101110011111
11111111100111011101110101111100
00000000001100011111110010100111
11111111100011111100000111110000
11111111101101000010010111011101
00000000000001111101110011100000
00000000001101100101101110010110
00000000001111000010100000000100
00000000000101111111001010010011
00000001010010111100111001101011
11111111101011001011011101111101
00000000110100011011111101101011
00000000010100010011110001000011
00000000011011011111001100010010
11111111011001011011001001110001
11111111110111110100110010000011
00000000100001111110110010000100
00000000000111101011111001000010
11111111110110100110010011101001
11111111110010111000111001110001
00000000000101100010000011100001
11111110100111101011011100110000
00000000010100110101010101010001
00000000010100111110111111011001
00000000100000010011111010010000
11111111110011110110000011011101
11111110111100010101001000011010
00000000010000110011101100100011
11111110100110010110100011011101
11111111111111100110000100011001
00000000011110010001110110000111
11111111000011001000000111101001
00000000100000011111110110111110
00000000010001111001110011110110
00000000001000110001111100110100
11111111011110000011101000111000
00000000100011101000111011011010
11111111111101100011100000011101
00000000001111100111111110011110
00000000000100010001011100010001
11111111111101001100001110110110
00000000100110011101110100100011
11111111111000111111101111010010
00000000011100101011101101000111
11111111000100011011000100001011
00000000010001100100101100100011
00000000011010000011101100011000
00000000101100100101110000111101
00000000010110101001011101000010
00000000010010100000100010101010
00000000010000001100010111011110
11111111110011101000111011111110
00000000001111010101011111010001
11111111110111111000101011000011
00000000100000011011110000100000
00000001000111011100000101111010
00000000010100110101001011001011
11111111010111001100111111110111
11111111101001110010010000110110
00000000100011000000010100010110
00000000001011000011111111010011
11111111001110111101111101111111
00000001001001111010110110101110
11111111001001101111010100101011
11111111110000001100110110011101
00000000010011000110111101111101
00000000110001110011001000111001
00000000110100000000111101011101
00000000010111110100000110101111
11111111101101011101001011101110
11111110101011101011011111000001
00000000100111011001010100001101
00000001001001010010101000110101
11111111110010010001100000101010
11111111011001101001011001010111
11111111101110111000111111101000
00000000110111101011001111101010
00000000010011100111101100011101
11111111110111111010011111011100
11111111100110100111010001010001
00000000001010111010001101000111
00000000100011110111100001110011
11111111011010111011010000011100
11111111100001011110001101101000
00000000011111101010001100001100
00000000100110010100101100101111
00000000100001001000110001011000
00000000010011001010101101011111
00000000010110010011000000011001
11111111011100000101001000100011
11111111111100101110000100010001
00000000000001000001000000011001
11111111100101000001100010111100
00000000010110001100000011000001
00000000001000111011001110010011
00000000001101100111000110010010
11111111011101100100010111111110
11111111011011111101011111110100
11111110111010111011111111001010
11111111101101110100001000111111
11111111101001111110101010100110
00000000000100001101011111010111
00000000001101100100101001110011
00000000110111011110101100000110
11111111100101000000101010000100
00000000101100101100011110100001
11111111101110001010010001010100
00000000000110100111001011100001
11111111111010010010010000111011
00000000001010101000111011011110
00000000001111110011100110101010
11111111010101000000000001001001
00000000010000000011110110000000
00000000010110110110101110101100
00000000011010110010110001101110
00000000100000001100110111101101
11111111100101000100100110110100
11111111011101100010110111001101
11111110111101101010110001100001
00000000001010000100001000001101
00000000000011111101010011111110
11111111111000000001000110001011
11111111011101011011101011111000
00000000011001110001010100010001
11111111110010100111110100001101
11111111100001010010110110001101
00000000100001001101001100010011
00000001000111111010100110100110
00000000000101100101100111000110
11111111111001100010010000110011
11111111110010001011011000000110
11111111111000010100110011100010
11111111011010000000001010010111
00000000001110010101101101111000
00000000011001100011011100010110
11111111101100001100010110100100
11111111010111011101100111010011
00000000101000000000110011000100
11111111110110010101011111110000
11111111011110000001010001001010
00000000010111010100010000010011
11111111111000010100011000101001
00000000011011100000000111101101
11111111100000100000010101100100
11111111110011110101011110110101
11111111011001110111110010101100
11111111111001000001010101101111
11111111110000001011011000110010
00000000000111100000111011010010
00000000001110000101110001010101
00000000000100100111010111000100
00000000100110011100000100010010
00000000001111001101101101101101
00000000011000010100101100101001
11111111101000000110101100100000
00000000001000110011100011110110
11111111100100111001101000000000
00000000100000100111111101010110
11111110110011011110101100101011
11111111101011100111100011110101
11111111100010001101110111000001
11111111011001000001000000011110
11111111100101110010100001000010
11111111011110100000000000000111
00000000100100100100001101100100
11111111101110011000010000010101
00000000001001010100111110010110
00000000100100011011101110101001
00000000011101100001110011101011
00000000111001000000111011001100
00000000100010000001100011100110
11111111100100010001100001010010
00000000100101011011010010111110
11111111010111011100010001001111
11111111100001111111010011101001
00000000100010111111110011010100
00000000110100011110110101100001
00000000010001101011011111101100
00000000010000101001000100001101
00000000010110111101010000110100
00000000010011001111111000000001
11111111111000110111011000101001
11111111111011101000010001011011
11111111011101111010011110010101
11111110111111110000000010101110
11111111110111000011110011101100
11111111101110011100011011101100
11111111101111101100100011100000
00000000111000001111000101010010
00000000001011000101010111011000
00000000011100001100000110101011
00000000000011101011001000000110
11111111100111000000111000100010
11111111110011011000001001101010
00000000110011110001100001101100
00000000100011110001010010001011
11111111111000110110001010001111
11111111111000110000001010110010
00000000010001101101011000111100
00000000011110110101000001100010
00000000100011011100101101101100
00000000010010011111100111000001
11111111111001000100101001111111
00000000011110000101101101000110
00000000100000000110000001100111
00000000101011011010100011001100
00000000010101111000010010010111
00000000000000000110110100111110
11111111111010110011100101110101
11111111101010100110001101100011
00000000110100011111110001011100
11111111101011011010110011000111
00000000101101010110110011100001
11111111111010100001011101010011
00000000001010001110011000100011
11111111101010010000000001011101
11111111010110111001101101101000
11111111001100110011001101101000
00000000101111010111100000110011
11111110101110001111001011000100
11111111110000111011100100100000
00000000011000110110110000011011
00000000000110010011101101111100
11111110010100111000000001111111
11111111110100000001100100111110
00000000100111100100010100111010
00000000001111001011110001000010
11111111100001011110111000000110
11111111100111101101000010000010
00000000101110001111110100110011
11111111111101010011110101001110
00000000100001101110001000100010
00000000100000010111110001111001
00000000001011101000011000111110
00000000100110000001011111110100
00000001000100100100011001010111
00000000101000000110011010001100
11111111101100110100110100011000
11111110111100110001011000110001
11111111101111000011110010110110
11111111110000111000111101110101
00000000000100111011011101011001
00000000100010000010000010110001
00000000010110111111100111110000
00000000101001110000100111100011
00000001011100110001011001000010
00000001000110010001010101000010
00000000001101001100100001110001
00000000001111011101111111000001
00000000110101010110000011001001
00000000111101000001111011011100
11111111001011101110101110000010
00000000100000101100101101010101
11111110011101010011010010101101
00000000010011101000101110011000
00000000010110100000000101011010
00000001000110010001010010111011
11111111001110011100111111000110
00000000010010100111001010011001
11111111000000010001010101110101
11111111011111101011101101111111
11111111110010111110110010011110
00000000001101100100100110100110
11111111100011101000001101111001
00000000001111111000010111110001
11111111011110100001111000011101
11111111001000010100111000111101
11111111101000100110100010011010
11111111110010100100111100000011
11111111111110011001001101111100
00000000010001111110110110101110
00000000100101000110100000110110
00000000110011000101100001100111
00000000110110010001110010011001
00000000100010101000011001110111
00000000010110001101000001010001
00000000100010010111011011101001
11111111101010101111011010111000
00000000000000011011100000110000
11111111010000000101111000111000
00000000101100100000101110010100
00000000100100100101100110111001
11111111001100001010100001111100
00000000010110000110011000100000
11111111010011100111110010001011
00000000000000111111010010100011
11111111101101001110001000001100
11111111100000101100101001010011
00000000001010010011110010010110
11111111110111110111011100001100
11111111011001011000010100100001
00000000110110110110001000100100
00000000111110001100011111101010
11111111101100110001111001001010
11111111101000110000101100100011
11111111010000000101000110101001
00000000100111011111001101111000
00000000010000100010011110000000
00000000110010010110010100110011
11111111001001010111101101110111
00000000100010001110001110101110
00000001011011111010000010100011
00000000001000101110111111001011
11111111100010110100111110100101
00000000011011101110000001010101
11111111110010000101101100011001
11111111111101000000101100001110
00000000011000101100111011100010
00000000100110011000111001000010
11111111101101010011101100110001
00000000110101110011101001101110
11111111101000011100101111110100
00000000110110100011100101010011
00000000100010011001111100010100
11111111010001110111111110100100
00000000100110011010001000110100
00000000111010110111010101011100
00000000001101110110001000111000
11111111001011001001010010000110
00000000001100011100111010111011
00000000001110110110111111110010
00000000011001011010010010110101
11111111110000101110000011111111
11111111101101010110100110010111
11111110101100100011111101100011
00000000100111011011000011000101
11111111100000001111010000110001
00000000001001101110001001101111
11111111101100100100101000101101
11111111100100111111100101110100
11111111011110011101001111010000
00000000100000111001001110000000
11111111110101010110110011101101
00000001000111111101011111100101
11111111011101001000010001110000
11111111111011010010110100011100
11111111101000111000101111010001
11111111111111001011101010100101
11111111110111001000111001010001
00000000010000110100111011011001
11111111110110000000110011011000
11111111101001001101101000001110
11111111110100100110001000100111
11111111111011011001001101110000
00000000000011100101001001100111
00000000001001011000111010110111
00000000010000110110001010001000
00000000100001110110001011000001
11111111110010101011010011100000
11111111110111000101000000110101
00000000111110001000111011101100
11111111110110111110000001010010
11111111010001110011000101011100
00000000110010101101110000111110
11111110111001001000101110011000
11111111011101001000011111111011
11111111110000000111101111110001
11111111101010000000110000101011
00000000100010010110100110111001
11111111101011000011111110001001
00000000100111010000100101010100
00000000000001111110001110100011
11111111111101001111100100000111
00000000001010110101011011110001
11111111000110000111000011111110
11111111110010110010110011101111
11111111010101100100011110111101
11111110110110000010101000000001
00000000100100110010110000001000
00000000011001011111100110011000
00000000100110010111001110010010
00000000000111110000110000001011
11111111011101110000110001001100
11111111110111000101001101101101
11111111110101011110001000011110
00000000000001100011100001110000
11111111111001110110100110000111
11111111100000010000000100110010
11111111010011110111000001101000
11111111011101100101010010011111
11111110111011000000101101111011
00000000011111111010100111100001
11111111111010100100110111111011
11111111100000101000100010001000
11111111011010110001001010111011
00000000001001111110001011010110
00000000001001001100111110110010
11111111010000111000001000000001
11111111111110110011111000110101
11111110111010000100010110011000
11111111011111100000011011010110
00000000001010001010101000101011
11111111100011101111100000000111
11111111001101011101110111110011
11111111101000111110010001010111
00000000110111111111001111011001
00000000001001001101011010001011
11111111111101110111010001110011
00000000010100110100110000110000
11111111100111101011101111111100
00000000000000111110011011010000
11111110101110111110111001010100
00000000010001110000001000111111
11111111111101101000101111010101
00000000001101001100010000101010
11111111111000001010000110101111
00000000001101110011100101111111
00000000000100001010100001000100
11111111111001011001011010101011
00000000001100000110100000000100
00000000101100011010100110111010
11111111111011001000100011010111
00000000010100011111110100111001
00000000110110000011001101011111
11111111000011010010000001100011
11111111110111001011000011011000
00000001010110010000101001000110
00000000010001111010010101111011
11111111110001100111110000000010
00000001101101111110100100000001
11111111011101010000100100000000
00000000110011010000111010101000
00000000001110000101100001110010
11111111100100110001011100010100
11111111110011000011010101000101
00000001011010101011010100101101
11111111110100101111111000000110
11111110110110011000100000110010
00000000110100101100011010111010
00000001000000010011111100100001
00000000010000010111101100000010
00000000100110111001110101000011
00000000000011111110111000100011
00000000101001100101100001101110
11111111010100010011111100010010
11111111011100000100010010101111
00000000000101000010111110100010
11111111010111001111001101111000
11111111111001001010011111001100
11111111011000100110000000100110
00000000110110010000000101110110
00000000001011100110100001001101
00000000010101000111010111000000
00000000001110110010011011010010
11111111110100011000001001000110
11111110110110110101000011101010
00000000001010011000000110010000
00000000111010101010110010111100
11111111100101100110100010011101
00000000001111111011001101001000
00000000101001110100100000101111
11111110111001010101101111110100
11111111111011010000100011101001
00000000010000010011111001000011
11111110110000101101110110111001
00000000000010101101011100100110
00000000100010001110110001011110
00000000011011000011001011010111
11111111011111011100101001111011
11111111011000101110110100001000
00000000001100110101010011010101
00000000000101011010011011010001
00000000001111110110000101010001
11111111100000110100111100011011
11111110110011011100010011111000
11111111110000001101010101111010
11111111101001110000110010010010
11111111001010011100000111111100
11111111100011000100111010100101
00000000010001110110010100101101
00000000001100001010100010111100
00000000011010111010001100111011
00000001000001101011111111110111
11111111110110000111010100000100
11111111101010000010001100100100
00000000011101111101110111011110
11111111100110001100100000001011
11111110111000110001110000101010
11111111110001100000000111000010
00000000101101011011011001001111
11111111111001010111010101101100
11111111101101111101000000001011
00000000100000000010100010110011
11111111110011010001100111111010
00000000000101111001100111110001
00000000000100001010011000011110
11111111010110100100000001000011
11111111101000001101111111111000
00000000101001110110100101000000
00000000110101010111110000111010
00000000000011010101100000011001
11111111110001000000010010110110
00000000001101001111010010010011
11111111010001010110011010010001
00000000010000010101001011011010
00000000010000101011110110011010
11111111111001110111111110011011
