11111110110010000010010110110000
11111110110101100011110011011000
00000000010011001111101000101111
00000000010001100111101001000110
00000000000000010100001001011111
00000000111010100001111110000010
00000011101100110111101001111011
11111111000110110010111100100101
00000000101101111111000111101010
00000001110011011111110000101110
00000001011011001111011010011011
00000000010001100101010100011010
00000000101010101010100111110011
00000001110000010100101000010001
00000011011110001100111010111001
00000000011000000011110100101001
00000001000011101111100000010010
11111110101101001000010111101101
00000000001001011100000100011001
11111111111011000110111100101001
11111110101110101111100100100010
00000001101000101010000011001110
11111111001101101111101011101100
00000000110100010010111011110101
11111111101011100100011010001000
00000000010101111001100001111010
11111111110101000000100000110010
11111111111100100001010111110100
11111111000011010100001011100101
00000010111010001001100011110000
00000000111010111001011000111011
00000011011101011010110101001110
00000000000010101000001001011001
11111101011100000101000100011001
11111111001101110010000010110001
00000000000101101100000111011110
11111111101111010100110111101011
00000000100101011010110011001010
11111111111000100001111011110000
00000001100101101101111011111001
11111111001000100001110110101110
11111111010100010101011110011101
11111110101101101100101001011000
00000000010101011111101100111100
00000001011011010100010011101010
00000001110001101100001011000111
00000000001110101100111101010010
11111101101110100110111000011010
00000100000011111110100011011011
11111110110110001010001100111101
11111111101011001111011010100001
11111110011011100001110011001101
11111111100000111111100001110000
11111111101111010000111111010101
00000010101011111101100110101100
11111100010110000111010100100110
11111110101010101110101010101010
11111111011100110011111010100101
11111110100001001111000101111011
11111111111011111100110011110000
00000010001111000111011000110111
00000001110101011101111111000010
00000000100001000000001101110011
11111111101011101100000001001011
11111110110111111110001101101010
11111111110111000000101001011001
00000001000100010110111001110010
00000000101010011001110011011011
11111111000100111010100101000100
11111111010001101100010001000011
00000000111011001101011100101010
11111111100010101100010000000101
11111111100011101001110011110001
00000001011110110011101111111001
11111011110011000101011101011110
11111111110001110101000001000000
11111100010111101010010101111000
11111110010101110001101100010011
00000000010010001101000101010010
00000001111100011001011100110110
00000100001000011110010000100001
00000000010111101111101011111100
11111111110100100011101000101100
00000000010111011010101000000100
11111111101011010011110001100101
00000010111010110001010110010110
11111110000111001010000101011001
11111111111111010000100001111100
11111110100111111110111110011111
11111111101100001110001101000010
11111111101101111110110111000001
11111101101111100100111011100111
11111110110101111110000001000010
11111110000101111001101000110101
11111101101100110011101111100110
11111111011000010011001001010100
11111111110111111011010110111111
00000000101100010001101110110110
11111110101110101110000010101011
11111101111001100001101101111000
