11111111011101010011011000010001
00000000111111000110101111111101
00000010010101110011110001001011
11111111101001111011011101000100
00000000110110011101010110010110
11111110011110000111101111011011
11111110000101001001110001110001
00000010111111110111001111111001
00000010010000100010100111101001
11111111011100010000000110011001
11111111001011101011100001111111
00000010110011000000011100010000
11111110100011000000100100110010
11111111011001011000011011111001
11111110111001000000010111000110
00000001000111000011101010100001
11111110000100010011111111100110
11111110000101000101001010000001
11111110000000110000011110100010
00000010010101110100001100010110
11111111000111101010001011011010
11111100110011100110000010100010
11111100110001011011101101000110
11111110010100010010100011111111
11111111100000101101110110000010
00000001011011000011111011010100
11111111011111110001000101100111
00000000101111000100111100110011
00000001111001101110001011000011
11111100110010000010010110110100
00000000011001101100011101100110
00000001111100011110110010011101
00000001010101110101000010100011
00000000011000100010011110010111
11111111100110110111010101111111
00000011101011010101010100110001
11111111000100010011010010000011
00000010111010111100001101011000
00000001000001110011111001111101
11111111011000101010101001101111
11111110001001110001100001110101
00000011000010101110000000101011
11111111011110010101100100110110
00000000011000000010010000111111
11111111110001100010010001100011
11111101001101001101010111010010
00000001001000110001101110000110
00000000110110001001011010100010
00000111111111001000000100111000
11111110001101100101111111010101
