00000000000010111110111001001111
00000000000001001010011101100011
00000000000100101010110111010000
00000000000001001111101000000011
11111111111111101100101001011010
00000000000000100011010010101110
00000000000000110001111101111111
11111111111111111010110011001001
11111111111111111101010010000110
00000000000001101000111000011111
00000000000010011010001010111000
00000000000010100001010000101111
00000000000000110001001101100001
00000000000000011000010111100011
00000000000010001101110111100011
11111111111111010100011110101111
00000000000000110011000110001111
00000000000001001011001111001000
00000000000000111111001000010111
00000000000001001110001000101110
00000000000000110000101010010011
00000000000001010010110100100101
00000000000001010010001010001100
00000000000001011000100100011000
00000000000000101010110110010010
00000000000001100001000111101000
00000000000011001001101010101111
11111111111111110100111000010110
00000000000000101111110010010011
00000000000000001000101010100100
