11111110100101010100000101011001
11111111111010110100011000010110
11111110101001111110111000110000
00000010011100011110010100000110
11111011101110100110000000100100
00000100111111110011101110101100
11111110100100011010010000000100
11111100011001101101000110110001
11111101011000011100110000110110
00000000111101100101101000001110
11111111010101001100100110100110
11111110001001010011101101011000
11111110001011010110110100110111
00000110101001101110111100100111
11111010000011000011001011011111
00000111001110001101001010101101
11111111000010101110001011010010
00000001110001011011101000110111
00000100110001111001010000111001
00001001101110000011111111100110
00001100001101011011000110111001
00000011101100010111011110100011
00000011111111001110110011011110
11111110010110011101100010111000
11111101110111000111001011101111
11111110101001010101111111100000
00000101100010010101001000101110
11111110011000110001000100011000
00000101100100001100010001110111
00000000010001110001111000110101
