11111100111010011011010110011001
11011010010001001110101100111000
10110010101001000110111111110010
11100100100100100111111000001101
10110000111101011010111110000100
11100010010101001011001010001001
11111011101010001111010000111001
11010011010110000100100110001101
11000001011111000010100010000111
10111101000100100011101100111010
10111100110011101110011100010101
11110100100010011111011111100001
10101010011000110010101011011110
11001110101101110001110011101111
11101101101100000111000101101110
