00000001000110010101111000000000
00000010000111011111100011010001
00000001001000011001100000011101
11111111110100100100000110011001
11111110100100100011110000010011
11111101001010011001110011001110
00000000100101010111110010011100
11111111110111011101011111000101
00000000001110111011110101001001
00000001010011101001001011101110
00000010001110110111111001111001
11111111110111111011110011010001
00000001110111010000010001011110
11111111000011010011110010000000
00000000011010001011011010100111
00000001101001101100001011100011
11111111111110110000110101101010
11111110011111110000101101110011
00000000110110101011011101010001
00000011000001110101011110110011
00000000101100001110010101011110
00000000011111000100010101000010
00000000100100000000011111111011
00000000000100110111000111101000
00000000010001111110011101011100
11111111001111100101000001010010
11111111101011110110110011000111
11111111111010100101110111100000
11111111110010001101110011011011
00000001011101001001111111000001
11111110101111000011001101111011
11111111010100001110111010110101
11111101111101110010111011110001
11111111100010111100001001110011
11111111100111111010010111011110
11111110110110000110001001010011
11111110110000001001001100111101
11111111101001111010101101111111
11111110101110110111101010101011
11111111010001101010101111111001
11111101010111101101100100010110
00000000000111110100000011010010
11111111010101100100000110001111
00000001000101110001101011111010
00000001000100011111100111001000
11111101101100011001011111000111
00000000110001111100111110010110
00000011000111000011101011101110
00000000011000110100110110010011
00000001010011000010100010100100
11111110000111001011001110101101
11111111111101011111101000000011
11111111001110010010100001010001
11111111101011010101010010110101
11111111111010110111001010010010
00000000110110110011011110010011
11111101011101110011101000111011
00000001001001110010011111011011
11111101100111010010111011001111
00000001110110001101110011111000
11111110110111000010110001111001
11111111101010010011011011100010
00000001111011110111100001001000
11111101000000110000100011100001
00000000100110100001000111011011
11111111100111100010010110001000
00000000010000000010000001010101
00000001000100001101111000000111
11111111000001101111001101011001
11111111111100011011111010100000
00000000010100011100001101010111
11111101010110100111011011101100
11111101001011111011000010010100
00000001010011101010011100110100
11111111000101111100101100111010
00000001101101010010100011001001
11111110010111000000011001100001
11111101111111000000101001111010
00000001011011010110010110100000
11111111101110010100111110100111
11111111000010010101011110100001
00000001100100011100101010011100
00000000111001001011010100101110
00000010101011010100100010101111
11111111000101110101000001101011
11111101111011010110001110111110
11111110010000010000100100000100
00000000010111011110011100010100
11111110000100111101110101010111
11111111011000101110110101110011
00000000010010110100110101000100
11111111000110000100000000001110
00000000100001001101010101010100
00000011100110110010101110011100
00000000011111111110100100001000
11111110111001010110001100100101
00000000101100100001111111000001
00000000110011100010100110101110
11111101010010001100000011001100
00000011000001101100010010100110
00000000110101000101001001100000
11111100110101100111010101001101
00000000101011010010001001111101
11111111000101110110111010111110
00000000001000111000111001111101
00000001111111110111111110010010
00000000001011110110011001100110
00000000101110011011100100111100
00000010101001110011000101011111
00000001001000000111011101111001
11111111110111000010111100101100
11111110000101100110111000000111
11111110001001100000010110011010
11111111011011000001011110011011
11111111010101100111011010001111
11111110100101110111010000000111
00000000000111101110111101100100
11111111001011111001011011100101
11111110011011100101101011100100
11111101000000110100110000000010
