11111111001001110100110011011100
00000001101010110011101010011111
00000010001101010010100101010011
00000000011010000010100111110111
00000010011011010110000100011110
00000001111010000001000111110000
11111111101010101111101001100000
00000000010101010000011110111101
00000001000011010100011100010000
11111110110100000010111011110100
11111101001001001111100100110000
00000000010001110000000011011111
11111101010101011101010101010010
11111111100101011111010110100110
00000000000111101100000100110001
00000010000010001011000010000000
11111110101110111110010100110001
00000001001100111001101111010100
00000001011001101001110001001001
11111111011111011010000110001000
11111111110001000001100001110011
11111111111010100001011001111000
11111110101111100001101110111011
11111101011101001010000011001111
11111111111010100000110101011000
11111110110110010111111101000111
11111111000011110111011101111100
00000000010001101001011000001011
11111111010010100000101010101010
00000010011111011011000101101010
00000001001110110001111101101111
11111111100000010110011010000110
00000000010000111101111010111100
11111110101111110111010000101001
11111110011000110000011100110101
00000000000111111111000011011011
11111101011101100111010101000100
11111111011000011010011101000010
11111110010010110010100011100011
00000001011101001001100011001110
00000011111100101001011111110010
11111110011111101110100001010110
11111110110000110101001110011100
11111110110111101010110011001100
00000010110011100000000000101000
11111111001101001111001101110100
00000010100011001110100110001100
00000000100010001101000101010011
11111101101110100000010110000100
11111111111011101001100100110110
00000000110000001001001011010001
11111111011100010001110010110111
00000000111011010010001001101000
00000001001011110001000000110101
00000001110011001111111100011111
00000001110100110110001011101100
11111110011000011001000011100100
00000000110000110000010010101001
11111111110000110001001011111000
11111111100101111010101100000010
00000000000000111100110110111110
00000010001101110000000101110001
00000000001100110111101101111111
11111101101001000101111000110100
11111110011100110101010110111111
11111110111010100101011001100100
11111101111000100110011011011010
00000010111101100111001010101101
11111100011011000001000100110111
00000011001011100010101111111001
11111111011010110111000101011110
11111111100001001000001011000110
00000010000100010100110001001010
11111110110010101100001000010100
00000001011000000101111101111010
11111101100111011110011011110100
11111111011001100011100001101111
00000000000001001001010001110000
00000000001000110001001100110000
11111111101100001100100000010010
11111110101011111111110000111101
00000001001111000011111011100001
00000000110111110010010010110110
00000001000010010010011011101110
00000000101011000110111010010101
00000000000000110101111000111100
00000000110100011111110110011001
00000011000110100110010100001000
11111111101000010000100110100100
11111111100110010110011010100001
11111111010111111100010000100100
11111101110101011100100100000111
11111110010011100110110011000000
00000000110011110010000000111011
11111111100010011010100100111000
00000000101100010000100000110111
11111100101100010100010110011110
00000000111000100100101011110111
11111111011100101110111101010001
00000001010111101100010111010101
00000001000100111000001101011011
11111101011010000110010111110011
00000001010110011111000011111011
11111110000100100101000111110000
00000001100000100110000011110010
00000001000001011100010100000010
11111110000100000110001001010010
11111111111110100110111100100110
11111111101111100101000111011011
11111110110100101010010011000001
11111111101011001011001010010101
11111110110101001010011001010000
11111110100110000000010110011010
11111101111001101001010101100001
11111110100001001111011111100010
00000000110000100101100000000010
11111111010011111010111010010111
00000001111000000000000010101101
11111111010010100011011100001000
11111111000110100000001110001110
