00000001100011101011110101111101
00000010010100011111001101100001
00000000100110001101111011011010
11111101011101011011110011011010
00000101110110100111110001111111
00000000010001010000011000001100
00000000100001100110001000101111
00000001011010101001001110001011
00000011000000001101011100000100
11111101111010101011000010110100
11111110110111000011111110011111
11111110011001111000111110010001
00000001101010101001111010010001
11111110010000100010011011001100
00000010111100011010010111000111
00000110001011110001000011011100
11111101000100110001110010011100
00000001100111100101011110000010
00000001001110010010100011101111
00000001110010001011111101011000
00000000010111000010100010010000
11111110110001001001101110001000
00000000100000100001011110101101
00000010110101000011001010111011
11111111000000000110010001101011
11111100110101100010011011101010
00000001111100011000111010110010
11111110101011010101111110011000
00000011011110101111010100101010
00000000011110100001100011000100
11111110001000110101001101110000
11111101011110111101101110100010
11111010111111001110010010011011
00000000100101011100110110000010
00000001110010000000101100000011
11111101111100011011100000111110
11111110110100111111001001001101
11111111001101111111000100001111
00000000100111100101101011010101
11111111110100010100100011000010
11111110101110011101001101011011
11111111101100010101011101011001
11111101101101110100010000011000
00000000101101110001001000100001
11111110001101101110011010001100
00000000111101101011110110000010
11111111000001111000001100010110
00000000011000111111011101110011
11111101100100110110001101100010
11111111111100010111101011110100
00000001101100000110110110000011
00000001101001001000110010011000
00000010010111101000111100010100
11111100101011110110101000111110
00000001110111101000011001111010
11111101010110101110111111101010
11111110000001011111001101001011
11111111110010000111111001111001
00000000111111101100110011100011
00000000011000100011100111011011
