00000010000111001101100101111001
00000100100000101111010001100001
11111111010010001000100000010110
00000010101111010000111101001101
11111101111001000111010010101101
11111111110111110111001001111010
00000000110011100010110110001100
00000000000100011110000100010010
11111100111110110010100011011111
11111101101010110001000101111011
11111110111001111010001011000011
00000010101010100100001100011001
00000000100100110100100000111011
11111111111101111001111011000101
00000001001001010110100111101101
11111110101000100000110101101000
11111111100110101110010011111110
11111110001010110001011101011000
11111111001010110111100100001010
00000000001111001000100000100010
00000000000000011100111011011010
11111011001110111011100100101001
00000111010011101011011111000011
00000001011011111010111111110111
00000010100001011110101100110101
11111111110010001000111011110110
00000010010100001001101001111101
11111111111110100101101111010001
00000011011111011101101100110101
11111110011010000110101100101011
11111111011011000110001101111001
11111110111011111011011011110100
00000000111001101100110001000101
11111111110100001101100101100101
00000011000110100101110101011101
00000101100100100010111101111100
00000000000101011011100001100011
00000010100011100111101011110010
00000000100001111110001100000010
00000010110000100110110010011111
11111100111000110110010111101101
11111111100101010011000110100110
11111111010011011001110011101001
11111011010101001110111110100101
00000001000011000100000110000000
00000000101101111101000001011001
00000000011110010100110000011010
00000000100100011110000010000000
11111111001011100011100111011011
00000000100011001000110010111100
