11100111111101101011110101110010
00001111001001111110000100010100
00000100011011010001001010001000
11111010111000000011011110010100
11111111110110001111110010110010
11110000011011110000000001111010
00001111010010100110001010000011
00000000100010101001110001011110
00010011101001100111110001011001
00001101011010000100011100111100
11111101110101000001010101011111
11110001101100010011100101001101
00000011111001100010110000000111
11111101010000000000111111111001
11110110011110000111010100001010
00000101101010100001001111100101
11111110101110010010100011110010
00001111111010101011000111101001
11111000000101101000110100100101
11101001101101111011101111010011
00001101011111101101000111110011
11110110011110101110011101111110
00000101111000111010100001010010
00000001111101110000010100000010
11110011101010001000111101011000
00000110111001100010011111010100
11111010011000000111111011111100
00010010100001001111100110110110
11110100111100100111110011111011
00000101111011111010111011111011
