11011110111111000000000101001101
11110000100110011001000011111000
00001101111101111011101011111110
11101101010101001111111010111011
11100001011110001101001000000010
11111100111100000011011111000010
00000110000010001100001100100001
11101101110110101000111010100110
00000010001101101100000100010111
00000010001110001000101000101111
00000101001111001010110000111001
00001000100100001011110111111111
00000111101110001111110100110011
11111110111011010111010110000010
11111100110101001110011111010100
11111110011010010110110110100011
11111110011111100100111111000001
00001001101100111011000010001001
00000111010000010100100011100110
11111111100011001011011000001100
00000111111001011111001100110001
00010111100111100010010110100011
11011010101000011011100011111000
00000010110001100000001101000001
11110000001101001010111011111011
