00000000001001100100101010001100
00000000011010111011100001010010
11111110111100111001010111111001
00000000010100101010010110101000
11111111110100000000100100101010
00000000100001001111111110110100
00000000110010111000111101101010
11111111110001000010110000000000
11111111101111101010010111111000
00000000001100111001101010001100
11111111111001001110101100001010
11111111011101111000011100111100
00000000000110010101010011000000
11111111101011011100010100100010
00000000001110010000011010010000
11111111111111111010101001110001
00000000110000010000010110110001
00000000011001001101111101100001
11111111010110011101100100001000
00000000000001001010011100101111
00000000010011100101001000101011
00000000101001101110000100101010
11111111100101100111011011111011
00000000011011011010100000010000
00000000001000010001010001111011
11111111110111000110000100100101
00000000110010111000100101000011
00000000110101101111110011001000
11111110111100111001010001110100
11111111101101010111000101110011
00000000100100010100111101011010
00000000010001111110011000100110
00000001010100100011110101101111
00000000001010011000011100110110
11111111010111010010000011011011
11111111111111001100010000000100
00000001000100110111011111101101
11111111001001000001001111010100
11111111011001100110001001100011
00000000001001011100101000101101
00000000000101111110101101010100
00000000000110011010000011001100
11111111110110000000011010111100
00000000011000001111010011111001
00000000000000101001001011000101
00000000110101110100011111111101
11111111110010101001000010111011
11111111010111111100000010010001
00000000010101110000011110100100
00000000001000000111000100001010
11111111100101111000101011011100
00000000010010010100010010101000
11111111101101011010100110010000
11111111110011000001100000110101
00000000110011010100100101111000
11111111111101000001110001110001
00000000110010101111100110011100
00000000010010110011000000110101
11111111101011110011010000000111
11111111110011011110100111110001
00000000011010111000010011111101
00000000101001110101001001100010
11111110110010100011010010111100
11111111110111010110111100100011
11111111101000110001100011001110
00000000101101101111001101011011
11111111111011110001010100000000
11111111100001000000011101110010
11111111011001001011011011011100
11111111110010001011111011100100
00000000000010101111011011100101
00000001000001110111000100111000
00000000000101001010001111111111
00000000110001101010011000100010
11111111000001010010000101001011
00000000101000111001111101100110
11111111111000111110001101111111
00000000101000101011000000110101
00000000010011001110101010010010
11111111001101101101010000010100
11111111110111001101011001100100
00000001000011010000001111010100
00000001000011101011010000110011
11111111111111100000001100000001
11111111110000110001011110001111
00000001000000001001010101110000
11111111011010101100001101111001
11111111111011001110011111011100
00000000010001100011101000001100
00000000100010111010111111111011
11111111100001100110101101000100
11111111100101011001101010110110
11111111100011110100000011101101
00000000110010001110100010110101
11111111100010010010110001010011
00000000001000011001011001110101
00000000010011000110100101110000
11111111100111000001100000110110
11111111101101111100000010111110
00000000111101101000101101001100
11111111010111110001000011001000
00000000111000000111100101011100
00000000101000101101001101000100
00000000000110111101001010101001
00000000001110010011010101011111
00000000111001001111111001011100
00000001000010010111010000001100
00000000001010100101011010100100
11111111111011010100111010011111
11111111000100010010010011001100
00000000010000110000001000011111
00000000010011001110010010100001
11111111010100110011001010110000
00000000110111101000110100110010
11111110110111011000111001101111
00000000100001111011100000000011
00000000100000010001000101100100
00000000001111111110011111001011
11111111111100111010001011000111
11111111010011010000100100100001
11111111101000110101001001100001
11111110011011110000101111110001
00000000001101100100111011100010
00000000001101100000000101010000
00000000011101110100110000001101
00000000000011110001101010111110
00000000010101110001100101001001
00000001001101011101110011000001
00000000001000010010010101101001
00000000100100110011100101100010
00000000100111001110001011111100
11111111010111100100101001011010
00000000100011011011111011111110
11111111011101011101001011011101
00000000010000111110000011100100
00000000100001110100010110101011
00000000101010010100011011000000
00000000000111111011011110001010
11111111101000011110001101001100
00000001000010110100101110001100
00000001000001001111011111000100
11111111101010110101111100110000
11111111010101110100110111001010
00000000110110000110011001010101
00000000001001100100111001001110
11111111110101010101110001100110
11111111010001110001101010010110
11111111100111010100011010000100
11111111111000010000100010000110
00000000100000011101000111111100
11111110111000010000000011001010
00000000011111100110101101110110
00000000000010110111111011000111
11111111010100111010000000110100
11111111010100111011000011000100
11111111100110101000010100011001
11111111101110001110010110000000
00000000000000110100000101111011
00000000011100101011100101100101
11111111101000011011011100000000
00000000000111100111111001001010
00000000010000111100111100101000
11111111111010100110101110010001
11111111001110001001100011001011
00000000001110011001100101110001
11111111111100000010000011001001
00000000101111011110111001000110
00000000000111100010111001101010
00000000100001110001110110101000
11111111101010010011111100011011
00000000011000011111111110110100
00000000100101000110000111001111
00000000110111010100011110101101
00000000011001110010100110111011
11111111110101110010110010110001
11111111101100011101110010001011
11111111011100001011011110111111
00000000011110011001011000110010
00000000011011101011011100011001
11111111101110100001110001100110
11111110101110100100101100111111
00000000100100001001011100111101
11111111000011000111111110110001
00000000000001110110101011010101
00000000010101011010110001101001
11111111110010001011110101101011
11111111010111101011010001010011
00000000100101101010100101011001
00000000000010000010110100011111
11111110111000101100100000001111
11111111101000011100110100110101
00000000000001001000110011000110
00000001000101000001100111001100
11111111111010001010111101111001
00000000010111010011111010111100
11111111110111011011010000000001
11111111011100101100100000110011
00000000100001011101101011100101
11111111110110111110010101111010
00000000011100011111101010100010
11111111111010010011000011100100
00000000011110011100110001100011
00000000000111010010001101101110
00000000010110000011110111000100
00000000011110010011111110101000
11111111001010001101100110100010
00000000011001000101101011101100
00000000101000001010101010000100
11111111111111011100100100010101
11111111100000000000011001100010
11111111110000100001101011010101
00000000011110101010111101100010
00000001001111011011011011101000
11111111000010111010010111101110
11111111010011101101000011100010
11111111110011100100011110010110
11111111100101100110110101111101
11111111000011011101011001001011
00000001000101010011111110010010
11111111001000100010100010011010
00000001010101000101011100000101
11111111011101100011110010010011
00000000001001100010111100010110
00000000010000110111110010110111
00000000010010110110011111110001
00000000000010001111111010011010
00000000100101010100101110101001
00000000010110001000011101010001
11111111001111010101100110110000
11111111011100100111101001101001
00000000011101101100011100001110
11111111100011001101010011100010
11111111100100001011011011100111
11111111110001001010100011010100
00000000000111101110100011010001
00000000010001110110101010000100
00000000011010111110101011000001
11111111110001010010110010011001
11111111100111111010111000000001
11111111111100100010100011101001
11111110111111111111000011000111
00000000001011101110110001010010
00000000010000100001101111100011
11111111111010011111001011000111
00000000000101100000110010000101
11111110111011100111110010100001
00000000101111000010100000000001
00000000010010000111101011100101
00000000011011110111110000001010
11111111110111101001100100111110
11111111101110001010101100100000
00000000110011001110001110101111
11111110110001101000000001110111
11111111011100000000110010110010
11111110100010111011011111001000
00000000010111001000010000100100
11111111100011000110000000110011
11111110111001101001000000010110
00000000101000110111001111110000
00000001011111100001101101100011
11111111001011100011001110100111
11111111110100111011100111010101
00000000000000001100111011010001
11111111001101111011010000010100
00000010000001000100001000001000
11111111011010001111110001011101
00000000000001101000010000100000
11111111110001110100101011001010
11111111111111101111101100101110
00000000010001110000010110100010
11111111100010010110010110011000
11111111010010000010101100011000
11111111110111100001101100011001
00000001010000000110111001101001
11111111111110111110111011001110
00000000000101010100011001111010
11111110111100100100100010111011
11111111011000000111000011011111
11111111110100001110000111001100
00000000001010000111001110001100
11111111110101111100100101000011
11111111011011101110111000001101
11111111100011110111110010010111
00000000100101101101011001011100
00000000000111100101001010101110
11111111100110001001111010000010
00000001011100100001100100101010
11111111011101011010101110001010
11111111101111011101000100010111
11111111000100111000010000001101
00000000100100100000010000111110
00000000100001010010010110011010
00000000010001100100110011100000
11111111110100010011000010010110
11111111100010010100011110001111
11111111111110010010001111110101
00000000010011000101001011100011
11111111111001101111111011011100
11111111101111111110000100101011
00000000001110110011001100001000
00000001100101011101101011101110
11111111110101100010010000110110
11111111111001010011001100001010
00000001001010000110000100010111
11111111101111110001111001000101
11111111000011010110000111011011
00000000011010101001111001100111
00000000011101011011100100011010
11111111010111110111011001111111
00000000010101001010100100010101
00000000110011101111010110101011
00000000111001110011001111010000
11111111110101111101100000100101
00000000110110010000000010100101
11111111011001001010111101110011
11111111110101010101101110001011
11111111010000000100001001010111
00000000010010110000110111010110
11111111110011100000111100101000
00000000111001011101111011111100
11111111010011111011010110001001
00000000101100001101101100010100
11111111111100011100010111011100
11111111011110100010000010011110
11111111011110101011010011001011
00000000111011110100010010110011
00000000001110101100010110110000
11111111000110000011001110111010
00000000000110100111100111000010
00000000000101110000110011001000
11111111100101011001000010000110
00000001001110101010110011110000
00000000001110110101010110011010
11111110011100110110100101111000
00000000001001110010111001010100
00000000001001010110001100001011
11111110111111011001101001011001
11111111101111000000011110011000
00000000010101101011110100101011
11111111000110001011000111001000
00000000001111011100111010101111
11111111111111011011000111101001
00000000100001111101100011000110
11111111010001101110100010110000
00000000011111111111001010110001
00000000011110011010110111101000
00000000100011011100110110010000
00000000101100101001010110110111
11111111000111001100110000111000
11111111010001110011001100111011
00000000001000111100100111110110
00000000100110010001101110010110
00000000011100001010111010110111
11111110111001001101001100011010
11111110101001011000001011000001
00000000011000010010111101001110
00000000111001001110001011101101
00000000001111010110101010011101
11111111100001100001100000101010
11111111100000011000001100101101
11111111111101110001011011011011
00000000010110001110100110111101
11111111001101101100010000100110
11111111011101101010110010011111
00000000011100110110000101111001
00000000101001100110111101100101
00000000101000011100000100110000
00000000001100010011100010011100
00000000000000010101010111011011
11111111101111010100100101001101
00000000000011000000110010110101
11111111101010111111101001010011
00000000001001101111101010110111
00000000001101010110011111110010
11111111100101110000100100001001
11111111101111000011100000110111
00000000000010110000010011110101
00000000100000001010101100001101
11111110111101111110100010110100
00000000000011000010010010001100
00000000101010001000110101010111
00000000101010010000011100011110
11111111111010110011001010011110
00000000001110101000001111010000
11111111111001100101111011101010
11111111010110100000111101101111
00000000100000001001110110011100
00000000110010100100011000011101
11111111111001010010111010001000
11111111011010110001011000111111
11111110101101110010010011101100
11111111110111010101001111110100
11111111100011110010110101011001
11111110100110100011101110111000
11111110001001011010101111001011
00000000000101101000110100000001
00000000011001000000010100110001
00000001000001100110101010111001
00000000001010010001001100111100
11111111000001111100001011001110
11111111110101111100011110000101
11111111000001011101000111000100
00000000010101001100110110110010
00000000111000111001011001101010
11111111100110101001111001000110
11111110110001110111001010101011
11111111100110100011011010100111
00000000101110110000110001111101
00000000011100010001001010000110
00000000000101110011001001011100
00000000010110110111011011111011
00000000000111001000110001010001
11111111010111110001100100111101
11111111111100111001100100110010
11111111000111010111011111000100
00000000101111101010000010110000
00000000100111111110110001100111
11111111011110011100001001001001
11111111111111100000001001011010
00000000001010111000101111110111
11111111111100100001110000000100
11111110110000011111010001011011
11111111011101110100110100111010
00000000010110101101101011011101
00000000010111110000100001010101
00000001001010001100000110010110
00000000001111011011101001110000
11111111010100010111000001111110
11111111100101001010000011111001
11111111100001101101011000010100
00000000001100110000011010000000
11111111100011111010001000010001
00000000000011011100100010001111
00000000001101101101011011100100
11111111100000110111110001010001
11111111110000110001001111010110
11111111000101001101001000110000
11111111111001101011000000100110
11111111111100010001111011101111
00000001011000010010101001100011
00000000010010101010001101101101
11111111011001110011001111100101
11111111110111001000101100101110
00000000010010110000000111000100
00000000001010100101111011001010
00000000000100100111111000000000
00000000011011000100101011111100
00000000011000101010110111010001
00000000011101111111100001001000
11111111010111111010110001101000
11111111001111010011101100101010
00000000001101001110100001111101
11111111111001100100011110100000
11111111001111000010110110010111
00000000000101111001111110101110
00000000001000100100011010000100
11111111011010110111010011110000
00000000101111101100010110001111
11111111001000011111111111100000
00000000001101111001011101100011
00000000000000000011000100011011
00000000000001000011011100010110
00000001010010010100111110100000
11111111111000010010111001111011
00000000101001000001001010111101
11111111111101001101010000001001
00000000001100110100010110110111
11111111110101111110110001111001
11111111111110001101111000001100
11111111010011110100110000100101
11111111111111111001010111011111
00000000011110100000011100111011
11111111110100001000100110100101
00000000000100110000111010111010
11111111110110101101111010000000
11111111110010000101111010000111
11111111111101011000101010010100
00000000000000111001101111010111
00000001001101001111010111010011
11111111110100000110101101011010
11111111110100100111001100010101
00000000001010011011100110110010
00000000011001000001010110010010
11111111010000011100100100101111
00000000001101110000100011110101
11111111011101110111001100101110
11111111110000000111011011101100
00000000001011011100101100000000
11111111001101001011011111001111
11111111110110010011100110000111
11111111101010011010000001110100
00000000001001011100001011000000
11111111001000101110110110011111
00000000011010000001011011001010
00000000101110000110101100001011
00000001000010001010011010010010
11111111010001000110011110010000
00000000001010000010101110101001
00000000110101000101000001101111
00000000110011010001001011010111
11111111111010100000100100111011
00000000000010011011000011111010
00000000011010111001000101111001
11111111011011100011001111110001
11111111110011010100011010011111
11111111101111101001011101101000
00000000001101000011000101110010
11111111110100100111110010111101
11111111110101010011101000101101
11111111110010011011010000101101
00000000000101100110101101010010
00000000101000101001010111011000
11111111100100011001000101011000
11111111100111101011010100110011
00000000011111011100111101001100
11111111101101111110101111010010
11111111100010000010011010111010
00000001001000110101010011000110
11111111100001111010011100101110
11111111011100101001111100011100
00000000010100111100000010010010
00000000101000000101111010000101
00000000001100100000101001110010
00000000010110001110110001001000
11111111010000101010000100111001
00000001010010100111011110001001
00000000100010011100111000010111
00000000100001111010011000111010
11111111010010110101000001100011
00000000000011011011100101011110
11111111000100101001101011110110
11111111011101011111011110101011
00000000110110110110100011110100
00000000111111011011101010100111
11111111101110111100001000101000
00000000101111100001101000011100
11111111101111110100111001101101
11111111110100101111000100100001
11111111100111110011110100001010
11111111000111101000011100111110
11111111110100011011011100000100
00000000100110000011101100111101
00000000001110100000010100011010
00000000000000011110000101011000
11111111011101100011001001011010
00000000000100011110001001010101
11111111001010001110010000101010
11111111000000111010111001001010
11111111100101100111011100001101
11111110101001000001100110000111
11111111001010000010100001111100
00000000010101100010100100100001
00000000101101011011111111111000
00000000011110100111000011001000
00000000011111101100011111101111
11111111010111011011110000011000
11111111100011001101011110000111
11111111010101110110000101010101
00000000010000100111100110001111
11111111111010011010100011010101
11111111111110100011000010100011
00000001010001011100011100111010
11111111100101011101111001001100
11111111101110011010110000000111
00000000001010101110100101010101
00000000011000100110000011000111
11111111001001110100001010101000
11111111110001111111111101110001
00000000001111110100100011100111
11111111111011110111001101000011
11111111100101111001110110000000
00000000001001100110000001000100
00000000111111100100001010001111
11111111100110101000000111111011
11111111110011110000000001001101
00000000011110011001010111101111
11111111100101000100101110010101
11111111110011000110101111100000
11111111101101101101100001101000
11111111110101011110001001110111
00000000111101110101010011101111
00000000000100100101010100000111
00000000100001101101000000001110
00000000001010100110111110100011
00000000100000101010100111010101
11111111110100111011001011001010
11111111110001101111000101000001
00000000111011111010111100011110
11111111001011111000100100110000
00000000001100110001101010011011
11111111101100011001000011010111
11111111011000111001001000100001
00000001100010001110010110100001
00000001000111100100101001010110
11111110111111010010000011110001
11111111100011111101110000011101
00000000100000101011110101110001
00000000010101110111011001110110
00000000000100111011110100110111
00000000001110001001000110011001
11111111111011101001000010110101
00000000010111111001010000011010
11111111100011111000011110101001
00000000001101101101011100100110
00000000001010111000101011010111
11111111100101101000011001110111
00000000001101010000010101010001
11111111110101101011010010010110
00000000010010111011111001010010
00000000101110111011000111101001
11111111100100101101010000010101
00000000001111110001100001110101
11111111101011100001011111010101
11111111001100010101000101001101
00000000101000111111100100001100
00000000010001011110011110100010
11111111010101101011111100001000
11111111001001101011000000110101
11111111011001010011001001010110
00000000001101001000101000101011
11111111101010101100101000111011
00000000000001111011100000100110
11111110110011111000110011110100
11111111100110010000111000011101
00000000100101110101010110011111
00000000011111010110010010101001
11111111000100101101011111110110
11111110100111001101111111101001
11111111100010100011100001011110
11111111101111001110011111001011
11111111111100000010101001100001
11111110001100001111010011011101
11111111111000100011100011110011
00000000001001111111011010111000
11111111100100010010011110010101
00000000000011010100111011110100
00000000011111111000101101000101
11111111110001001001111100110010
00000000011111011010010001101101
11111111001111011100010100010101
00000000001001100110110011000000
11111111101100100101100111001111
11111111111010001001110000000110
11111111010101000111010101101110
00000000011101111100101111000101
00000000010110010000100101100010
00000000100000110010110110011000
11111111110110011010110000010100
11111111100010010100011101101000
11111111110001001010101011110110
00000000010100011000001011110011
11111111110111010110110000100010
00000001001000001010111100111110
00000000010101011101000101010101
00000000010000011010100100001111
00000000100001101011110010000101
11111111100000001110101101100100
11111111001011110000000011100011
00000000010001010011110110000001
11111111010001000111110011001110
00000000111111000111110010110101
00000000100010111110010010001010
00000000001001011110011111111100
00000000000010101001110010001111
11111111111101000101100100000110
11111111010010100100100110000110
00000000011001101110010111010101
11111110111000111000100111000011
11111111010011101111001111100110
00000000110000011001110101101011
11111110111101100111001100011110
11111111111011011010110010011000
11111111101010000001101101001001
11111111110011111011010110110100
00000000000000001100011010101011
00000001000001110101101010100100
11111111111101101111110100111000
00000000111101100110111100101101
11111110101101101110111100111011
00000000001101101000000101000100
11111111100000111001101101111111
00000000100100110111110100000101
11111110111011101110100111111010
11111111100110100111011100101110
00000000011101011000010110111100
11111111110010001110101000011110
11111111100001010000011110101000
11111111101011011010110100011000
00000000010110001011111000000000
11111111010111110010000101111011
11111111011101101110111101010001
00000000000111010001011100000010
00000000010000010011000111101010
11111111101000010110001010010000
00000000110001000100100010101001
11111111001010100100001001001011
00000000000110010101000100010101
11111111110101000111010001001001
11111111010110000011100000011110
00000000011011110010001100100011
11111111000011011100011010110010
00000000010010010010011000111010
11111111010111111100110010011111
11111111101011011110111100100011
00000000101111100111101100010100
11111111111110100000000111111100
11111111100010011101101001101010
11111111101110100010001001010110
11111111001010111111001100101100
11111110110010010110010010110010
00000000001010010011100011100010
11111111100011000000101100100100
11111111101111001110111101001001
11111111001000110100001011011100
11111111100111000000001100110110
00000000110111000100110110001111
11111111001000101010000000010100
00000000000100111101010001010101
11111111111010011000111111011100
00000000011111001010001111011001
00000000100011001011011011001111
11111111111101001100000110000100
11111111100000000001010111101001
00000000000110010011101000101010
11111111101011000110100110001000
00000000001110001101101001110000
00000000101111010100011011100101
11111111100000111100001110011100
11111111001100000100100100010101
11111111011010111001101001001010
00000000000001011010111111101101
11111111010000011101100101011010
00000000011001100100011100100101
00000001000011101111001010100011
00000000011011010100100111110100
00000000111111011001000101000010
11111111111011101010101000011111
11111111001111001100111100100001
00000000001010111000010000000111
11111111100010011000011111100000
11111111111100100110110110111111
11111111110011110000000001100110
11111111001011001010111111101011
00000000001110011001010011001010
11111111011101111100111011100000
11111111011101101001101010101101
00000000011111110000001101010011
00000001001010001101001111111010
11111111101100110110010100010100
11111111110101010100011100101101
00000001010001110011100101001001
00000000000100100110010011000011
11111111100100000010011001001001
00000000101011101111010010110011
00000000101010111001110101100010
00000000100000100110110011111001
00000000000011011001011110000011
11111111010001010000100001101110
11111111111001000001011000001101
11111111001110001111000011011011
00000000011010101101000001110110
00000000000011011011111010001110
00000000101000010010110100011111
11111110111011100111110101001011
11111111110111111111011101001111
11111111110100101100111000100111
00000000100000101110101110101010
00000000011010001111100100011111
11111111111100011010111110111111
11111111011001000011100100100000
00000000100101100100000001001000
11111111011000001110111101110101
11111110101111000010000100000111
00000000000010111010111001001001
11111111101110111101010101000011
00000000010000111001111001000011
11111111111100011100111000110010
00000000010001010111010001101100
11111111011011100100001010011001
00000000010110101100001101100110
00000000011111100001000011110101
00000000000110110001101110001110
00000000000111000101101111010001
00000000000101010101110101000101
