00000000011000001010010011100111
00000000110001101011100011001110
00000000001100001100100110001110
00000001100001011100100100101111
11111111100110000000001111000001
00000000010100101001110101000111
00000000110110011100111000101010
11111111111001101000011100011100
00000000101000110011101111001010
00000001000101010101000011011001
00000000001100001101100111010110
11111111100100011111011011000111
00000001000100000000100010001101
00000000001101100000011111100100
11111111110001001010101111001000
00000000000010100010110011010011
00000000100110010100001111111011
11111111110011100001010110010111
11111111111101100100110111001000
00000000011000010101010010011100
00000000110000100100111110101010
11111111110000101111000110001111
11111111100010110010011011111110
11111111011110001011001100001010
00000000011101000011010111001101
11111111111001111010001111011010
11111111110001101100100110010001
00000000100001100101110010101001
11111111100111111001000101100010
00000000010010110101010111110010
00000000101110100101101110011000
11111111101110011110000101010110
11111111011000101001001100011011
11111111100010001110111110001011
00000000001001101110100011001001
11111111100000011011001101111011
11111111100100010001010110100001
00000000001010110100000101110100
11111111111000011000111011010010
00000000111000011101100110000010
11111111100110010100011101101100
11111111011111101100110100110011
00000000110111100110011110000011
11111111000000100010011100111101
11111111100110000000011011100011
11111111100110000001010110111011
11111111011101110111011101101000
00000000001101001101110000110111
00000000010101001011101100011000
11111111101111100100001010111101
00000000100110110111000101100010
11111111111010110101101000101101
00000000011011110111111111001000
11111111100101100000110011101000
00000000111011101110111101111010
00000000000011111100010011000100
00000000000100001110001010110010
11111111100000011011100000010101
00000000011001000001101111000011
11111111110001000111101011001011
00000000011001011000001011111011
11111111101101001111100111110011
00000000011001100000000001011011
11111111010000010101111011110000
00000001000110000000101011000001
11111111000100010110110011111111
00000000010101001010110111001010
11111111111010111100110100100100
11111111110111011010100110000000
00000000000010010101111010001110
00000000010000001110111001011010
00000000010000100100100011011101
11111111010111101111110101000100
00000000001110101001000110110100
11111111100000101100111110100011
00000000001110110010000100010110
11111111010101000010010011101100
11111111100010100011010000011001
11111111111011010010011011011011
11111111101100010011011111101010
11111111110110010011111000100011
11111111000101100100100110000111
00000000011011010010000011101001
00000000110110000011110110101010
00000000100100111001110111100111
11111111010011110110110001010001
00000000001101000100100010101101
00000000010010110001010011101011
11111111111011000001010100001111
11111111010000011111001011101001
00000000000000011100101100000010
00000000011011001000011000001100
11111110111101001111010101011111
00000000000001011001010000101110
00000001010100100000100100100101
11111111011111000011111110000011
00000000000111010011101100101111
11111111101101111100110010010110
11111111111100101111011000000110
11111111010100101011110101011001
00000000101010010000101110101100
00000001000101110001100000101100
11111111110101101111110010100100
00000000000100011010101010110110
00000000010111100100010101010100
11111111111010011010100001111010
00000000101101011110110010100100
00000000001000010010011101011010
11111110111011010111010010110010
00000000100001001111101111001001
00000000100110010010000111001000
00000000011111000111000010011000
11111111011111101010110101001000
00000000011001100101100010111110
00000000101010111100101111000000
11111111011100011111110100101110
00000000011111111001011111001000
00000000011000100011111101100010
11111111010011001001010101000111
00000000000101010000001101110001
00000000010010100100111000111010
11111110100111011001100000000010
00000000111001010011100000001111
11111111111011010001001111011100
00000000111001110110001001000101
00000000011010000101111010101011
11111111101100100000001101100011
00000000011001010111011011000011
11111111101010100110110001000001
00000000001001001001000110101101
11111111111101101011110111111001
11111111110101010101100101111110
00000000101011000101100100010100
00000000000110011000010100001101
00000000100110100111110101000111
11111111010001000000010101001100
00000000000011111100010001010100
11111111101101110011100100010100
00000001000010011101001011010010
11111111011000100011101010001000
11111111110111011001010001111001
11111111101101001101001101000011
11111111111000100000001111000111
00000000110001101011110000111001
11111111111011101110100101101100
00000000000011110101000100111100
00000000010001010011111100101111
11111111111101001101000001010000
11111111001000101101110101100011
11111111110100001000101010101101
11111111100001011110010101100110
11111111011010101011110001111000
00000000010100111010101001010010
11111111011010101101101101001101
00000000001011100000010100010111
11111111110100011100010111001111
11111111110111111100011111000100
00000000101101100011110000010110
11111111011110001111101010000001
11111111110000000010101101110100
00000000011101011001001101110111
00000001000110000100111100010111
00000000001100000011111010011010
00000000000011010111110010001010
00000000111011101111001100001001
00000000111010011011111100101010
00000000001101111011010000011001
11111111111111101001000100100000
00000000010010001111100010011111
11111111111111011000101111101101
11111111011010001011011101001111
00000000010000110101111011000100
00000000010100010110001101001001
11111111010111010100110000111100
11111111111110010111001011001110
11111111100110100100111001000010
11111111111110110011100111000110
11111111111111010000111101011100
11111111110000011011001001000111
11111111100000111100111111110011
11111110111000110001001101000111
00000000010000000011100110000011
11111111111110000110010101111000
00000000010001101110011100100011
00000000000010000010011111101000
11111111111110000111111100111100
00000000000000011001011100011110
00000000101001111001010100111111
00000000000010000101110011001000
00000000010010000011011100011101
00000001001000011011110011011001
11111111110100101010100110011101
11111111011110110101110000111110
00000000000111010100101010010100
11111111101011101000111000001101
11111111110000110000011000101011
11111111111001011111010100011010
00000000010110101101100010011110
11111111110101010000100010111010
00000000001101000111000010000000
00000000001011111011011010110001
00000000101111100100001100100110
11111111100110010101010111010110
00000000001100110000111010101101
11111111010110011110111110001010
00000000001110011101101000010100
11111111100111000001110100101000
11111111111101100000100111000001
11111110111101011100111000010001
00000000001100011001000101111011
11111111001111100001010101110101
00000000011111001110000110000010
11111111101000100010100010101001
00000000011101110001011110100000
00000000000011011110010001100101
11111111001010011000011110010000
11111111110111000111101000011011
11111111001001000100100011111011
00000000001100100111110110111101
00000000100011011001010111010110
11111111110101111110001011101110
00000000001111110101100101010011
11111111100010100001001111010001
00000000110110010111001101100110
11111111000011001110001000110111
00000000111100101100101110010110
11111111111110000010111110011110
11111111100010011000111001011110
11111110111110101001010110001010
11111111110011100001101011011101
00000000101110101001010010110110
11111110100011100000110100010110
11111111110010111010010111000001
11111111110111101101111100100111
11111110101010001010001111011010
11111111010001011010110001111100
11111111111001001011100100101010
00000000100110000110101000010011
00000001000100010101111110000111
11111111111100000001001101101001
11111111110110111001101100011110
11111111010101101100001110110110
00000000100110110000110110100100
00000001000011110101000101010001
00000000000010010100000011101100
11111111110110101000000100110110
11111111000011000110111110100010
00000000011110010000110001101000
11111111110100001010110101000111
00000000101101111010000111101100
11111111010010010000001011010101
00000000010101011011010011101110
11111111101110111100010100101000
00000000110010010010110100001101
11111111101001001110110101100001
00000000010101000011111101001001
11111111110011110000100101000100
00000000001000010100011001110100
11111111001111010000110100001110
11111111111000110100011010111111
00000000010010100011110000011100
11111111100000011011010100000001
00000000110100011110100110110000
11111110110010110111100000011100
11111111111101100100110101001101
11111111111111001001011000001001
11111111001101111101000101100111
11111111111011111011010100011010
00000000011111010100010100000110
00000000001011100001111101010010
00000000100100010101110001101100
11111111101110000111010000111110
00000001001110001100100101001000
11111111001001110011101000101001
11111110101010101101100101101000
11111111101011001100000110100010
11111111110011100110010110011101
00000000111010011000111000011011
00000000100101101111101000001110
11111111110001010101101110100110
00000000001110001010101010011101
11111111100000000010010111100101
11111111101000001101001110010100
11111111101100100001111001110001
00000000111000110010001011001100
00000000010011100101000110001101
00000000010101100001011001001111
00000000100010100111101111010110
11111110111111011000101111101110
11111110111101110001111100001011
00000001001010101000011010101011
00000000010110110100101100010001
11111111100100000111111111000101
00000000000010110111110001101000
11111111100111110101111101010111
00000000000110011001011001101100
00000000101001101110011100100010
11111111110111001101101111111010
00000000100011100011110101100101
11111111101101000000011111100001
00000000001110101110001000011111
11111111110011100011100100011100
00000000011010110011100001110111
00000000011011111001001010111000
00000000110000011101111110110100
00000000010100110000011010011001
00000000100011010110000101110011
11111111001100111001101111101010
00000000100000010110001001110011
11111111000111010111011010010010
11111111100111110100101100000001
00000000000001001000011010000100
00000000000000100110010100110000
00000000001100100110110110010111
11111111110011101011111100111010
00000001000010111100101110001101
11111111101100001011001011000111
00000000001010101111000110010011
11111111101100100111010011100001
11111110110101100110100001001011
11111111011010010001101001100100
11111111011001001111011001000101
00000000000101010101001100100100
00000000000111011010110111101100
00000000011101000100001011101011
11111111010110111100111111011111
00000000011000110000110010100001
00000000001111010111110000000101
11111111111001000010010100110000
11111111101010100010100100111110
00000000001100101111111111110100
11111111111010110110000011010110
11111111001011100010111101011101
11111111010101001100101100101010
00000000100011110000110010001000
00000000010001000101110110111110
11111111110010000111110010101100
00000001101010000011010001111100
11111111110100101000101010111111
11111111010010100100111111000100
00000000001011001101010110001101
00000000001010110011011011100000
00000000101111110010111000110000
11111111111000110010100110010101
11111110111111001111010000010000
11111111101100010101001100110100
00000000100000010100111111001110
00000001100101110010011001000110
11111111001111010110000101000000
11111111111110001111010001011101
00000000101110110010110111100011
11111111011101100011101100010100
00000000110111111110010010100011
11111111101100001101111011001010
00000000011100111001000100111110
00000000001000111100000100010101
00000001001011011101011010011110
00000001011101111000101010000001
00000000100011111011100110001100
11111111011010010100000001000111
00000000000101111101001101111000
11111111110111110000010011000110
00000000111010101001101101110010
00000000011000001100011011011001
11111111011111001100011111111010
00000000011100011010000001001000
11111111100011101011001110110010
00000000001100011011001001001111
00000000101001000101001100111101
11111111101110111111110100111101
00000000001010011000001010110110
11111111011110001110110010101011
11111111100101101100001011001010
11111111110001101000111000001000
00000000100111101101011110000010
11111111111011101101110100110001
11111111100010000111000010000001
00000000010010001101111110001011
00000000010000100011110100000101
11111111010010010100011000000100
11111111010111101010000000111010
00000000000111100111101000010010
11111111110111010101110101111010
11111111101011001000000101101100
11111111111101000000111011000010
11111111001111111010010111101110
00000000011010111111010110110101
00000000111000110111000101100001
00000000101100101001100001010011
11111111101010111011001110011110
00000000010101100111001110011000
00000000110000011101111101110101
11111111101100101011010011010110
00000000010000001100100110011000
00000000000110010000010000010110
11111111011011011001101110010000
11111111111000000100101100100100
11111111101101111100101110110101
11111111100111000010101011100111
00000000010000101100110111011001
00000000101001110110000111100100
00000000011111100101100110110000
00000000010111011000101011101001
11111111100101100100101000001100
11111111010110101001101111010101
00000000010000001101001010111111
00000000101110001001000011111100
11111111110100111001100101010011
00000000001001001100101010100010
00000000000000110101111111100111
11111110110111011100010111000100
00000000010111001111000010011000
11111111111000001111011001010100
11111111010010001111100101010110
00000000110011011010100000100011
00000001010111010011011001010001
00000000001010111011110111111101
00000000101000100100101111110000
11111111111000000100001100110011
00000000110101000011101111101010
11111111111010001111110011010001
00000000010101010000111111000101
00000000010000111110000110111001
00000000101001100010110101000001
00000000100010111010110110000100
11111111001111011100010001011111
11111111111111011010010111101101
00000000110110100111100110101000
11111111111001111001010011110011
11111111100001000001010100100010
00000000100001011011000101011000
11111111101101100100111000101001
11111111100011110100101000101001
11111110111110111010111011101000
11111111110110100000100101001000
00000000100111101101001110101001
00000000000111111011001001111100
00000000010001111110100010010001
00000000101000011011101100100110
11111111010001010111011110011010
00000000110010100101010000011100
11111111110100011100110010100000
11111111110111100011111110110001
00000000010010111000000100100100
11111110011110101011011000000111
00000000001011111101010011100101
11111111101001011100100111100001
00000000010101111110000111010001
00000000011011011100101000010101
00000001010001101110111110100010
00000000001101011011000111101011
11111111011101110010100011111001
00000000001000001011011110010000
11111111001101011011111111001011
11111111001001010010101001100001
11111111100101101000000110001110
00000000010011000111010000000010
00000000100001001001110010011100
11111111011101111100001100001010
00000000010101011100111110011111
11111111100010100001011100101001
11111111111010010000001111100100
00000001011010100100101101101101
11111111011101101110001011000011
11111111000001010010100100110010
00000000010000101100101001111101
11111111100001110101000101011010
11111111101011000011010010001000
00000000001010101111000011100111
00000000001110001111001011000111
11111111011101101111011011101001
00000000101001000001101100001011
00000000001100101011000101010110
00000000000000011000100100101101
11111111001101011010010010101100
11111111010111110000110110100101
11111111011101111101111101100011
00000001000111100001001111011110
00000000110010011110001000011110
00000000000010010011010111101111
00000000001010010000000101100011
11111110111100100001011001011010
11111111011001101010000101101100
00000000000010110110111100011101
00000000001000010000101011100111
11111111111111100001010111000111
11111111101111111101111101000001
00000000001001110010010100100101
00000000101001110011000010100011
11111111111001000101100001001010
00000000011101010111101111000011
00000000011011110110001100111100
11111111010000011011100000001101
11111111110111101101000111111100
11111111010111010001000111000011
00000000011001001100101101110110
11111111110110010000010110001100
00000000000010010100010111111110
11111111111000100100010100100001
11111111111101100110010110111010
00000000011010101111111011111001
00000000100001110100011110100010
00000001000000101111011011010000
00000000000000100010010011010100
11111111111000101010010111000110
11111111110100110100000100100001
00000001000011001001010010001111
00000000101000001110010110010010
11111111111001010011000100110100
00000000100011110001011100011000
00000000011100110110101101000110
00000000000001000110010101011100
00000000011001011110011000000110
00000000010000000000010101000010
00000000010101011000111011010010
00000000001101101001111010110100
11111111111110111100100000000111
00000000010101111000110111010110
00000000100000111111000010001011
00000000000000100010110111101001
00000000011101011100111101100101
00000000101101100101001110110100
00000000010001110011110111000011
11111111101001011011011111111110
11111111101000001010001111100111
11111111101001001001110110100010
00000001101000111011001001000010
00000000100101011101110111100101
11111111100111010010000110110011
00000000010011010101011000010000
11111111011100101001110100011011
11111111100100110001110000010111
11111111011001101011110111011011
00000000100010101001110101101100
11111110111001110100010111101011
00000000010100111100111110110011
11111110101001001110000011011111
11111111111011101110111101001100
00000000100111111001000001110111
00000000000101011000011101000111
00000000000011011111001110000000
00000000001111101011111010111000
11111110110010010011111100111000
11111111111110101011100111000000
00000000100100011000001100110110
00000000111110010100111110011111
11111111100111001010101110110110
00000000000000001110111010111001
11111111010111011100100010010011
11111110101011100011100111010110
11111111111011010010011011111111
11111111110110101011100110101001
00000000001001001101000100000111
00000000000100000110011010110111
00000000010100011000100100011100
00000000101011111110011110011011
11111111101111111011101010110101
00000000000001010000011001000010
11111111110010111100010010011101
00000000110010001010110100000011
11111111000001100110001001010011
00000000111010011101101101000111
11111111110110000110010101011011
11111111111100110001001110000101
11111111010001010111110110010011
00000000011011111100010101001111
00000000100110011010011110001000
00000000101100110000111010100101
00000000111110011010000100100101
00000000100010011001100011111011
11111111111000101001000111001110
00000000011111101011000001000101
11111111110000001000010100100001
00000000010101100101010101110110
00000000101101101111110110100110
00000000100101011010011101110000
00000000101011111100111010100100
00000000101011011111000011100011
00000000010110100000110000100001
00000000010011110110000100110101
00000000010111101101101010001100
00000000101000000111000101000100
11111111010001110101000011001111
00000000101101111101011010101000
00000000010001111100100100100110
11111111101011100101100000011100
11111111110111010001101110100000
11111111010101000010000000111110
11111111011001000001001011000010
00000001011100001110100100110110
11111111010110010000101001100110
11111111110010111100000111100011
00000000100001111011111101010111
00000000010000011110011100111011
00000000000011001011111000101000
11111111110000010101000100001001
00000000000001111100011111101110
00000000010010111001100100001101
11111111111110000110110110101101
11111111111111111001000011111100
00000000011101101001110011000111
00000000100000101101101101000000
00000000100101111000010110101000
11111111101110111100111100110111
00000000010011010100011100111011
11111111111011000000011101111101
11111111111111011110001011010101
11111111011011110111110101001100
11111111101011101100101101101001
00000000000001110110011001010110
00000000100001111000100011101100
00000001000001101100010111010100
11111111010110111001000001101011
00000000011111110001000101011101
11111111100010110110001000111100
00000000000111101111010001001001
11111111110010000000110111101011
00000000100001111011110000010011
00000000011010011101001011011111
11111111011010111000101100010011
00000001010011011011101010010101
11111111110100100111010100101000
00000000001110000101101111010001
00000000000111110010001010010110
00000000000000111000001101111101
11111111101110011110101001100000
00000000000101110011000010111000
11111111111011001110011101101000
11111111000011001111101111001100
00000000011111001000110001010001
11111111001111011110000000100010
00000000001011011111000111011101
11111111100001000001000100100111
11111111111100100110000101000101
00000000100011111010101100011110
11111111111000110010110001000111
00000000011000011101101011011100
00000000000001111011110000000101
11111111111110000001101110100101
11111111111100100111010011000000
11111111001110110010110000110101
00000000010001001000101100100101
11111111010001011010110011001011
00000000100110010101010000001111
00000000111000100011101100001000
00000000000000101000110011100011
11111111100000100111000111011011
00000000111000000101011001110000
11111111111010111111100000001001
00000000010110101101100101000111
11111111110001101010011010011111
11111110101111101110100101011010
00000001011111100000011110110100
00000000001101010101100101100110
11111110110001010100110101100110
00000000011100111001010010111100
00000000000010001100101100110011
00000000011110100010010010100000
00000000101110111111010000111001
00000000010101011101111110100100
11111111111001110110010011010010
11111111000000111101000110000001
11111111100100101011011111011100
00000000000110101100011001001111
00000000011010011000000110101101
00000000010001001111011001110110
00000000010111101101101011010010
00000000010110100111011110010001
11111111111001100000000110010011
00000000101101011001011000111000
00000000000111100001010100101011
00000000111111110011010110100011
00000000001100111111010010001110
11111111111001000011100010011110
11111111011100010010000000001100
11111111100110100001100110001001
00000000001001001100100011101110
11111111111000010101001100000101
11111111100110110110011010010011
00000000001011010000000111101110
00000000000011100010011010101111
11111111100001000100001110111000
00000000010011110111111101111101
00000000000100011011100100011101
11111111110010000000000010010111
00000000001001011111111010111000
00000000110001001000010001000111
11111110100010111101110110111011
00000001100000010000001011011110
00000000110011111101101001011100
00000000001101010111000010000010
00000001110010110001101101010100
00000000000111110001111100000110
11111111101001100001100010101010
00000000001110000001011101001111
11111111110001010100001101100111
11111111110001011101111000010001
11111111111110111000111110101100
00000000100001000111101111011101
11111111111110010111011110101101
00000000001010100101101111011110
00000001000011111010100011001111
00000000011101101101011000001000
11111111111011001110010011001001
11111111110111001100111011001000
11111111110110101101001100001100
00000000110101001110100100100000
11111111010001111000001110000001
11111111011110001110010001110110
11111111111011010001000000110000
00000000000010010001000100110111
11111111110110100001101100000000
11111111011011001011101101010000
00000000101100011100011001001000
00000000100101110101001110101010
00000000001000110110111011110101
00000000101111101000011110110110
00000000010100110110111101010110
00000000011111110101101000110101
00000000010101011001111101101010
11111111101101111110101011100110
00000000010010101000111000100010
11111111010010001111011110100001
00000000100010111011011100001110
00000000011111010011011111010111
00000000100110010111011100110110
00000000101101010111101000100000
11111111111110001100000011110001
11111111100110111101101010001110
00000000100011100000100110001111
00000001001010010011101100110111
11111111101011111100001001011010
11111111100111100000011111110110
11111111100101111110010101110111
00000000000010100100111011000010
11111111010011101010101100010110
11111111000010111111100110000101
00000000001111101101100011111001
11111111001100110101100110001000
11111111101011000010010010010111
11111111011001000011101001101100
00000000010110110010111010000000
00000000001101110000101010111100
00000000011001000011101101101010
11111111111010001001001001100011
11111111111010110010010101111011
11111110111110100101110010110010
11111111011111111011100011011111
11111110101000100011010010110100
11111111101110100110000100011110
11111111110100011010011101001001
00000000010100010101011101101111
11111111110101011011011100011101
00000000000010010111100000111010
11111111101001001110001100000111
11111111000101000000110100011011
00000000001110011100000000001110
00000000110011000011100111010011
00000000110101100111100000110100
00000000111111110011000010100100
00000000000000001110000010101101
00000000000011010010101110110111
00000000110100100010100100111011
00000000010010111000100101001111
00000000010110010010010101011100
11111111111000111101101010101011
00000000011111010011011000010110
00000000111111001100011010010111
00000000010011010110010011011011
00000000000110000000110010111100
11111111111001110000000101100001
00000000000110011010101100011011
11111111011101110100101000100100
00000001010001110110010010000110
00000000001000111111010100000000
11111111111111011110111011000101
11111111101000111001001110011001
00000000011011110111010001001100
11111111111101010011010010001010
00000000100111100000101000010001
11111111011001100111110001011001
00000000001101000000000110110001
00000000100111100011011011110111
11111111011100111110011100100111
