00000001000100100000011000001110
11111110011111001101110000011100
11111101111001110100011100001111
11111111100000000001100101010101
00000100101101001011011000010011
11111111100110011100001010101001
11111110100111100100001010010100
00000000001101000111110100001101
00000000001111011011011000111010
11111111111011001010110010110100
00000100001010010101010011000010
00000011000111101111001101110000
00000011010010010110101111010011
00000000110001100011001000101101
11111100001001101001000001111011
11111111001011010101111110111100
11111011101000000001010100110010
00000011010000110100111100101000
00000001000100100001101100010111
11111100100100101001110101001100
11111111110010011011110001000000
00000011010111101000100101011011
00000001010111000011011010110101
00000001100001000101001011011011
00000110101000011110100000101110
00000011110111010011111110111111
00000100110010111100101111010100
00000011101011110011101110101010
00000001001011000011111011111011
00000000000001110000111001100101
11111101110010000101010000010111
00000000111001110101100110000111
00000000101111001000011100101110
00000010010011100100111101111000
00000000010101010111010111000000
11111011110001100111110010101100
00000100011000010100011000101001
11111100110100000010010010011011
00000010001011111100101100001011
11111111110010110001000010101110
