11111001000101111110111100011110
11111110010110111010110110001010
11111101010111010001101010101000
11111011000110010111010111100100
00000011010101100101011000101010
11111110111110010111001111011101
11111011110010010011111010010111
11111011001100111111101010110001
00000010000001001010110000010011
11111110000011000100101100000001
11111101001110111000000110110100
11111101100011101001000011001111
00000111001011100111001001001001
00000001111101001101010001010011
11110011111000101011011101100110
00000001011001011001111000000110
11111100001110110010011111011010
00000010101000011011101110110010
11111011111100100101001011101111
11111001111000100111010011101101
