11111111100010111111100001011010
00000000001010110000011100110101
11111111110111101011101011011010
00000000001010111010010100000101
00000000010010010010110100110010
00000000100010101000001001111001
00000000001110010000010001001111
00000000100011110000000101101111
11111111111010100111111101010111
00000000101010000111100000010001
00000000001000000111010011010000
11111111010011101100110011001101
00000000010110101100011010110010
11111111100110001000000100010001
00000000100100111111010010010101
11111110011101000001110011111011
11111111010101001010010100000010
00000001001100011011110110011100
11111111010100101001001110000111
11111111001001001101001010100001
00000000001010011001011001001001
00000000110110100111111001011011
00000000000101011001011010101100
11111111010011000110010010010101
11111111100100100101000111010111
00000000100101010100100001110011
00000000111111001111010101011001
00000000001111010110011001100010
11111111010111111000001011001010
00000000000101110000111010101110
00000000100010110100000111001111
11111111110010101110111011101001
11111111010010011000100110010001
00000000110110100001011101011110
00000000111111111010000010010000
00000000011000101111111000010001
11111111101000100010001111101111
11111111100001000101111110000001
00000000011110100001111110000110
11111111011101100100100001001001
11111111101011001000110000010100
00000000000001101110110111100101
00000000111000011101100111100001
11111111101000100101110110101010
00000000000100011110001100101111
00000000101000101011111111101010
11111111100010010001110101110101
00000000001110110010001010011111
11111111001001000110101101010000
00000000000010110101001010111010
00000000011010111001100010101001
11111111111001110010101101011011
00000000011110100100100011111010
11111111101011111111011010100010
00000000110000010000101110010000
00000000110100010101001101100101
11111111011011100001111101000110
00000000010001111110001010000001
11111111001001100111001111111011
00000000100001111101100010000000
11111111100100101110001000100010
00000000100101100010111110011110
00000000010101101011110001101011
11111111110100000100000110000100
00000000000011100100010010001010
11111111110010101100110010101001
00000000001001111001100110010100
00000000010111101101100000111110
11111111111011110111000001100001
00000000000000011010110000100110
00000000110100001101111001111101
00000000000010010010011111111111
00000000000000101001111100101000
11111111100011010010000100101001
11111111101010101111000111011110
11111111101110101011010100010101
00000000011000000010111100111101
00000000010001111101110011100001
00000000010110101011101110101110
11111111000111011111111011001101
11111111010010111010111100100101
11111111101100010110110111100011
00000000111111111011101101110101
00000000011000010010110000100011
00000000011001100001111101100010
00000000011011111110101001101001
11111110110010110101111000000100
11111111111010000111001110110111
00000000000111100111110101001110
00000000001101110011101111110010
00000000001010001010000010111011
11111111001011100010000100101000
11111111110110100111101100100001
11111111100011010101001000001010
11111111110110111100100110011000
11111111101110101100000110010011
00000000000110101111011001101111
11111111111000100100111010110010
00000000011110011010011011010110
11111111111010101110010110001110
00000000101101111111111001101000
00000000001001000000110001100100
00000000111111100111110111011011
11111111110000001101000111000011
00000001000111101101111110000110
11111111010110111110100000101100
11111111100010111010100010100100
00000000000100000110010110001110
11111111100010101010000000100001
11111111110110110010001110010111
11111111111100110100001001000011
00000000001000011101010000110000
11111111010000100011100111101010
11111111110011000110111111100111
11111111111010101110001010000001
00000000000101000001000110110010
00000000100100010011000111101010
00000000101001000100000000111111
11111111101000101001011011011011
11111111110011111010011011101011
11111111111000010010100001100011
00000000100111111101001000010111
00000000010110011100001111110110
00000000001000110100101111001101
00000000000000010101100010010001
00000000011011010111001011011110
00000000100011110001100111011100
11111111101111011100011111001111
00000000000000100000010111110111
00000001101010001111100110110100
00000000110111100001011111111001
11111111111100100011000010011000
11111110111111000101100011110011
00000000011001000001101101001010
11111111011000000000100010010010
00000001000111001110110010011010
11111110110111010101111111100110
11111111100010010110010011111100
11111111110111110010011000100001
11111111100011101100101010001110
00000000011111010100010111110110
00000000110110001101010000101101
00000000000100111100100101011011
11111111101000100010000011100101
11111111100010101100100000100001
11111111101110101110011001000101
11111111100110111011010111110000
00000000000100101001011001010101
11111111111011101100001100100110
00000000001100001110110111111101
00000000100001100111101000110100
00000000010100011011011101101010
00000001011101100010100101000110
00000000011011011010010010000101
00000000001001110011111001011000
11111111110000110100001101011001
00000000010101010100100011101001
11111111111101111111001111000100
00000000101110100110100011101000
11111111100110111110111111001111
11111111010110001110011011001010
00000000001100111100001000011010
00000000011100111101011101011000
00000000101101011100011011101100
11111111110101111010000011111100
00000000101110011011001011011001
00000000011100101000111110000100
11111111001111101111111110111010
11111111111010000111101100011100
11111111000111000111001000000110
00000000010010000111101101101101
00000000101001100101101111010011
11111111010101110111100110011110
11111111110110001011001110110100
11111111101010110110000011100000
00000000001010010110011100000011
11111111101110011110100000010100
00000000000101101111000000010001
11111111101000000000011111100000
11111111010111010100001110100010
11111111110100000010000101011001
11111111111100011001011001010000
00000000100000011010101011110010
11111111110001111001111011000100
11111111110010010001010010110110
00000000011000111100001101100110
11111111100100000010000101100110
11111111011001100111010100010010
00000000001101010100100100111101
11111111100110100100110011101000
00000000000001110011010000101000
11111111110010110100110010101111
00000000010100111111101001110001
11111111100010100011110000111000
00000000101110000000101000000000
11111111001111001010010000000111
11111111110100101011000111101111
11111111111001110111100010100101
11111111110000110010011100001001
00000000000000100010111111110000
00000000010001001111101011011100
11111111100100000010001010010001
11111111000000010111010001010001
00000000000001000001011001010010
11111111000111100101111011101101
00000000001010011010111010101110
11111111100101111100010001010000
11111111010010111100001000110111
11111111011110011111010000010101
11111111100110000010010101110010
00000000011000001010010100111111
00000001010111000100011110010011
11111111100010100010110001011001
11111111100010110100010000111101
11111111110000100011100001110100
00000000010111011000010100111010
00000000001111111100001001100000
11111111100000000001010001011101
11111111010000000010001100101101
00000000011100100011100101010101
00000000111100011110010010110110
11111110101111011011111111010000
00000000011001100001010100001001
00000000100101011000110100100000
11111111101101101011001010100001
00000000000010011100100001001001
11111111001110111001101011110010
11111111110001001011010010101110
11111111110101010111011010100100
11111110110000011001111100011100
11111111010101100001011011001010
00000000101110010110111110011101
11111111010111001100101110010001
11111111111010011110001101110000
11111111111010010001101100011100
00000000100101101010100100100010
11111111101100001100111111001010
00000001010000110101101010010011
00000000100110101010010110100111
00000000001011111010011001010111
11111111101110010001010010001111
00000000010111110100100100100011
11111110110001100100100111011110
00000001000011111100111101100110
00000000100110010111100111100001
11111111101110110011011001000000
11111111101110110111101110101110
00000000100011000001110010010010
00000000001110101001111010100011
11111110111110101101100010110100
11111111100101110101010010010100
11111111101000010011011001011001
11111111100011010001100011011001
00000000011001111011111101011010
00000001010110111111010100111001
11111111100010111011010001110100
00000000100010010101110011010100
11111111001011001010010011101010
11111111111010110100110111000101
11111111110100010111001000111100
11111111010101111010110000100010
11111110101001100001110100001101
00000000000000111001110100101010
11111111010000100110010110111010
00000000011100101110011010100111
00000000010101111111100111100111
00000000001001101111000101000101
11111111111111010001010111100010
00000000110110011001010101110001
00000000001010101110101111100010
00000000010110100010110000110100
00000000111100100111110111010000
00000000001010000111100110110111
11111111101000011101101011101000
00000000010010011001111010010010
00000000100101110001000000100011
00000000011010110100010010010011
11111111111010001011101101011001
11111111011000011000001111100010
11111111101110000111110011111000
11111111010101110001100111110001
00000000100011001110110111010000
11111111001000010110111001111111
00000000011110101010001101101001
11111111001111111011111010010000
00000000001101000011101101000011
00000000010100111110101011000100
11111111001110100110000001101001
00000000000100101111101100011100
11111111110010000001011110100101
11111111111010101110000001110101
00000000100010010101001111101011
00000000101100001000101010101001
11111111101001011110001011001000
11111111011101011100010001000000
00000001001111011000111011001110
11111111110000110010000100001010
00000000100001100111100010000001
11111111111010110100000010111111
11111111011011111111110001101011
00000000010010011110101110111000
11111111111010100010000110001101
11111111110001111100110011111000
00000000001111110111100111000000
00000000001000011001000100111000
00000000011011111001011001000110
00000000000010101111001000111111
00000000001100011111111011100101
11111111110000001110101101110011
00000000011100001000010111000011
00000001000001011011011100010010
00000000011101110110111110000110
00000000100110110100100100001000
00000000101101111101001001011101
00000000010010011111100101101001
11111110111100010011000100111000
11111111011110011101101100101100
11111110110000000011000001000110
11111111010110000001000000010100
00000000100001001100000111111111
00000000001111000100000011011111
11111111110111100101010110110011
00000001100010000011011011001001
00000000010010011000100010110101
00000000100000001001011110001101
00000000000011101111010111101100
11111111101100010100110000011000
11111110110111001110011010111110
00000000011101001010000001010101
00000000010110011101111101110101
00000000011100010110011111101110
00000000001011000111011101110111
00000000101100111111100011010010
00000000000101101010011110000011
11111110100100000110110011010001
00000000101110010100110111010111
00000000111111101100101111011110
11111111011011100001001011100010
11111111111011100111111001110010
00000000010011000111111011111001
11111111000101110110011011111110
11111111100101110010011000010101
11111111101000000110100111001000
00000000001101000100010001110000
00000000011100100000000010101001
11111111111100011100000101111010
00000000111000001111000010111100
00000000011001011110000110010001
00000000000111111100010011101100
11111111111000000010110011000000
00000000010000011000100110001101
00000000101010010010010100010101
00000000111000000010100010011001
00000000100011011110010101011011
11111111111111111000100101011101
11111111011011110111110101101101
11111111111011001010001010001110
11111110010001111111010011110110
00000000101110011111100000001011
11111111110111110111111101001001
00000000001110011000001110100011
11111111101000100101011000011001
00000000110001001111111100011111
11111111100001100000111010101010
11111111010001011101100101011111
00000000010000100011111000011110
11111110110101011101000011100101
11111111111010001010111011111111
00000000101000011110000010001111
00000000111011101011110000100100
00000000011010001000011001111101
00000000110001101000111000011010
00000000011001101110000100011000
11111111101011001011110000110100
00000000000111100111111001000100
11111111000011000100101000100011
11111111110001110000001000001111
11111111110001100101011000101110
00000000110111000111111000110000
11111111101011110000100001100010
00000000010100101011000100110110
11111111001001101100000001101010
00000000001110000001001101001000
11111111100010110011111101000000
00000000001011001000000011011000
11111111011111000111000000111000
00000000011101110000110000111100
11111111110110010000000111101010
11111111111110010000010001011010
11111111101011101111010010001101
00000000010100100100111110100111
11111111101101011100110011000011
11111111010100011110111001110011
11111111110000000011011101110111
11111111011101001000110000110101
00000000000101011101010001000011
11111111101101000110000000000010
11111110111001011001011110001010
11111111110111111101111001100011
11111111110101010111100110010010
00000000110110010011011010100111
11111111101011110010110011110100
00000000010010000010011010110001
00000000110110000100101110010100
00000000100101100010000111011100
00000000110000110101101100101110
11111111111110001000000111111010
00000000110011100111110011010100
11111111010110010001100000001001
11111111100111110000000110101100
00000000010110011101100110000111
00000000100011010101000000011011
11111111011111101010011100101011
11111111100001000111110101011000
00000000100000011000001100111010
11111111011101100000110000011110
00000000011000010111001101110111
00000000111001111111001100000010
11111111011111001101001000100100
00000001001000001111001001010110
00000000000001010001011111000100
11111111100010001010111000111110
11111111111111101101011110001110
11111111111111101001110011111110
11111110110111010100001101001101
11111111100110110100000010011000
00000000011010000011010011100101
00000000001011000001010110101001
00000000011011010111111000110100
11111111100011010111001101101110
00000000011110100101110111011011
11111111111110101110011100111111
11111111111010000101010100110100
11111111011101000101011001001100
11111111111111001110101001110000
11111111100010000110000100110000
11111111101000001100111111111000
11111110110001111000011000011001
00000000000001101101001100001101
11111111000010000110100001000110
00000000110110101110001001001110
11111111011001001110111000101111
00000000010010110010001110110001
00000000000010110010100111111010
11111111111001000111111000010000
00000000001111011101000010111101
00000000001111101111110011100010
00000000000100010001100001010010
00000000111100101010001011011111
11111111100111101100011011111100
11111111010100011110011100001001
11111111000111110011001000101111
11111111101100111010101001110001
00000000000001011000111010000011
00000000010010011011001110100011
00000000111001010011110000101010
11111111011100110010111100001110
11111111100001101010010011010011
00000000111001010000011101111010
11111111010100100001101000000101
00000000000011110100111000010101
11111111100001010100101011111001
00000000010001110001111010000100
11111111001101010100111110001110
11111111011011101100100000111100
11111111011100100110100110110111
00000000001100001000101011100100
00000000011000110000100100001100
00000000010101001011001111000111
00000000001010100100010000000001
11111111010100100001111101011001
11111111110100010101111011100110
00000000100011010010101001100001
00000000010000101010100011100100
00000000101011010110110000011011
00000000000110111110001001001010
00000000101011010101010001101011
00000000101110000110110000101101
11111111011100011000010000011010
00000000000010110111010101010101
11111111110101111111001110011100
00000000010101001110010010110011
00000000011100011101011101110001
11111111111110111001010110101110
00000000001111100011101101111010
00000000011000111011111010111101
11111111100111111000001111110100
11111111100111101011100010100000
11111111011101101000111110011111
00000000001101100011011001111000
00000000011111001000010011101100
00000000100000001010001110111011
11111111100011100000010011101110
11111111111000011110100100011101
11111111111000010110010011000000
11111110111010001001000000111111
11111111011011100010111011110101
00000000010001110111100100000110
11111111000100011101010000100000
11111111100001010001000011010000
00000000000011011011110010000111
00000000011010000111000001101101
00000000000100110010001111011111
11111111000000011001110111011100
11111111110100111010111101010010
11111111111000110110010011000110
11111111111011000000000111110010
00000000000001000110101101001001
00000000000100110101110101001100
11111111011001001011110100100010
11111110101101111110110001011000
11111111010110100010101110110111
00000000110101101111110111111100
11111111111111000101001000000000
11111111010110001101000011010000
11111111100101000011000111010010
11111111101100010110001011011001
00000000011100011001101101000100
11111111100101101111100101110000
11111111100000010010110011011100
00000000010001001011001001101000
11111111100110100100000011011001
11111111100010010010110001000001
11111111110100010010111010011010
00000000111000110001100111001011
00000000110111011000100100110001
00000000001011011111101110111100
00000000001110101000111011100111
11111111011000010110000110101111
00000000000101011111111010100101
00000000001010100000000011001101
00000000010010011110111110101101
00000000000110001001001100110001
00000000110101110110001010111011
00000000100000100001000110000110
11111111101011100011111110100111
11111111111010000101000111110011
00000000100111001101100011011101
11111111100010110100100011011011
00000000100110101010011110000110
11111111111110011010101101001011
11111111100010000101110110101100
00000000000010111011011101100101
11111111111101001101100100100011
00000000100100001110001110010101
00000000000111010111001100011001
00000001010110011111011011011111
00000000001000011011001101111100
11111111010101010110100100000010
00000000011110000101110011010000
11111111110110100000101000011001
00000000000011111001110001100011
00000000011110010110011110110100
00000000111011100011111110101001
00000000000101110000011001110010
00000000110001001101001111100011
00000000010101000011111000110011
00000000011010101101011000110000
00000000100001110101101000100001
00000000101101111000101100110011
11111110100011100000100000100010
11111111011101101010100111110100
00000000010001001010110011000101
00000000010111111111010100011110
00000000111011111100011111000010
11111111101111101101000110001011
11111110101101110111100011010011
11111110110110010011010101011111
00000000000101010111001110011010
00000000011001101100001111011110
00000000010010010100100001111111
00000001100001111011001110001100
11111111110000101001110001001001
00000000100001100010101010000111
11111111110111101110111110000100
00000000011011001110111101100111
00000000010101110010110011001001
00000000010111011001011010110001
11111111101111110000000011000100
11111111110011101011011000001110
11111111110101101111100110011011
00000000000001100111111000011111
11111111101001010100101001101101
00000000001000001010111010010101
00000000000011111100100111000011
11111111101110001110010010111111
00000000000000000000110101101001
00000000101010011111100100011001
00000000100000101000000111100011
11111110101110100001010001010110
11111110011110010010010110000001
00000000011010110010011110100010
00000000101110101001111110101011
11111111100001111101001110001010
11111111111101011111001101110001
11111111110011110110101100010011
00000000001001011111110000010100
00000000000100000100111001010110
00000001011100110000010000010011
00000000011011000100101110000001
00000000101001010110011000011101
11111111100000000110111011000100
00000000001011000110111111010001
11111110010100000100010011111001
00000000011000000100000101000011
00000000001010010110001010010010
00000000100101001100000010110110
11111111101111001100001001011010
00000000000010000011001100100010
00000000000111010011100100001100
00000000000011010010101001111110
00000000010011001010111110001010
11111111101001010010001100101000
11111111010001111110000111100010
00000000000111000101101011001011
00000000010010111000011010010101
00000000101100111101111000100001
00000000001111011111000110111101
11111111000101101001011111110001
00000000001111101011011111100100
11111111111010010101100101110001
11111111111100101100100000111101
11111111100101110011111011101101
00000000000011110011011010000110
00000000001010010001101010110010
00000000001011111001110000011110
00000000010100011010110001010011
00000000110001110101101110101110
00000000001011001001011111100011
00000000011010110101011000111101
00000000101011111011110010001101
00000000011011100111101000101001
00000000001010010111101010000101
11111111100100110000001011010000
11111111110100001000011101010100
00000000000110110100110111111100
00000000010101011011111011010000
00000000000100101110000011001011
11111111111000110000001011101100
11111111101101010101000110001100
00000000010010101100110000001001
11111111101111101010001001001110
00000000000111000000101111001010
00000000000011001010111000001100
11111111010111000100110001000011
00000000010001110010001011101101
11111111010110001001101111010011
11111111111101011101111110000100
11111111000001001011100001111011
00000000011110001010010101000111
11111111111011010101000110111101
11111111100010101110101001011011
11111110100000011111100100010101
00000000010100010101100010001010
11111111011110011011100011100111
11111111111100100000010011001110
00000000010100101000011110000110
00000000001011011001001001100111
11111111001111001010001100110111
11111111101110000101101100000110
00000001000111101111011100101110
00000000010100100110000000010111
11111111110010111101001000001010
11111111100101100100111010111101
00000000001000000101000011001100
00000000010110010000011101011010
00000000010000000111010101010001
00000001000010000110011110011000
11111111111111111111110110100000
11111111010010111110010011100101
00000000111010101100011100101000
00000000101011001101111010101111
11111111110010101101111101011100
00000000100111010010101110011010
00000000110101001110100110001011
11111111110100001111000000111110
11111111010101000110010001011111
11111111111111100101011010011011
11111111110011000001100011101010
00000000100101100010010011101111
00000001100010010011111110000101
11111111110100110010010000000100
00000000100100010110011010011100
11111111111101010010111001010010
00000000110000011110010101111011
00000000001101010011011110001011
00000000001101110111000111000001
00000000010111010010111110001000
11111111010110101110111011100101
00000000010000000110000001110100
00000000000011111111001111110001
00000000111110101111000111101101
00000000100010100010001011111100
11111111101101100000110101000010
00000000010001110100101010011010
00000000010100011100001110110010
11111110111111101110000010111100
00000000010100100111100111101000
11111111100101010100110101000110
00000000000011111011101101001011
11111111111100011000001100111111
11111111111010010011001000010101
11111111111001101000010100111101
11111111000110101111101010011101
11111111110101111011110100101111
11111111001101011000011101000010
00000000100101101110000001001011
11111111100001100010100001111001
00000000100011101111101010010100
00000000001111001101011101100000
11111111000110011101000010110011
00000000000010011011101101111011
11111111101110110000111111111110
11111111101100101110010101110111
00000000001100100001011100111011
11111111110010110110011001000001
11111111101111011110111100111010
00000000011100101110011011101011
11111111011100111001001100010000
00000001001001001010110001001011
11111110111101100011011101000001
00000001001101100100110111010000
00000000010100010000000101101001
11111111110110101110100101100000
11111111100001111010100011001111
00000000101111011101001100110000
11111111100100001010100110001011
11111111110000110000111010010101
00000000001000011010000000110101
00000000011001011101110010011001
11111111100110000100100100000101
11111110111101100101000100101000
00000000101011001101011010110011
11111111111100001110000000101100
00000001010001110111001100110101
00000000010111011011011100100010
00000000100110001110000010100001
11111111100110011111110110111100
00000000011100010110110101001011
00000000010010110001100000111101
11111111011010101000011001000111
00000000000011101001010100101110
00000000101001110011100011000011
11111110111011111010111101110111
11111111010110101001101100010111
00000000001100001110111000001101
11111111101110110100001110010001
11111111110010101100000000101000
11111111101111101100111111100010
00000000001101111111010101110011
00000000000111110000001110000000
00000000000101111011110011000001
11111110111100110111101101010001
11111111100110010101100110000100
00000000001011010011111101001011
11111111110100010011101111010010
00000000011111111101000011011001
11111111010110100111010111111001
11111111110111010111010011101000
00000000010111111111011110110111
00000000001000111000111101000101
00000000011000010010110000110010
00000000010011100110011111100110
11111111100110111100000110111110
00000000001011111100011110011101
00000000001000000101010010110110
00000001011001110011111001110101
11111111111001110101001001001100
11111111001001001011111110101001
11111111111101101110001001010101
00000000011111111110000001100010
11111111101011011001011000101000
00000000010001100010101000010001
11111111011100101010001111100110
00000000000111010101110101001111
11111111000001101101111100010001
00000000000011000110000110101100
11111111100100110001111010001111
11111111101010110011000101001111
11111111011100110010001100000000
11111111100001100110110110100100
11111111010100011000011111101110
11111111101101111011101111111000
11111111110111101011110011110011
