00000000010010100100110011011101
00000000011001100111000100010111
11111111111111001111101111100011
11111111101101101001001010000011
00000000101011101100011111011100
00000000010011001000100111001000
00000000000000111101110110100100
00000000011011100000010011111001
11111111111100011010100111101110
00000000000101000110111000000000
11111111110101100000100100101110
00000000110010000100011101100111
00000000001010001000010000110010
00000000000100011010111001110001
11111111110101100101010011111111
00000000101010000010111100010110
11111111111010111111011010001100
11111111101011000110110110111101
11111111100111101110001011101010
00000001001010110111011000001001
11111111101110101101001110000100
00000000011000101111001100110000
00000000001011101001000000101010
00000000110000111101000100011011
11111111101100010111000101101000
00000000100011101111001010000001
11111110110111010001010111010100
00000000011101110100110111011100
11111111100000001010010100010101
11111111000010110001011010001001
11111111110111000011101110011011
11111111101101110101101010000100
11111111110010101111011110101000
11111111010010001110111000010011
11111111011001101010101000101110
00000000110011110101111111111101
11111111001010101100100101111100
11111111010111101011001100101001
11111111101101001000111110111101
11111111101000100010010100110110
00000000000100011011010111111011
11111111111110100010001101001101
11111111011101000011001010111001
11111111101000111101111001100001
00000000011010000101100101011111
00000000111010100000000010111110
11111111111011101101011110101011
00000000000011100010010100011100
00000000101001101101111000111011
11111111100000110010011001011000
11111111100011010011111010111000
00000000010000101101000001011111
11111110011001110101001011110011
11111111010110010100100011011000
11111111110110111100000001010110
00000000101101011100001000010110
00000000010111100000111000010101
00000000000001110101100011011110
11111111000011110011000100000010
11111111000111111001111110011110
00000000100000111110010111110010
00000000001110000010101000100110
11111111100110111001010101010101
00000000101110101010010001001000
00000000110011100101100000010110
11111111110100101101010000010111
00000000000010110010101101111100
11111111010000100011010010010110
11111111110111010111011010111000
11111111110000001110001011001011
11111111101010011110000000011100
00000000100000111101111111110100
00000000010110011100001000001111
11111111111101111101100101100011
00000000101001110100000000001110
11111110110101010110001110001101
00000000100010001100000011110010
11111111011011011011110101000011
11111111101111111001001101001111
11111111001011001011111000001010
11111111111010110011011111111000
00000000000001010011101010010011
11111111101010100110110110100011
11111110111011100010111110100110
11111111111101000110101011100110
00000000011011001001011011101000
11111110111101101000001100100100
11111111111100101100011100100101
00000000101101100111101010000101
11111111100100011111001111110000
11111111011011100101000011111000
00000000101010011001010101100101
00000000010101110110111101100011
00000000001101001000101110011000
00000001100000011011111000011101
00000000000011110011000111010110
11111111001110110110001111100110
00000000110111001010010100011010
00000000101000100001111010110110
11111111001100010011110000001110
11111111011011010101011101111111
11111111111101111001001101110100
11111111111111010000010110110010
11111111111100010101000101110000
11111111010100110010111001110110
00000000000000111110001111111111
00000000000101100001010010101111
00000000010110111100001011110111
00000000101010001000001010011101
00000000001110001010000110001110
11111111110101100110100011000011
00000000001111001100110101101001
11111110111100001010110010000000
11111110111011011100110000000100
00000000001011100110111101001011
11111111101101110101001010011001
00000000010001110110110111001110
11111111100000001010101001010101
00000000110010100001111110100010
11111110100111110100101010011111
00000000101001110011100000000100
11111111111011110110000100011001
11111111110110010011110010110011
00000000010100011101101011010011
11111111000111001100110000001001
11111111110011101100010011001011
11111111101110111100001001011000
00000000010100111100111000111001
11111111010111001101111001111100
11111110111010010011110001100001
11111110111101111110010111100010
11111111110100011100010111010111
00000000110110000101001010010010
11111111001101111001000110010001
11111111010000001100001111111011
00000001001110011001100111101010
11111111111011001001111001011000
11111111111100101001011111111001
00000000001111100000010000010111
11111111111000011011001100011110
00000000011100111100000101110000
00000000010001101101001110010101
00000000010010010000011111111100
11111111101111101011011010101011
00000000100000000001101101100001
11111111100001110000001101110011
11111111111011111101001101011001
11111111100011010101011010111110
00000001001011101000011010101000
11111111110111001000100010001101
00000000010000111100010100001001
11111111000110010010101011110110
00000000101101111101010100100010
00000000101101100100111001100110
11111111001101101010011111111000
11111111100101010110100011010000
11111111101000111100110001100101
00000001010011100100000101110101
00000000000010101011010110110101
11111110100110101000111101111100
00000000100110110001110110101111
00000000010001010101011010011010
00000000001111100100101110100001
00000000010011110010101111000000
00000000111100101011111100111011
11111111001011110110001001101001
00000000010101101000001010010010
11111111101010011100001101011000
11111110110111100011010010011010
00000000010010010010010111010010
00000000110111001111001010101010
11111111001111001110100110011100
00000000110001000000001111111000
00000000011100101101110101110011
00000000001010110011011110101100
11111111011000101001010101010010
11111110111001011101101111000011
00000000011011011001111110101011
00000000001010100101001010010000
11111111101110100011001001000101
11111111010000001100110000101110
11111111111111101100000111010011
11111111011011010110001010100001
00000000010011111000110000100011
00000000001001011011110011011111
00000001001011010101000001100111
00000000011100000111000001110001
11111111110110000101001101101011
00000000010001111111010010000001
11111111010110011010000011001100
00000000010010111100011111000101
00000000001111110111000000011101
11111111001110000100000101010011
00000000000000101001111001001110
00000000010111110110010001000100
00000000100000101111001010011111
11111111100101100111011010011100
00000000001111011111011110000111
00000000111000111011011101001000
11111111011101001000001001101100
11111111110101001010110010100110
11111111010011111111010111010000
11111111101001000011001100101110
11111110111111010011111101100101
11111111011011101000100101110011
00000000100000010101110101000100
11111111100011101011000111000100
00000000101110010000001110100101
00000000101101000011011111111001
11111111110000110110101010011011
00000000011011010111011100101111
00000000001010011001011111001010
00000000111111110010001011100011
11111110101001100110001010000011
11111111101011011111110000110010
11111111110101000001001111001101
00000000100110110001100101001000
11111111100101000111010000000111
11111111011101111010100110100001
00000000000001011010000111010000
11111111100001001101111111011100
00000000000100011000100100101001
11111111111101100101001000001111
11111110111010100011010100111100
11111111010011100110101010110111
11111111110110111111001000000011
11111111000001111101110010111010
00000000011000010010101110110111
00000000011011000110111111101000
00000000000100010101011110000011
11111111000000110011010000100010
00000000001110011111110101100000
00000000001111000010000001101101
11111111110011011011111010101111
11111111101111101101000110101001
11111111010110101111101101110110
11111111010000010010010111111000
00000000110011010101001100011111
00000000000010110000010010110110
00000000110101000010110111100001
11111111110111000011101011010101
11111111100000100110011000110000
00000000000100110000100110101100
00000000100100010011111011001110
11111111101010001110111011011011
00000000001100000111111100011000
00000000001110010000001100110111
11111111101110010100011101101101
11111111111001001111000110111011
11111111100100101010000000101011
00000000001110100110001101100101
11111111100111110001000100011111
11111111111111000001100000111011
00000000000101000001001011001001
11111111101110001010010000010100
00000000111101101110101111000000
00000000110000001101001011100101
00000000011000000110011001010100
11111111100110110001000111010101
11111111011100000010011100010100
11111111110000000001001111101011
11111111100011100101110101100111
00000000001110110110001101100010
00000000110110010011100001101110
11111111111100101111110010011010
11111111001010111010010000111000
00000000100101111011010100110000
00000000000000110101100100101010
11111111111000111011100001001010
00000000001110110011010100000111
11111111111000001010000110110100
00000000010110100100001111100101
11111111101011100100101000010000
00000001001010001100100110011001
11111111111111001001110011010100
00000000000110000110110010100011
00000000010100100101000111111101
00000000001100001011001110001101
11111111100001100001000101011111
11111111101000110100001110001001
00000000010111110100000010011010
11111111110011000101001101001110
00000001001101010110000101100101
11111111111101100101100101011100
00000000010001111111001010101100
11111111011111110010110011110010
00000000011001110101010000000011
11111111101000101001011101001101
11111111101010100111101011100000
00000000010000100101001110110100
00000000101001110100000001110110
00000000110010011010000101101001
11111111101011011000110001011001
11111111100100001100110011111011
11111111101100111101110010101010
00000000100011010000001000110010
11111111101011001011110101001111
11111111110001011111111000101111
11111111100111000011101100010000
00000000001110000100101000010011
00000000010101011010010001011011
00000000000101011100100101111100
11111111011101011110011111101000
00000000010011011000111111011011
00000000110000101000001101011010
00000000101100001001001010001010
11111111111111010111111111101001
00000000110001011010111111100110
11111111101001001010001010110001
00000000100000001011011010001101
00000000011111111000000101000011
00000000110010101101111000001011
00000000010000110101000110100111
11111111101111110010110100101001
00000000100010001010011010100101
11111111111110000010001001001100
00000000001000111000010010000101
11111111010101111101110001000110
11111111110001111010101000011110
11111111101110010111110010001101
11111111101101001000000100011001
11111111100001110111011001011010
00000000111011110001000011111011
11111111101111100011111001000111
00000000010011010110110011101101
00000000010100010101101011010110
11111111011011010111001000101000
00000000011010010010000111001011
00000000110101111011011110111010
00000001000100000110101110110000
11111110011000100100100000011011
11111111001101100101010000110101
00000000001100110101101100011000
00000000011011101100000010110101
00000000000101000100000001010110
11111111011111110100001010100011
11111111001010011101100011011011
00000000110110111100010011001110
00000000100010101101111110101110
11111111101101111110010011100001
11111111101101001000100011111001
11111111011000001010101001011010
00000000011111101101101000010001
00000000001100001111110001011110
00000000000011100111101010011111
00000000001010011111010000000011
11111111101101000000110011111001
00000000011000100111111110011010
00000000000101110001010111000010
11111111110111001111010001111010
11111111100010010011001010111100
11111110110101101000110110000110
11111111100000100111101111001000
00000000010000001011110111001110
11111111101010110111100110011000
00000000000110011000000010011111
00000000010111011111001101100010
00000000100001010000100100101111
11111111011101001111001000010111
00000000000101011101110010001101
00000000011100110101001110110000
11111111011101010111011010101001
00000000000101101101010010111111
00000000100010010100100111001010
11111111010110011000001001111000
00000000001010101101011101111010
00000000100010100100010110011001
00000000001100101011101110000010
11111111011111110111000000000011
00000001010110001010110010100000
11111111110011100001111110000010
11111111100010011001000000011110
00000000101101010000001100010100
00000000010001100101100010000011
11111111001010111100001001001110
11111111111100011110011101001011
00000000001010001010001010010110
00000000110001001001100101110110
00000000010110111000100101010110
11111111001111111101000111100110
00000000000100011000110001101110
00000000101100110001101010000110
11111111100110100111101100101111
11111111110111000100100101100110
00000000111010001000111000111010
00000000000000001111111001101010
00000000000100111010010110010101
11111111111001011101000110001100
11111111110100000111001010001110
00000000100010010100001100011000
00000000011000000101000110011000
11111111011101010100101110000111
00000000011010011110111111011010
11111111110000110001111100000101
11111111010011000111110110001000
11111111010111001100110110110011
11111111111100001000111111111000
11111111000100100000111011110011
11111111111010010011101010111001
00000000111001110100100111111101
00000000000110111101000001001111
11111110101100001101100101010000
00000000010100101101110011000111
11111111110011011000001011110111
00000000001101100001110000000111
11111111100010011011101010001010
00000000110010001111110110011101
11111111000010011101000100111111
11111110110110111110001011000101
11111111101110101000010111101001
00000000010110011000011001100010
00000000100011111101110011110101
00000000011101110111000001100100
00000000011000100110101000110001
00000000000010001100101010000100
00000000011110001010101111101111
11111110110110111100000001000111
11111111101100000001011010101100
11111111101101010011010010011101
11111111101001001010111001000000
11111111000100100111010000110000
11111111111101110101110100000110
00000000000110110100110100001110
11111111110010010010010100010000
00000000100000000111001001101110
11111111111001010111011000111001
00000001001110110111111001000101
11111111101011101111110101000110
11111111110011000101011010000110
11111110011001011010100111111110
11111111101001010110110110010011
11111111111110100000010111001010
11111111110000100010111011110110
00000000101100100000111111110111
11111111100010110011001001010010
11111111101100001110011011001110
11111111111001000010101110011011
11111111110011110100111110011000
00000000110001100011111110000000
00000000011111011101010011101100
00000000101001000010111100010101
00000000101101001111110101011010
11111111111001100010000111011111
00000001000110001010001101010111
00000000000100000111010111011111
11111111110010010100110001001101
11111111010101101010000001111110
11111111111000100100110110011101
00000000010111000101111111110001
11111111011110110111000011101001
00000000001010010011101000001000
11111110111100000000000000011100
00000000111001101011010101111000
11111111111100000111111100111011
11111111001110100110101100111101
00000000011000001000001111111110
11111111100001101100010101010101
11111111101101111011110000101110
11111111101000101110001110011011
11111111011101110000000010101001
00000000001010000011000000001000
00000000001010100010111001010011
00000000010001001110111011110010
11111111001100111000011110110000
00000000100110000100010001001000
00000000001110010011001101101010
00000000010101001100010010011011
11111111000100000011011011110111
00000000101011100110001110011001
00000000100101011001010011110111
11111111011001011111111101011111
00000000010101001001001001111000
11111111110011100100001000010100
00000000010100011111001011101011
00000000001101101011100000111011
00000000000110110101010000100110
11111111100101101111001011111101
11111111111011011001010100101101
00000000011110101111000001000000
00000000000110100000000001001110
00000000110111101111010000010100
11111111111111100011111011001101
11111111011011110001101110101100
00000000100010101010101100001000
00000001001111001001011101001000
00000000110110101011111100011110
11111111101011111111011110011000
11111110100100001100010001010100
00000000110010000010010010100100
00000000101000011000110101101100
11111111011011011010011010001111
11111111110000110001001001110010
11111111100010101100100100101001
11111111011110000000110011001011
11111111010111001001011100011011
00000000010110000110011001110101
00000000000001110010101101001101
00000000010000011110111000110011
00000000010100110001000010101010
00000000001010100010100100100010
00000000011100010110010100010101
11111111100010010101111101011010
11111111110010111110110110001011
00000000001111011001001000001100
00000000110111011101110011011001
11111111111001010010000100011010
11111111010110100000000100100011
11111111010110010010001100000001
00000000010100001101011110000011
00000000000100111001011101011011
00000000000110101010000001011001
11111111011011001110001111011111
00000000001001101000111010100011
00000000101011000100001001101010
00000000001110101111001010011100
11111110111111111101111000100001
00000000000110001010100101111011
00000000111100000100111111111100
00000000011110011010101100001001
11111111010111111011100101111001
00000000000111100011111000111100
00000000011100111001101011101111
11111110111111100111111010111000
00000000101101101011110010101010
00000000100000100011010010100100
11111111011001110000001000111111
00000000001001001000100101111000
00000001010000101000110001101110
11111111101011011101111110100111
11111111011110111111100110110000
11111111111110011000110101000101
11111111111010100101001101111011
11111111000010101111111110110010
11111111100111010001011010110001
11111111110011101111001001110101
00000000010001101110101000111001
00000000000111101001010011010100
11111110110110010010000011100110
00000000001010110111111011011000
11111111001000011000010100101010
00000000011011010000001111111110
00000000000011110110010101000111
00000000010010101101010100010100
00000000011001101110101101001011
11111111100110001110111011011011
00000000001101000010001011010101
11111111101110000111010111101001
00000000101010101011100011000001
00000000110111000110101111101101
00000000011100110010011000110111
00000000010110010100101101110110
11111111110100110000101100101110
00000001010010111100001010111010
11111111101100101011001000111000
00000000011000110010111101000010
00000000011101010100101100110111
00000000101010011100011110100101
00000000001110110111111111010000
00000000011111011000100001011000
00000000101000000000000010111111
11111110101110110011011111000101
11111111101000100001101100111110
00000000101110101011100010001010
11111111111011011111010111000000
00000000000001000111011100010000
11111111101011101111010101100101
00000000101000101100101010010010
11111111100111110011000010101110
00000000100111001101000111011101
00000000101001000001111010001010
00000000000110100001101100001110
00000000000000001000000110000110
11111111010001111011000110010101
11111111110001101111001111101101
00000001110001100010011001110000
11111110110010111000101111011100
11111111100111111100001100110001
00000000001101111110111111001001
00000000011110001000110010110110
00000000010011111011100111101011
00000000011111100001101101010000
11111111100100101100110101000000
11111111110110010101000000111100
11111111101100010011101111100111
00000000011101011101110010011100
11111111001010011111011101001100
00000000010000011110110100000111
11111111100011001001011101001100
00000000001011100001100100000001
00000000111111111011110011100011
00000000010000001100010000010001
00000000000100011101000110110010
00000001010011101001111100111110
00000000010000100011010101110111
11111111100110111001111101100001
11111111111011110100101011100000
11111111100001111100101000001001
11111111111011100100111111111101
00000000000110010001110100111101
11111110111110100000011100110100
00000000000010110101100111001011
00000000100001110101000001101110
00000000001011010001011110110111
00000000001110101110100100000011
00000000001011100101100111001111
11111111100000110001001111010100
11111111010111000010110001100111
00000001100010100011100100011010
11111111100001110000111000001011
00000000000011110000010001001101
00000001011010001001011001111111
11111110101110011011111101111011
11111111101111000111110010100100
00000000011111111100010110101001
00000000100111011111010101100000
00000000000001010101100000100101
00000000000110011010100100111111
11111111100111101010101000110101
00000000010011010111110001110100
11111111001111111110010101010000
00000000001000100111100011101101
11111111001011001110111101010010
00000000000011110000001101000001
00000000110111000000110011101101
11111111011001100001110111100101
11111110111111110111001010100101
00000000010101100111110101010100
00000000001011101000011101011000
11111111110100011110100000000011
11111111001001010001010010010011
00000000011010001111101001111010
00000000100010101101110101111010
11111111001100010101000001100111
00000000001010110110011010100110
00000000010011011001111110111000
11111111111110000100100011101111
11111111000111010111011110101010
00000001000111101011101101111000
11111111110011100000011001011111
00000000010111101001010010100101
11111111100001000100101101010111
00000000110111101001100010000000
11111111011100110111110100001110
11111111110110010010011010000110
00000000000111011001100110111101
11111111100101001000101001010011
00000001010001011001001010110100
11111111110010101100000010000100
00000001100100001001000100001101
11111111110100011101011110100011
11111111110111101010010110100100
11111111011101110101110011100110
00000001000000101101001000011011
11111111001110101110000100100111
00000000001101111101000001010001
00000000111001110100111110010101
00000000111100110111111001010001
11111111111001000010101111011000
11111111111100111111001011010000
11111111100001011110101101001011
11111111111000100101111011001100
11111111011100000101110101010100
00000000001111001011111111010010
11111111010101010101111000101001
00000000000100011000010110010011
11111111001110101000001100110100
00000000010001100110011000010000
00000001000001110001100111101000
11111111101101000001100011010001
00000000111000001100110101110111
11111111101001001111010000000110
11111111111011101110101011000011
11111111011111011010101101010111
11111111111111001100010001111001
00000000001111100000110101000100
00000000101001110100000110110010
00000000010000110110100100111111
00000000010000110100011110101110
11111111100110011001111011110111
11111111101101001110110111011011
11111111111110000001001101111011
00000000001001100011011111111001
00000001000100000011110010010000
00000000010001100000011011100010
00000000001100001011101010000110
11111111110100101110010100110101
00000000100101001010010011001111
11111111000110100000000011111101
00000000011011101111110111000101
11111111011010000001000011010100
11111111110110101011111000011001
11111111111101110011001011011011
11111111101110101100110110101011
00000000011101001100010000101100
00000000101111111011101000111010
11111111011011110001001001100100
11111111110101001110101001111000
00000000000111110100011100001100
00000000100110101111101110010100
00000000010010101111011010000011
11111111111100110110110000010010
00000000001001011111000010000111
11111111111110100011101011101010
00000000010101001011100011010011
00000001000011000001111110011100
00000000010001110100110110101000
00000000011111001000100100010101
00000000001111000100000100110101
11111111110111100001110100011111
11111111111000010000100101111001
00000000100101011000111111110100
00000000000010000111100110011000
00000000000111110100010111000001
00000000100010111001011101011110
00000000001000000111111101011100
11111111001010000000011010000101
11111111010111110101101010111010
11111111110101001000011000101001
00000000001110011110000011100111
00000000100000000101010111010001
11111111100111101101101100001010
00000000001011011010010001110000
00000000000110000101010101011111
11111111110001000111000000100110
11111111000110001111101011100100
00000001000010000001001101000011
00000000111101011110111100111110
00000001000010000100011000001000
00000000001010011010100100000011
00000000000010100001110011011101
11111111000010000111101010101110
11111111110101010011111100101101
11111111101110010000100101111101
11111111111111001101001100010100
00000000011011110000000010100000
00000000001000010000010110001100
11111111010010001100001010101101
00000000010100101110010001111111
00000000000100100100100011110101
11111111110001100110000011101110
00000000110000110011101010011100
11111111101011011001101001111110
11111111001100000001111011000011
00000000101000011110110100011101
11111111010100101011000110100110
11111111111000110001111100101111
00000000000010101110110100001101
00000000110111010010111010011111
11111111101001110011011111100010
00000001001100101010010010000110
00000000010011111010011011001111
11111110111100101010000110110001
11111111000000101000010111000010
11111110110000000111000000101111
11111111101010100001011111100001
00000000010010001010110001110011
11111111100000101101000001011101
00000000010000110011111000000010
11111111011010111100110010110101
11111111101000100110110000100100
00000000101001011111100100010010
11111111111010100101011000000000
00000000000010111011111000110001
11111111111101010110000010011010
11111111100000110101010011110101
11111111000011110110101111111100
11111111101001000110100110010111
11111111110100001001110010111011
11111111011010100000110110110101
11111111001111111001000001111110
11111111011010101011010011110000
11111111010101101010000010001101
11111111110011001011101110110111
00000000010110010001010101110111
11111111110100110001010000011101
11111110111011110110000011111101
00000000011011111000001001101110
11111111100011000010101011000110
00000000100110100101000000101001
00000000001100000001010000111001
11111111011110010100101011001000
11111111010000010011101111110001
00000000101001101110001000101110
11111111101111101010000010101001
