11111110111100110010011110000101
11111110111101001111100001010001
00000000001000100001010001010000
00000001100011101000000001010111
00000000110101110100100011111100
11111111101100101111110101001010
00000000000111100100101000111101
00000011000110011100011000101110
11111101101001000100100011111011
11111101110001000011100111110011
00000000100011011101011110110111
11111111100101000000100000001110
11111010110011101100011010000100
00000100010110100001100111001011
00000000011100101110101100111110
11111110101011000010010100100101
00000001001111110001000101000100
00000000110111100000100110001101
00000011010100100110100001101001
11111110111110100000000001110011
00000001010011010101011001100010
11111111000010010111010101010101
11111110101111010000111110101000
00000011100101011001011100010101
11111111001011010000010101001110
00000000110000110010001100011100
11111110100011011001110010110001
00000000101100100110000100001010
00000010010100011000001101001110
00000000100101001110100110000001
11111110111100000101110100110110
00000010011000011111010000111100
11111111010111100111000000000101
00000001001101110010101100100111
00000001001010101101010100010101
11111100111111001100100101101100
11111110001110101100001011001100
11111111110000101110001100011110
11111110011000111010011100100110
11111111110001101110110111011111
00000000000000011100110111111100
00000010100010001110001001111101
11111101011010000100111000001101
00000001101011000100101000100011
11111110000010100010110100110010
11111011010101001100110110110001
11111111111001101110011111101101
11111111000110010100011011101000
11111110000010110011000110000011
11111110101001111101101011101011
11111111010010101000101000001011
00000010110101110111011111001110
11111111101100110110110011011000
00000000111000001001110101011001
11111111100111001100011101000101
11111111111000100101100011101010
00000001110011110011111111000001
11111111110101111001101010101010
00000000010010011110010010000001
11111111101001100000101101110000
00000001011111111011000101110011
11111101111001010100001101101010
00000001001111011001011011111101
11111110100010110010011100011111
00000010001001011001011010110110
11111111011000111100001001100111
11111111110101001110111001011010
00000001010111000010010110100000
00000010010100000001110010010000
11111101110110101110001011001111
00000001100000001101001110001101
00000001110110011001101111111111
11111111111010111100100101101110
11111100100011110101101010101000
11111111010010101110100101010000
00000001000100001000000101001001
00000001001000000110000100100000
11111111000001110010010111010010
11111110010100110110110001000011
00000001111010000000010011101111
11111110010011110011001101101101
11111110101111111111001101000010
00000000110001101010010100011010
00000000110110101010110011101000
11111111010100101110011110110100
11111110011101100101010111001110
00000000011001111100100000001101
00000000111000011111110111101000
00000000000010000110101100001011
11111111101010011100110101100001
