00000000111100101110001010110011
00000001001001001011011101111010
11111110000111000100110011110010
00000000101010001110011001110110
11111111010111000000101101100110
11111111100101110001010100000010
11111101110101010110001011000011
11111110111111011011010010000010
11111111111010111110100010110101
00000000110000010010111100111111
11111110000001001011111111011110
11111111111110101010001110110001
11111110000110010010000001110111
00000001110010110110101010001010
11111101101111100001010110111100
00000001010100010111111010111101
11111011001111011100111010100101
00000001101101110010001011010110
11111100100001000010010100110001
11111100011001010011011000101011
00000011110000100000100100010111
11111111111101100100100010110001
00000011101111101111000100100110
11111101110001110111110111010111
11111110011100110110100100101000
00000011011011001101101010000111
11111111000010011011100011000011
11111011101000001110111011111011
11111111111101100001111100000000
00000001101010111111010001011010
11111111010010001101101111111110
00000010100101100110111000001101
00000001111001111111011101011000
00000000000101000001000000101001
00000001110111100011100001101000
11111101001111110101111001111000
00000100000001110110000111001100
11111100110000110100100011010101
00000001010010010001000101101000
00000000011011010110110001100111
11111111111011001001011110001101
00000001000001010111101100111100
11111101100000000011011010111011
00000001010000101101001011101001
00000001010000000010110110110000
00000001000011111110111110111110
11111111110101001110100000011011
11111110110101011000010010000101
11111111010101101100111100010110
00000000100000001011000100011011
11111110110000000010111010010011
00000000011100111110010111000101
00000000000111110000010000010010
00000001001111110010111011000011
00000011010111100101110110110000
11111110000011000010011111111100
11111110101000101001001110000010
00000001110011010000111100110001
11111100010001010100010100111011
00000000010001111011110011000100
11111111110011011100101101100100
00000000101000110010011000110100
00000000001111110101011001111001
00000000011100111100001001010011
11111011101001100011001010000111
