00000100010101100100101110011011
00000000111011000101110010100000
00000010000010110000110001100110
11111110110100110010000110111001
00000100111010010110100010000100
00000000100000111100101101001000
11111110111110110110100000101001
00000000000111001100000111100100
00000001101001010000111010001111
11111100000011110010101110010000
00000000100111011001110111100100
11111101110011111000000010100010
00000000101110110000101010010011
11111110011110100010001111001010
00000010001011101110011010100000
11111110011111101010100110001100
11111111011011001110011010111010
11111111110010101101000000010010
11111111100111010110111100010110
00000000000101011011101001101010
11111111111001001101000100010101
11111111010000001111001001010111
00000100000001011111110010111000
11111101010011111010101010001110
11111111000001011011001111000100
11111111101011000000001001110000
11111111110011101011110111010001
00000011110101000011000101011101
11111111001011111100001111010001
00000001000001100101101111010111
11111101100110111100001111010111
11111110010111101111100000101010
00000010110011100000110101000011
00000001000100001010000011100100
11111111100111100011110011010001
11111110100100001100111100000001
11111100011000110010010100011000
00000000011101110101101000010100
00000100110011110100110100001100
11111111001111101110010011110000
11111111001001001100000000001010
00000001011001010000110110011010
11111101111110000100111010100111
00000011011011111100110010110011
11111110101101001000101001010010
11111110111111111010111011000001
11111011000011011001111100001011
00000010000000001110111001110010
11111110101011111000011101001100
00000001011101001101001111100011
