00000011000110100011100000010110
00000000111001001000100101111101
00000011101001010111110001101100
00000001011111001010000100011010
11111010111110000101011111110010
00000000111010010100111110011001
00000000000000000011100100110001
11111110100000100000011100001010
00000000001101100101001000100111
00000001011000010000101011111100
11111011000110001101111010110000
00000010100010011110110011100010
11111110011100101011011010111010
11111111000100101110010001001101
00000010011110101111111111011111
11111100111000010111001110011000
11111110100111110101001111001010
00000010111001000100111000000000
11111111101000101011000100010001
11111100000110100100101001010111
11111111110010011001111101001110
00000010100111111011010011100010
11111110101110100111011110101010
11111100011011000011111101111010
00000100100001011100000100000010
00000001100110000001000011111110
11111110101100010001011100010000
00000001001100111001101110111110
00000000010111011100011101011100
11111110010001011000110001011111
11111000101111000111110101101010
00000000110100001011100000101010
00000001011001110010100100010010
11111101110111101110100101111001
11111100110000011101111101011110
