00000001011110000101011011011010
00000000111100111010001100000100
11111011100111111110110011100100
00000000101111110010000000100111
00000001010110000000101010111101
00000001101000110001111011010100
11111101100101101100101010101011
11111111111001101110110101010001
11111110110110010011001101011000
00000010000111000110001110000101
00000001011101110101000101011101
00000101001101101000001011001011
11111111000110101001101101011010
11111111001101111011100110111101
00000010000011110000110111110001
00000001101100010101011000000101
00000001111000101000110101010000
11111101010100100010010111010101
11111110101010001101000100000010
11111111001101000000011011010000
11111110010010100010101111101000
11111110111011110000010100101111
11111101001011011011111101000111
11111111000100100100001010101100
11111100011110011111011010100110
11111101111011110110100001100001
00000011001011011010110100110011
11111110011011011100101000101101
11111101011110011100110001011111
11111111110010111110111110010011
