11111111100110111000110010001000
11111111011011010111110100110101
00000000001111011000111101110001
11111111111010110010000100010111
11111110101001111001010000001001
11111111100101111001010100100001
11111111011011110110001000101111
11111111111100010001111100001110
11111110101001110000000001101111
11111111011001010001101110100010
11111111101100100111001111110111
11111111011010100001111001001010
11111111111110011111111100010001
00000000011011010100100100001011
00000001000001000011011011010110
11111111110100101111100111010011
00000000000101110101000001111111
11111111000011011000000000111001
00000000010111101010101101111101
00000000001001111010010010000000
00000000010100001110110010011111
11111111011000010000101010101000
11111111110010010110001000110101
11111110110000011101101000001101
00000000001001110001000100101000
11111111011011010011011011101111
00000000001001000100110100000001
11111111100101011000111100101111
00000001001001010111010110100101
00000000010011010010100100101110
11111111110100011011011000100011
00000001101101101110011000000011
11111111011010001111010100001110
00000001010000110010000110001100
00000000001101111100000111100110
11111111100101010010001111101001
00000000101110010100111000100110
00000000001001000100001101010101
11111111111000110011110101001000
00000000001011111011000011010100
00000000111111110101001111010001
11111111010010110000111101100100
00000000100101010011100000111010
00000000010100001010100010010100
00000000110101001101100001011001
00000000001111010100010010100110
00000000110010101100010100001010
00000000010111010010001000100111
00000000010110010100010011001000
00000000100001011001001101000001
00000000111011100110101000111111
11111111101101111101101111110110
00000000000111011100111111011011
11111110110110011010011111011001
00000000110111011100111000101111
11111111100010111010000110000101
00000000010011110011010100001100
00000000011011000110001100111111
11111111100100000000001100011001
11111111010110011101011101101110
00000000011000011010100101010111
00000000001000000001100110000110
11111111101110110110000110101000
00000000100000111010010110010000
00000000110101000100000100100000
00000000100011110110000111010010
11111111101000011111111101001111
00000000001011011100001100111000
00000000000101011101101000011100
00000000111110110000001001010000
00000000101101111001001001000011
00000000100101011100110010001010
00000000001110110010110111111000
00000000101001011010101000010111
00000000001101000100101110111001
11111111100011110111111100101110
11111111110011100101101000111001
00000000010011011000011101110010
11111111011001010010010000001000
11111111100100010110101010110101
00000000010100010110100011001100
00000000111011010011001000000100
00000000011000011100001111010110
00000000011100100101001000110110
11111111001111011010101010100000
11111111110000111111011001110010
00000000011011110110111011110100
00000000000010100110010010110010
00000000010001010101101011110101
11111111101001000100110110010000
00000000100110110100010101010100
11111111101111000110010001101110
00000000001101010110101111110110
11111111101000111011101110111111
11111111011100110010000001101011
00000000011111110111000010010001
00000000011001011001111000110101
00000000000111001010101100010111
11111111111111111111000010001010
00000000010000001110110011111110
00000000001111010101010100010101
00000000101101011000110000001011
00000000001010111110010010100000
00000000000101111011110010001001
00000001101001101010101111110010
00000000000111110011011111110000
00000000010010011001111100110010
11111111111011001011000111101000
11111110111110011000010010010011
00000001000100000100010011110000
00000000111010110000111010100110
11111111001100110011010000111000
00000000101011100011100010110011
00000000010111110001100101000000
11111111011100100100110010001000
00000000111011010101000100111111
00000000001101110110010111000000
00000000011000010001101000111001
11111111100111100101110101000101
00000000000000101100101100110110
11111111111011110110111001001001
11111111110110001111001010001111
11111111010110010110011010111011
00000000000100010000101101000101
00000000000101111001001001111110
00000000101110000010110000111000
00000000010011101010011101000011
00000000011110110010000100000110
00000000011001101111011100101100
00000000001101001111101011010110
00000000010000011000100010011011
11111111000100110101111011100010
00000000010101001111111111010100
11111111001101110101011001101001
11111110111011001000101110110010
11111111111100110010010010000001
00000000000111101101010001111100
11111111111000001111100001110111
11111111011010100100110111110001
11111111011111010101000001001000
11111111101111100001110001111100
00000000001110100100101111000000
00000000001000001010101011001100
00000000111101101011010110110011
00000000100000010110000011101011
00000000000110100000101110101111
11111111100010111110101010000110
11111111110010011011111011010101
11111111001110101111010000011100
11111111111011110010010000111111
11111101110001111011111001100011
00000000010001100111001010100011
00000000000010001101010000011101
00000001010010100010011001000001
11111111001001101101000110101011
11111110111001111100111101010011
11111111101001010110101000001000
00000000010011111111010111110101
11111111111100001100110101100010
00000000000011001110100100001001
00000000011000101001001110001110
11111111111101010111100111001111
11111111001100110101010011010110
11111111011001001110111011001111
11111110010011001101010101110110
11111111100101111010000110000101
11111111101010110111111011111011
00000001000000010111110001000010
00000000001001111111011100000111
00000001001011001010110010010000
11111110000100000100101111110010
00000000010101100100101101101100
00000000000001101001000111001110
00000000000111101001011010000011
00000000110011110101111001011001
00000000001110110011000100110010
11111111111110000111110010011011
11111111100100001001001010011011
00000000000001011010100101101111
11111111001111110001100000000110
11111111011001001001010101111110
11111111111010011001101010100010
11111111101011110011110110011010
00000000001011111101100011010111
00000000000101111100111011110001
11111111010000110010001110110111
00000000000010001101101100111001
00000000101101010010101000010110
00000000010111011111110111111011
11111111101101001111010001010101
11111110111100000101001110110010
00000001000110010111011001100001
00000000111111101100010111000001
00000000100011101111011101000101
00000000011000010000011100000011
00000000110100000110110000111000
00000000011101011110100110011010
11111111111000100111110101110100
00000000101101000110000011011100
00000001011101000001100100100000
00000000100101001100010110101100
00000000110101101110101001110011
00000000010010010011000011101011
00000000001110100100001101111110
11111110111100011101110000111110
00000000011111010110101010011010
00000000010100011011101011000001
00000000010011100010111111100101
11111111101101101011010100001111
00000000000010011101001111100011
11111111011100101001101111110010
00000000000011101011001010001101
00000000010011111110100011010101
00000000011001110001111011101111
00000000001110110111110100000011
00000000001110011011001001110101
11111111000111011100101010001100
11111111110000110000001101110111
11111111010101101000001010110001
11111111101111111110000111011111
11111111110111110101010010100010
00000000100111100001010100001000
00000000101001011100011010101100
00000000001111101100110011100110
00000000100000001111100101111110
11111111110111100111111110101101
11111111111110011010010110011011
11111110110111010001110001101111
00000000100001000000100110111011
00000000010011010001110000110010
11111111100000101100110001001010
11111111110000001111111110110100
00000000011100000010010101010011
11111111110111001111110010001001
00000001111000101100110101110011
11111111111110011101011010111100
00000000110110100011101100000101
00000000010100001110101100000110
11111111111110101110011110111101
00000000011000101010110111010111
00000000011000001100100011111010
00000000000101010101101000111010
00000000010101110010101100110010
00000000011111000101100011100011
00000001001100101110001000001001
00000000011111100011111100010111
11111111101000010110000001101111
00000000010010000001110111101010
00000000101010111101000111110100
00000000000110010011111001000100
00000000000011100100010011011001
11111111110101101001010000110000
11111111110110101000010010010011
00000000011001000010110011001110
00000000001111010101111000001011
11111111101101101110111100000110
00000000100001100010111111001001
00000000000000110010101010010000
11111111001011010100110011100001
11111111001011100011111100000101
11111111000100111100100111110010
11111111101111100000010011110100
11111111101110100100100000101000
11111111110010011011000111000000
00000000110111001001100010100001
00000000010010010100111001111011
00000000011011000111101010110100
11111111110001111110001110001111
11111111100100100100111100011101
11111111010110110100110111101111
11111111110100100111110001100101
11111111111001001110010000010101
11111111011001010000101001100011
11111111101001001101010111010001
00000000001001000100000010000110
00000000010001010011100100010011
00000000011111000101100101100001
11111111100000000111001000001001
11111111101110011000010010111101
00000000011100101111000101110101
11111111001111110011100101101011
11111111100111000100001000110001
00000000011111001001011110101011
00000000000101111010011100101101
00000000000010111110100111000101
11111111010101001000101111010011
00000000010000101001101101001101
00000000011110101010101111001011
00000000000110100010110101000000
11111111011111011011000010111010
00000000000111000001100010110010
00000000100100110110011001110011
11111111010111110000111010100100
11111111111101010001010011010100
00000000001010111110100101010010
00000001010000010001110010101110
00000000101101100001001010111001
00000000001110111111101100011011
11111111100110011000100110111111
11111110010000010001101000100011
00000000001011100011111100011110
00000000010011000000000000101011
00000000011000111010011011110010
11111111100000011001010100111010
11111111101100111000110010011011
00000000010001110100110011010111
00000000010001000100011101010011
11111111001000111110100111011100
11111111101100111111011010011011
00000000000100111001101111010010
00000000010110111000011001000011
11111110111100111001000000000011
11111110111111101100010011111111
11111111111111011001001011010000
11111111111100000001011001011101
11111111000101101000000101000011
00000000010100010010010100100011
00000000110100011001000100111100
00000000010011001101100100100000
00000000010000100101101010000010
00000000101111000011101011001010
11111111100101001111101000100111
11111111100011111111101110000010
00000000101011100100011000000010
00000000111100110010011101001010
11111111110001101011000100101110
11111111111101010000110110100111
11111111100111110001111010010101
11111111100010000011111110101110
11111111000101110000010101101101
11111111110001111001000111010010
11111111001000110010111000110110
00000000001000111111011000011011
11111111011011101011100111111101
00000000110111101010011100001110
00000000110011100101011110101100
00000000010010101101011111010011
11111111110111001101100100110110
11111110111000110110011101010110
00000000000101101010110001101110
00000000110010110011100101010010
11111111011100110001010001111011
00000000101110111100101111111011
00000000010001100101001010000000
00000000110111110100010100000011
11111111100010101111101000000011
00000000000001100110011001101001
00000000000110111110011011011110
11111111111101000110011111011001
11111111001011011110110010000100
11111111101100110011101011010100
11111111111000011101110000010110
11111111001011001001010011110110
00000000000100110000001000111011
00000001000001011100101101101011
11111111001100110001110110000000
00000000001111010001011101110110
11111111110111101101101010111100
00000000010101110111110001110000
00000000010011100001110011011111
00000000100101000000111111101101
00000000001101111000110011110111
11111111110110001110111000110111
11111111111100100111001100111101
11111111101010101010110001110110
11111111011100100001111001000110
00000001010011001111101110010110
00000000000011001110010101111010
00000000010110100001101100101000
00000000001010111111011010100000
11111111010101010000011101101010
11111111010000111101000100111000
00000000100001000000110000000011
11111111101111011010100110101000
00000000101001000101110101011100
00000000100010011000000011001011
11111111101000111010010100101101
11111111100101110111001111001011
00000000010101100011000111100111
00000001000110100101111010101100
11111111001110100100010101010000
11111111100001100000010010000110
11111111011010100100001101010101
11111111111111000000010101101011
00000000111011111001010100110101
00000000010110011000110001101010
00000000001111110001010111000000
11111111101101001100100110000001
11111111110110010110011111111110
00000000011000101111111010000110
00000000000010100011101100001011
00000000000001001111000011111000
11111111110000010010110111111110
11111111010011011101101111101100
00000000110100010100110010011000
11111111000000111110110000010110
11111110110010001001100010001100
00000001001001100001010000011111
11111111011100110001010111111101
11111111110101011110110100011010
11111111100101110101001011111011
00000000011010101110011100000101
00000000001100111000001110101100
00000000011101001111111001000101
00000000000111000000101011011100
00000000000011101101011001101110
11111111111011110001001100110000
11111111111100101111000000110001
00000000000111111100110100000100
00000000001010100010100011101001
00000000011001111100011111111110
00000000110100111110010110101010
00000000011000011001001111010100
11111111011110101100110110000110
11111110011110011000001101010100
00000000100001111000100000011011
00000000110100000000001110101101
00000000010110110110001011001101
11111111111111010000110001000110
00000000001001010101001110111011
00000000010011100001001001110011
11111111110110111110110110010101
00000000101001010100110100011010
00000000011001100010001000100110
00000000011011101000001111000000
00000000100001111010111010010110
11111111111010010010101000000010
00000000001101000010101001001110
11111111101100010000010010111011
11111110101010110111101010101001
00000000110101101100100110011110
11111111110001111001010011111000
11111110111100001000100000110100
00000000011100110010110110111110
11111111111000110110101101101111
00000000100110110001111111011000
11111111111010000101110011010010
00000000000001011001010011111101
00000000000111001101010100010100
00000000000011100110111001011101
11111111111010110010001100010011
00000000001101111110111101011001
00000000011101001011000001010101
11111111001000111111010011101000
00000000000001101110000111100101
11111111111000000100001101000100
00000000001111001110100111000101
11111110101010011010011111110011
00000000001110101110101010011100
11111111000110000011001000101101
00000000010001000111100000100011
00000000000011100011011011100101
11111111001101011111100110100011
11111111111111110001111010101011
00000000110110011011011000011110
11111111101101111010000101110111
11111111010000111001110010111010
00000000010001101011011011110010
00000000111100001010110100100100
00000000011101011010000101001011
00000000011111011100001111011000
11111111001000111001110000011011
11111111001101011010110111101101
00000000001101101011001111010010
11111111111100100101000110101110
11111111011010111100000010101010
11111111110101011001001011000011
11111111010101010010011100001111
00000000000111010100001100111010
11111111101010010011000111111011
11111111110110100010010100000011
11111111011011011000011011010101
11111111110111010110100100000011
11111111111011100010101111010101
11111111100100110110101111011110
00000000110110110010001110000011
00000000110011010101101000101001
00000000011010100100010101101110
11111111001000101110011000010010
11111111100001010100010011010010
11111111100010100101001001011101
00000000110011100110111111010101
00000000010001011010111100000100
00000000001100010001100101101000
11111111111001110000100001011101
11111111101101001010111110110001
11111111110100111010000011011101
11111111100000010001111100111101
11111111011011011100000101011110
11111111001100001100001111010111
11111111001010000010100011010110
11111111010100111011111101010100
11111111001110100100100001000000
00000000011000101110011010110010
00000000011011001000001110001010
00000000001100011011100010110011
11111111111001010111101001011110
00000000010110011011100010100100
00000000100110000101110110001000
11111111011100101000001100011111
11111111101011101101111110010100
11111111011010101100001011010011
11111110111000101110110111100010
11111110011101101000101010101110
11111111011001111110101110110110
11111111010001110001111010111110
11111111110001100000111000001110
11111111111001111111100100010011
11111110110101010000001000110110
11111110100110101111100110010101
00000001011110111011001001011000
11111111101011011000100111111101
11111111011010000001100001110101
00000000111010011110010101111101
11111111001011010010100111110111
11111111111011101011000111011001
11111111011000000011111001100101
11111111110011111001010110101001
00000000001001010000011111001001
00000000000111101011010000011111
11111110111110100111011011101100
00000000001001001010110101001000
11111111010111100111000011100010
11111111001010101110101100110011
11111111010011101101010101001101
00000000101001010010000001100000
00000000010000100001011101100100
00000000011100011010000000101110
11111111111001101011000101011010
11111111100111000110000010001100
00000000001100011001100100110010
00000000010011000000111100101101
00000000110001001000000011100010
00000000001011100011000010000111
00000000010110010000111101100001
11111111011010010110011010110000
11111111010110100111000100011001
11111111101000010011001001100111
11111111110001100011110110111011
11111111101111001011111011001100
00000000100100011010001101000110
00000000001110000101101011001111
00000000001101010000101010011000
11111111101110100111010000110011
11111111110010101101001110011111
11111111110101111111000110110010
00000000010101001011010010100011
00000000001010000000010110110111
00000000000001000101000011110101
00000000001011110110010101011111
00000000100101110011100111101011
00000000001001010000001101011000
11111111100110000001101011100001
00000000100010111110101010100010
11111110111110011001111011100001
00000000110111101100011110101010
00000000110111001011001110011010
11111111101000000101001100100011
00000000000010111001100110000101
11111111001011110010111110001101
11111111111111010100110100110101
00000000000010000101001111001100
11111111111101111111110000110001
11111111111101010101101100101000
11111111011011100000101011100101
11111111101111011101001010001110
11111110010000100101011010110010
11111111101110000010111011001001
11111111111000011011001110110000
11111111100111100011011101000110
00000000000100000011010010000000
00000000110111101011000011100011
11111111101001110100010100010011
00000000001010011001111001100110
00000000010001101101100010001110
11111111101001010101100011111000
00000000000110101011111011101110
00000000100101111000110111000100
00000000100011011001101000000101
00000000011011011000011100000011
00000000000111000100001001001110
00000000000101100101101001010010
00000001100000000011111100000010
11111111011110000100100100111010
00000000111010100110111011110101
11111111000000100010000100101010
11111111010010110000010001100111
11111111001101001001001101010001
00000000101000101001100010000100
11111111000101110000100001101111
00000000001010011001111010101110
00000000000001110010100011011100
11111111011000000101110000000101
11111111110010011100101111110110
11111111111110111000100000000110
00000000010001101110110001001111
00000000001010101010011101100001
11111110101101101000101001000000
11111111110001101111101011110110
00000000101111011001111110101100
00000000010110110111010011001011
00000000001111001000001110010111
00000000001001010011111011000001
00000000011111111101000000011000
00000000010000010100010011100110
00000000011010100010111001011100
00000000100010011001000101100111
00000000010001000000100111110000
00000000011001000101010111101011
11111111110110110001110100111011
11111111100000011010101100110101
11111111011100001011010110100100
11111111000100010110101001111000
11111110100110001100001100010010
11111111100110010010101111111011
11111111010111110001100101010101
00000000101110111110010101010110
00000000000001101011100111110010
00000000011101110110101111110101
00000000011111000111111000010110
11111111101100100100011110101011
00000000100000011101010101100100
11111111010111001110001100111101
11111111110100110010100010011100
11111111111010110010111011110110
11111111011101010101011010000011
00000000110010001100011101011100
00000000101101100001011011100110
00000000100001011011011000111010
00000000000110101011011101100110
00000000100000011101000001101001
11111111110001001110100111111101
11111111100110111100100000010100
11111111101101001000010101000000
00000000110101100111010001111001
11111111111110010100110010000100
00000000001001001101111110101000
00000000001010001000001000001001
11111111010111001000001001000010
11111110111111101000101000111000
11111111011001011011001000110010
00000000000001110101111000110011
11111111100011000011110000101000
00000000010000001111111001011001
11111110100100010110100011100010
00000000001010011110000110111010
00000000011110111100100100110111
00000000010001011010110101111111
00000000001111011001011110110110
11111111000110101101000010000111
11111111111100101101000010000110
11111111010011100000011101010110
00000000010010110011100011111001
00000000100101011111011100110110
00000000010010100110001110111011
00000000011011100110100001001111
00000000100100001110011001101101
11111111001000110110010000111100
00000000001110101010100100100010
00000000110010100010011010010001
00000000100011001010011110100000
00000000100010010100010101110011
00000000100000100001000010111011
00000000010110101001111110010000
11111111010000001100001110100100
00000000001110001001010100101111
00000000001100011101111100001111
11111111101110000110101010111100
00000000010111000000110110011000
11111111100111101110011000011000
00000000000001111100110001110010
11111110101000101011101100000001
00000000110011111011110000010100
00000000010010000010000000100000
00000000101000000111001110111101
11111111111000011111101101000000
00000000010100101011110000100111
00000000011000010110110101000000
11111111110000010110111110011101
00000000110010111001010010101001
11111111001010010000101000100101
00000001000010111100010000010110
00000000000001011010101111011111
00000000101101100010101110010011
00000000100111101000001100110011
00000000000010011100110111100001
00000000001001000101100101000111
00000000100001000110110100011001
00000000111101101100101101000101
11111111111100110110100111101011
00000000111101010011100000101110
11111111111100011011100100100111
11111111000101001001000001011001
11111111100010011011100011110110
11111111101101100110101100111101
11111111011000100011111011011111
11111111001000010000101101110011
00000000001110110101001010100011
11111110101000111000000010000101
00000000101110111001101001100010
11111111100010001000111110100111
11111111011101011110100000000011
11111111110101001100101011110110
11111111111011000001010100110011
11111111101010001000100110001111
11111111111001110000110011100100
11111111011100001100011110110110
11111111111111101100110100011010
00000000010000101100101111011000
00000000010001101010001110100101
11111111111101101111011011010111
00000000101011011101100010100110
11111111110100001010000110100001
00000000110111010101000100000011
00000000101100001101101101111111
11111111100110110110010111010111
00000000010011011010011110001101
11111111101111111011000000000001
11111111111001100101011011101010
00000000000100011010000100000100
00000000001001110001100000011000
00000000001011010010000110100001
11111111101001110000100000111000
11111111000010000110011100001011
00000000000110010110101110101110
11111111111111010011111110100111
00000000001110101000100101011001
11111111011000111100100000110101
00000000101011010000111010011001
00000000010000110111011010010011
11111111110110100010000001110011
11111111010000100111100000100111
11111111100011010110100011011000
11111110100010010000101001111010
00000000010000100001010100010101
11111111001110111101110110110001
00000000000111011000110000000111
00000000001111001101111001101010
00000000011111000100011001100000
11111111111000110100111111011110
00000000011011001101010001110000
11111111111001010110000100110000
11111111111111110101100010000000
00000000010011000000011101101111
11111111100101011000000000010111
00000000100101101011110100000000
11111111110100110000000101010001
00000000011100001001001110001010
11111111110101011100000111001101
11111111101110011010101010111011
11111111101111111100000001100001
11111111101101110110111111011100
11111111100101001001001010111000
11111111100111001111001111010111
11111111011110001011001011010011
00000000001100111011101100110000
11111111111011100111010101010101
00000000111001010010111101100001
00000000101010001011110001000001
00000000001111100000100010011001
11111111100011000010010110000100
11111111010101010001011000111001
11111111011111111110100111010001
00000000001101011111111010110011
00000000100100111100101010100100
00000000010100001101000111011010
11111111111100111000000110010111
00000000101011101110111000001111
11111111101010010011110111110000
11111111101010100101100101110000
00000001000111110001110110111110
11111111111100011011110001100111
11111110111011100110001000110111
00000000110000010111000111001010
11111111110100001110110111000011
11111111001101000110101111010001
11111111111100011010111111000000
00000001011000111000011000101011
11111111101001001001000101100110
00000000010110000000100101001101
11111111011101011010011101010011
11111111010001110101100100011100
11111111100000101000001010111100
00000000000001001000001011101001
