11111010110001011101001001010100
11111110001001011110110000010100
00000010000111110110010100011011
11111101010011111011110000011011
00000010101101010101001110111011
00000001011101100000110001110011
00000000110110100010010110100001
11111110000000011010001111010010
00000000111000101101001001100010
00000100100011110000110101110101
00000010100000101000100001110010
00000000011010011010100001110000
00000001100000010001010100110000
11111010110110010110100000001010
11111101111000001010101001000110
11111111101001100001001011101010
11111111110001101111101000001101
00000010010000011000101001000101
00000000010001010100100010011110
00000001011101101010011101110000
11111101111010101111100100011101
00000011101010101010000111001100
00000000011001100000000100100011
11111100100001111011001111110101
11111110111010110111000000000011
11111110001111001111000001011100
11111110101111110010111111010101
11111001110100110001101101100111
11111111011001001101010010100111
11111100010011101010011110101100
