11101111101101011110000010111001
11110001010111000001110010101101
00000111000111110011001100100010
11111010000001010100001010101011
00000101010011001001011110001011
00010001111111110111111010000101
11111110100001000010011000100010
11110010100010110000011101001101
11111010000100011000001001110001
11110101011100100100010110010101
11110010110100110101110101000101
00001010110010101111110011110100
11111010011100000111010011001101
11110110011111000101110000100110
00000100100010100101010001101011
