00000000101110000111111001000010
00000000010001010011000100001000
00000000100001000001110011110101
11111111101111101010101101001010
11111111100100010011010110100000
11111111110101110110001011110111
00000000101001101001001010000001
11111111100110101000101110111111
11111110011111011101110101110000
00000000011011110100000010111011
00000000000100010100011101011001
11111111000111101101010110111000
11111111010000111000010110001100
00000000101100100100111011011100
00000000000111101111011111110001
00000000110010001111111001101001
11111111110111100100101001111100
00000000001101111111011000101010
00000001000111111101110101110000
00000000011001011100000001010100
11111111000100101110000100100110
00000000011100101111110110001100
00000000001011101010001100011010
00000000000110110001001011000011
11111110101111010101001111101100
00000000001111000011010111001110
11111111100101000100100010000000
11111111010010110101011010110100
11111111000100010101011010101011
11111111011110001111010101100111
00000000000000100110001110110001
11111111100001011100000100100010
11111111100100011101010010110000
00000000100000100101000011110110
11111111101001100000100000011010
11111111011110000011000001000011
00000000000000000011011000110100
00000000011000011110000001001100
00000000000101101101010100000111
11111110110011100010100000110011
00000000000101001101110100100011
11111110110011101110001101100010
00000000011110011110000010001111
00000000011011111100101111011100
11111111111011110111110100010001
11111111101111000100111101110000
00000000100101011111110011011110
11111111111101011011011111111000
11111111111101101101100101111000
11111110111000100111100000011010
00000000010101111110011010001000
11111111111111110000011111110101
00000000100110000011010101000010
00000000011100110110110001101001
11111111110100010111011100110110
11111111110001001111101011101000
11111111111000010000101000110111
00000000111101101100111100001101
11111111001101000011110100011001
00000000110010100101100000110100
11111110111001000001001001011001
11111111111110111111100110101111
00000000011111001101001101001111
11111110110110000101000110010101
11111111101100011001101011101000
11111111011000111010011100010011
11111110111110110001000101010000
11111110110111010011001000110011
00000000000110011011101111000111
00000001001010100000001110000001
00000000101010100111000111011101
11111111111010101001010001000001
11111111111000111001101011011100
11111111100010000010011011101100
00000000010100011011110111101110
11111111100011111110010010100111
11111111100110010000111000000010
11111111101000111010110001110010
00000000010011001011011100110101
11111111101100000011010001011000
00000000001110011001100110001111
00000000010101010100010001111000
00000000100001101110011001101100
11111111111111101111111011100011
00000000001001101101101111101000
11111111101100011000010000011010
11111111001101000111100111000001
11111111001101000100111101010101
11111111110111111101000011011000
11111111101100010001011001110001
11111111010110100000100111100110
00000000111111110000000010010001
11111111010100110110010000110111
00000000110100001010000011110011
11111111111100000110001001010010
11111110011001100011010110010110
00000000100001010010100110111111
11111111010111101111101011100011
11111111101111001011011000110011
11111111101001101110000100000101
11111110110001110000100111001000
00000000001010000001001100000100
11111111101011010110111110101101
00000000011000010111111011000011
00000000101001011100100100111010
11111110111100011101110000111011
11111110111110001110101000010010
00000000000101000010110111001001
11111101110111000110010011010100
11111110110000000111100001100011
00000000100100010110100010101110
00000000001111110010110101110001
11111111111111100100001110001011
00000000000101010010100000111111
11111111100010100100010111101000
00000000010001000111011100111111
11111111110101000011110100111001
00000000011001001010101111101011
00000000101110110111111000000100
00000000010100100010111000111011
