11111011110110111101110000000011
11111010111000101011111010001101
11111101000000100101101001000111
11111011111100101110111111100011
11111111011110110000000000001110
11111101101000011100010100100000
00000000000101001100011110101000
11111100110010000110101010100101
11111011100010111011110101101101
11111011101010100001011100110101
11111110101100101101111101010110
11111100011100010100100000101010
11111110001011000001111010011000
11111101101011100000000110011110
00000000100111100101111111001111
11111011000101011111010101101110
11111101100000100001001011010100
11111110010011100111111001001100
11111100111011011101001001100001
11111100010111001011000110011100
11111101000100010101101110001101
11111100111011011010111111001000
11111111100101000111011001001001
11111110100110101101001011101110
11111010110100101011101000011100
11111100101100101010111011101111
11111101110000000000100000111001
11111100110011110101000111010010
11111101010011111100101100001100
11111111010101001001000011001100
11111100011111011000000100110001
11111110011111111110001001110000
00000000001001101000100001110010
11111101010010100001111110111011
00000000101011001010000110010100
11111100001101001101100000011010
11111100011111111110000101101001
11111110010000101101010100001100
11111010001111101110100001001100
11111101110100111000110000100010
