00000000001101100110100000001110
11111111001010010011000101101000
11110111011100011110010001110101
11111101111111101110001001101010
11111111011011111000111010000111
11111110100011001100000110110100
00000100010010110111100110010001
00000011000110110001101101110101
00000000000011000000110011010011
00000000000000110111101101110101
11111111111011110010001111100100
00000100001110110100011100001110
11111101011000011111010100101111
00001001100101111001011010011011
11111101101110101100001111101101
11111101001000010111100101011011
00000000000000001000110100101000
11111011111001101001111010011100
11111011101010100100010001011011
00000100100111000000100001111000
11111110010101011001011110011000
11111101011010111100110111010000
11111101001010101101011110110000
11111101110110111100011101100101
11110111101101010101110000010100
00000001101011111010001011101110
11111100010100100100101011011000
00000000100010100101110000100000
00000110010110100111111011011000
00000001000001100110111001001011
11111000110010001111101000000110
11111110000011111010000100110000
00000011111001011110010111011100
00000000011011110001001001000100
11111001001001010001001000100100
00000101011010100000011011110110
00000001110001011000000110001011
11111011111010101000111111001101
11111110001101111110011000010111
11111111001000111001011110011111
11110101001001101010010011000010
11111100010000010000101010011010
11111001001011100011010010011001
00000001001011101010101101010110
00001000000000111100010011011001
11111111001110100101111110100100
00000011011111110011110111101011
11111011011111110001001000000010
11111011010011110101101100110001
00000011101110110111000000000011
11111101011011111000001011100110
11111101100000100010001000110111
00000100010001000001001111010100
11111100101110011110011000000110
00000101110110011100100000101111
11111010000100011111010100010011
11111101111110100100100101111001
00000001000111011111011101001110
00000001110111100000100100111101
11111111111010101011001110011010
00000001010011000100011010001100
11111111110010110011010011100011
11111101000010010100010100001010
00000010011000000000111100101100
00000010000110111010110001010010
00000010010010011001110100101100
00000110101110000011101001100001
00001011011100110110001011101011
11111000111111001001011001101101
00000010010011101010011001011101
00000010010011010111100111111100
11111011011100111001010100000010
11111010100011010100111001110100
00000001010001010111010101111110
11111110010110101010111000100011
00000001100000010000101101110010
00001010011100101111110011110000
11111011011111001011100010110001
00000011011100111100011101011111
11111110010101111010110100110111
11111101100001101101101100011101
00000110011000111011100001110101
11111110001110010101011111111011
00000100111010100001101101001111
11111100101011111110101000010101
11111000101111010100001100000110
11111110001111010010011110110111
00000000010011100010100011111100
11111100010100111010101101110001
11111110110100001010100010001000
11111100011111000001110001000010
00000011000000110100111000111110
11111100111110011110010010101110
11111101011010011010011010100101
00000001101000010011100110101001
00001101001110111000100110110001
11111000111001100000100100101100
11111111010110011010000001110100
11111100101011000010111000110001
11111101000100100101111001100011
11111001011100100101100101000011
00000101111100010001011000110001
00000010011100111110111110000001
11111001100011100000010101010000
00001011001000011000110001001111
11111010011001010100110111101100
11111000100111110101101111000101
00000011101101011100001010011111
11111101110000011001100001101111
00000000010100010100111110001111
11111010000111000001011101000101
11110111101000110110101000010111
00000001100110111101110010001110
11111011001111111100011110100011
00000000000100001010110011111100
00000110001001010111011111100110
11111100111001000110110111110010
11111011100001111100110000111000
11111010110111111001101111000010
00000010011010010011000101000110
11111110111010100100110010011110
00000011001001000011000001011010
11111111001010011001110010000101
00000010110100000100111111100100
11111010101110000110011001110011
11111111111101100000110000001100
11111110000101111100111001110111
00000011100000111010001011010010
00000001010000010110011100011010
00001001000000010111001111110110
11111110100101110000001111000011
00000001100011110011001000000100
11111111110011101100110000001110
11111100001100100001000110011011
00000110111110010010111111101110
11110111101010010000010101000011
00000100100000111100100111010001
00000000110111001001100001110101
00000001111010001011101001110100
00000011101000011001101010001011
00000001010010111011001101010011
11111110111110111011001110110011
00000010010110001111001011011011
11111101000110001010001110100001
00000011000010111010110100111010
00000010100111011001111000000111
11111110110010011101111010111111
00000101100010110011000100111010
00000000001100100001100011100111
11111101100000001001111100100101
11111011101110101100100011001101
11111100110111010000000011011000
00000011001110100100111000100010
11111110001111010000000010011100
11111011101010001011100011010101
11111110100010010111001111111011
00000001110000011010010001101111
11111111001110110101000000010000
11111011100011101111110011011011
11111110111010110011000010000000
00000100010110011001011001100010
00000001010111101101000010100100
00000101011000110010100010111001
00000011111110111111101101011100
00000011001101100010000011000111
00000111011100011111100111001001
00000011011100011111101100110100
00000011001000010011001000110101
00001001000001100100010010110111
00001001011111100100011101000110
00000111011001000010101111010010
00000010001011000110101000111010
00000001111100001011100100100110
11111110100010110111000000000001
00000100000001001010111000010100
00000000010100001010011001011001
00000101110010001001000001011110
00000010100100100000011001000110
11111011110100101010101000001101
11111101111100101000011010010101
00000010100000100001000000000110
00000000110010111100001011101001
00000100101110010111001011010110
11111111001100111001111010000010
00000111010100010111010010001011
00000001110101100110110011100100
00000000001100111010101100101000
00000011000010100001000011101000
11111101000001011010010000100000
11110011101100100001000001101011
00000000010000111111010111110000
00000000010001010101100110110000
11111101010011110001011010010010
00000001000000001010110010101100
11111001011101000011001011101101
11111101010001001111110000010000
11111101000010001111010001001100
11110110110110000001101101011101
11111010110111000111111110010011
00000000100000000111110101010101
11111011101001001001101000000010
00000011011110010101111111011011
00000110100100110001111101010000
11111110001110100011011110100001
11111111011110001001010011111010
00000010001100000010101010101010
00000001011000100001011100110111
11111110101110101110111000000111
11111001110001101111101011010010
11111110111110110010010100101001
00000111001000010100011001110100
00000001110011001100110001110110
11111001101011101000000110001000
11111110010100010111011000000001
00000001010101111110010011010000
11111110100000001101101110100010
11111011101011110101110000000111
00000000000010011000000100011100
11111100011111100110111100010110
11111010110100011101100110000011
00000001111001001111100000100001
11111000010111001000101111000001
00000111110111110110001010101111
00000000011100101000111111110111
11111100110111110100110011100110
00000001110000011000011101101001
11111111011100110111101001101001
00000001011000101000011011111010
00000001100100010011100110111111
11111100101001010101100011011101
11111011100010010110001000111101
00000100101001110101110000011011
11111111000101001101001110111010
11111101101100001101101100100001
11111111010111001000111111001010
00000000000010000100110101000100
00000000011000000111100101000111
00000000000111001001010101001010
00000010001000010101010001010001
00000011011000111011010111000101
11111010110111100010011101110010
00000110011111001110010100010100
00000110000011100110101010111111
00000010010011010001100110100010
00000110001101001100100001001000
00000100011011010111000001100000
11111111000010000111110110001111
11111000000101000111010111011101
00000000001010110011001111100010
11111101110111011100100001111001
11110110111100011001111101110110
00000001000101111001111001110101
11111100111110010001111101100100
11111000011010010101001001100000
11111100111010010010011110110000
11111111101111001000011101101111
11111110001101000001110011111001
11111010110011001111111000100111
11111110100000000111010011100011
00000100010000100100000110111010
00000000000100100110010010010001
00000101100010111111010010010111
00000011011000010010100100101110
00000000010010010100011000010101
00000000101101001100001010101101
00000010100010010100010010110100
11111000011111100011101011001100
00000100101101101011000010000110
00000000010000100000010101001011
00000110011110011000101110010111
00000100101100100000000011100001
00000000011111011111111001110010
11111011000010010000001100101100
11111111110010111001011100001000
11111110101011111001001001110011
00000000111000111000011001010111
00000111110000001001101000100001
11111001110111110110101111000001
11111111000101000000011000001111
00000001101110000010111110111011
00001011011101111101010100000011
00000110101100001001110101000100
00000010010010001101000010110011
00000000001010001100000010110110
11111101110011011101001111001111
00000010100111110100011000111001
11111100011100101111111101110100
00000001001010100011011101001010
00000000010010000111010111110001
00000001010010000101100000110100
11111000111110000011000100100010
11111011000010100001101000001010
11111001101110100010101011111000
11111110010100010001111000111110
00000001110000011101001110110101
11111101011111111010011010111101
11111010010010011100110001111110
00000001011110110100011001101110
11111110010101001011101000110110
00000110000010010011101101000010
00000101000101000100110000111001
11111100010001000011001000111111
00000001011001110111100011110110
00000110111011011000101111000111
00000100000011100101010001100000
00000000101001000110110000101000
00000100001010010010000010101010
11111100000111110000101001000011
00000100001100001011010001100001
11110111101100101010011101100111
00000011111111010011000110100101
00000100001110001010100010111100
00001011101010110110110101101000
00000011101011111000101010011110
11111111001000010100110011000111
00000010001100110000111101010100
11111101101011111110101011001001
00000001011111101111010001110100
11111011100110111010111101000010
00000101111100010001101111111110
11111010110101110101011011011100
11111100001100001100000100010110
11111010101111101100010101111010
11111111100001011000011111010010
00000011100101001000101000110000
11110101101011110111101111011111
00000111110000011100011111001100
11111101000011100101010010100100
11111110010111111101110001111001
00000010111101111011100001001001
11111011010110000100010101100111
00000000101010100001111110101011
00000001111111110001101101110010
00000000011000010010011001000111
11111011101010110001111010001111
00000011001101111000010101000001
11111011001100001101110100101000
00000000110001001010111000001001
00000010001000000001110011011001
11111000110111110100010011000001
00000001000111010101001000111101
00000111011011101111100010110100
00000011011101010001010110010111
11111111100001011100000000100101
00000011101111101011000100101000
00000011111011011100001100110110
00000001101111111011111101111000
00000111000111101010111110110000
11111110010000001100111110100101
11111111000010100010101000010000
11111101011010011011000100000101
11111111101110011110101001011100
11111100111011111111010111010101
00000011010100010110011000011011
00000100001001110010001011001101
00000100110010110110100001100111
00000000011111010110011100010110
00000101111010101100010001000001
11110111011110011111101011111000
11111111110011100110011011011100
11111110100101100110010110000010
00001010010110110111000101011000
00000010010000000011111110000100
11111101100100011000110011011010
11111111100110000011010110111000
00000011100001010001010000101111
11111011100011011111111001011110
11111111001111010001011110000001
11111010011110110010000000110010
11111011111010111100010100000110
11110101101100001001100010101101
11110111110100000000100001001010
11111111011010001101010000101100
11110100001001010010100001110011
00000000101000000000001100000100
11111110000100101010001000110111
00000000100011111111111000110001
11111011000000010100000000111010
00000011111011011010000011111000
00000010111000001101001010011011
11111010111010011110011101100111
11111011111111010011101111011010
00000001000000111011010111000011
00000011010011011100110000011110
00000001101111110001101100110000
00000010110011100000110000001000
11111101011010000101111000111101
11111110011100111111011011001100
00000000111111010110010111011100
11111111100011101001100000111000
11111100000000101001110011011011
00000101010111100001100000110100
11111111111010111111110000111110
11111100111101010110011010010001
11111011111111001011110100110000
11111111010001011011110001101010
11111111001101000010101111010010
00000010101110000000100101010011
11111100000011100100001000101000
11111100000101000010100100110001
00000000101101110111111001110101
11111001111000110001010001001111
00000101000010110100100100101110
00000011111000100110001011001111
00000000011011101110101001001101
00001001001010110000111000100110
00000000010111001111110111011101
11111000001111101011110110110010
00000001101111001101011111111000
00000111000011010010010000010100
11111011011000000010100101010000
11111111100011010111111110000101
00000001111100100000010011110111
00000101100111010101110111111100
11111111100110110111111010001011
00000100100011001010011011001010
11111110110100100011110100101000
11111000100101011011100100011110
11111101101010001101111000010100
00000100100011111100001100111011
00001001100111001011001000011011
11111011001010011001101110011000
00000011001110001110010110110001
00000001111000010001011100101010
00000000000111011010001010111010
11111111100111110110100000011111
11111011011110011010101011110011
11111010101001111010010011000110
00000000000001010001111011010101
00000110001110110111001111101011
00001011111010000011110000010010
00000100001000001111110010101011
00000011000011110001011011011010
00000110110011010001110001110100
11111001010101111111101010010111
11111101101110110011101110111000
11111111011001011111000100100101
00000001110100011011011101100011
11111110011010101111001010100010
00000001101110101010000110101111
11111110111001101100011111011111
00000000011011010010010010111100
11111111001010101000001000111010
11111001101001000010011011111011
11111100000111001111101011010001
11111100011100100001010100101011
00001000010101110100100111010110
11111101011100101011011000011010
11111110100000011011100011000000
00000010100101011110111010001110
00000110110001101100000000011000
00000011000000101111100100010100
00001001011011111110001110111101
11111111011001110101110011010010
11111110100101111000100001000101
00000111101110110000101001010110
00001001110101101100000111011001
11111100100111101000010010110011
11111010011001100000110100001011
11111010100110000011110000010101
00000000110100100111111101000000
11110110011110000011110000101111
00000000001111001111100001101110
00000100000111110000100011101000
11111110001110010110011101100101
00000010010001110111100001110111
11111001001000010101001011101011
11111111010011100111101101010100
11110111111010111110111100001001
00000010001001110000010111100001
00000000010101010110100010101101
00000101010111110010101101111001
00000001001110100010000000100011
00000010100011101110001110101100
11111100110000110110110111000001
11111110100001101001000001010001
00000001010011101111101111100111
00000010001001010100101110000000
00000001011100001001100001011010
11111111000010101000110100110101
00000100000111100110001101010000
00000010001000000101110001010011
00001000100010111111001000100101
00000001011110001100100001010010
11111010010010001001110010010001
00000001000011001011110101101101
11111101110110000011000111010000
00000111110101111000001111100111
00000001101100110011001000100011
11111101010110111111111010011111
11111111110000100001110010100110
00000110011110101010101110110001
00000000001010000011000100010011
11110110001001101111111100011011
00000000000111110111001111101010
11111110101011010011001100111000
00000101101001110100000010011001
00000101001001010100001101010010
00000010011100001100001110000101
00001001011110011110101111011001
00000010100100100100011101001100
11111011010011011101001000001010
00001101111101111101011001001010
11111111100010100001000001001010
00000000001111100100010111000101
00000101001111001011111111101101
00001001101110000110111100001010
11110110110000111100001001100100
00000101111011110101010000010101
11111011011110001111101110001101
00000000010100100101111010101011
11111111011100010001101100100010
11111010101000100100101101100101
00000111010110111100111001100011
00000001010100000000101010100100
00000100100101100011001010000010
11111001101100100111010011011110
11111011100101101011001000100001
11111100010010010010001000010010
00001100101000010111010100100001
00000111101110010101010010000001
11111100000000010000111111111111
00000000001011110000100100100000
11111001101010101101000100011011
11111001100010101100010011111000
00000001110000110010110010101011
00000001000010100101101010100001
00000010111000111000001111001010
11111111101000001011101011110001
11111111000011011111000010000011
11111101011101010111100110111010
00000010001001110101110001000000
11110110011100000101111000110000
00000001101111101010001101000001
00000011010100001101001101000100
00000010111010000001110101010010
00000100111110011100011010110001
11111111101101011011001000011001
11111111001100101010101011110100
11111110011010101111010110000110
00000011011000011101001001011011
00000010110000111110111001111111
00000111111010101101011010000001
00000101110100001000100101100101
11111111100110000011110000111101
00000010110101001001000001110110
11110111111010101010001011001101
00000111001100011111011011110110
11110111101111000111110001001011
11111110110011111001101001000010
11111011000101000011010011111100
11111110001011011111010001100110
00000000011101010000111110101000
11111011101011101101000101101110
11111001101000001001011110111101
11110110000110100100100111111111
00000010000111101100110010001001
00000010001001110000010101001011
11111100010111111011101010010100
00000000000000100000001010001010
11111100100011000010010100110001
00000101010101000010111110101101
00000101001010010010101101011001
11111101110000100110010111111010
00000101101000011001000000010000
00000110001110110111110100011001
11111010011100000111110001101011
11111000110001011111001011101111
00000110000111111000100000000011
00001001001011101101000011000100
11111110110010000101111101011110
00000110100001101001000111111111
00000111001001101000010111110110
11111101011110011101101001010001
00000000011001100001100000001111
11111111001110110111011100110110
11111111100101000101011101001100
11111100001000101101001110111111
11111110010011100101110100101001
00000011111100100001111000110110
11111011110001110011100001011110
11111101110100011111001101110101
00000110100101111111010000010010
00000001010011101010010000001110
11111111011010010110100101110010
00000100000111110010101011001111
00001010000011010011001111101010
11111100010000110010110110001101
00000111011111000110100100000001
11111000010101100000000110111111
00000010111100101001000100010101
11111001111110110011010011000111
11111100111111001110000101001101
00000001110110110000100110001110
11111110110101101100101100111111
00000000101010100001111100001111
00000000010111100000111001010101
00001001000101100100010110110000
11111011101011011101101101000100
11111100010011111010110100110010
11111111001110110010111010011100
11111100001110010100010110001001
11111000111110011101101001001010
11111110111100100010000101001101
11110010000111010001100110000000
11111011101011011001101010110100
11111011001011100001110101111110
11111001110000111110010111110101
11111011110011101110001000110110
00000111110101010010110010001010
11111101001110010100111101110100
11111101010111010100011001111101
00000100111100110011111010011000
11111100100011000011010110100000
11111110111001110110100011001100
00000000011010110000001000110111
11111011101110000010011010111111
00000001011110100100101000101110
11111100100100011111010100110001
00000000110101010011111010010101
00000011101101001111011111111000
00000011110110000111101101110000
00000001010100011100101101010010
11111110001010101101101001111010
00000011011001001001011001100111
11111001000001111111000001111001
11111011010100110011010111110011
11111100111000001110111010010101
00000000000010100100101100101110
00001011111001000010111100111101
11111110100001110110011001010101
11111101100110111000101100101111
11111001111011000001110011000100
11111110010011101010111110000010
00000101100101011111100001011001
00000000001110001111011000100110
00000010011000011101100000110011
11111101001110010100001010101011
11111000101101001100010110000010
00000101111000001010111010000001
00000101001100110010001000010011
00000000000100101011110100110111
00001001110001110011000011000110
00000110101010101010100110110010
11111011101100010100110001100111
00000101011101101000110100000001
11111001101110011001101000100011
00000000100010000010010110101100
00000000110011001010101101110000
00001010001010111110010011001000
11111011000001011000011011110111
11111110101010101000010110111010
00000101100010000101000000100101
00000001001101011110001010111111
11111111111111100111011110000100
11111100010100100000010101000000
00000000011110000101101111100011
00000100101110101101000011001010
11111101011110010000110101101000
11111010110100001101110010101110
11111110110000101100111111101010
11111001001100111001001101011101
11111111000010000110001011101011
00000000010000001011111101001011
11111100011101110110010100010001
11111001111010110111101110010101
11111011100000111001011000010100
11111100111100101110100010101101
11111110111100000001000000100110
00000000101101100110011110110100
00000100111111110001100100000110
11111111100111111000101010011100
11111011100100010111011100000011
00000010001110011000001100111111
11111110111000111011111100011011
00000100001100011100111110111000
00000110010010001001011101001101
00000001111001101001100011111110
00000010100100010011100110111110
00000011110110110100010111101110
00000111111010100101001101100101
00000010010001000100110011000100
00000001111101111010110001100101
00001010000101100011101111001010
00000100001010000110110110011110
00000011110110000011000001100101
11110111110011001111111101110110
11111010001101000000010010000010
00001001100111100011100111000010
11111111001111100100101111000101
11111101111000000000100101110011
11111100010000111000010101001100
00001010011100101000000110101100
00000011100111001011010011111010
11111110101110111100100011010011
11111001010010101100001110001100
11111110100111001111001110000110
00000001001001101001101011001011
11111101010100001100101100111010
11110010101010100100011000111110
11111110111001101001101010010110
00000100001111001111001110010101
11111110010101011000111110011101
00000010110010100000011010110010
11111010011010010111011100010111
00000110011110111101100001010001
11111101001010000101001001001010
11111101100100111010101001101100
11111111110100000101100011010101
00000110101001011011000011111011
11111100001010010110011011000000
11110101111100010101111000110110
11111010111110011001111000000110
00000101111000000101010011011000
00000010010001010010011011000010
11111111000110100100110010100110
00001000110111100011100101000100
00000100111101010011010100000110
11111111110110110010110001000010
11111101100100000111110100011011
11111100101110100100010010001111
00000001110001010000000101110000
00001000111001011001010001011111
11111101010011100111101100011100
11111111111000100001010000101010
00000001000100010111000100001011
11111101110101000010111010101001
00000010011001001010101110011011
11111100011000000000000101111010
00000010001001000000101100101110
11110011001111100000010001001000
11111001100001010110100100011000
00000011000101000100101100111000
00000111100100111011101101110111
11111111101111010010101011011111
11111111111110101101001000011001
00000000100000001000011111110111
11111101101000011111001111111011
00000000011011100000100010110100
00000001001100001100100100001100
00000011101011100010110000110100
11111010101100011110001101101000
11111111101010101001001100010110
11111101101100101010000111111111
00000100011001000111000011111011
00000101110110110101110101110001
11111111101010010010110000110011
00000000000101010011110110001011
00000001011001101010011111000111
11111111100111111110100100011010
00000010011001101111011100010101
11111101000100111110110101011100
11110111101001010011111001010010
11111101101010000010000001000111
11111110010100001110001100100101
00000000001101010111101000110001
00000000100100010000111001010011
11111101110011111100101000111001
11111110011100101101101001001101
11111011110000111010111010000010
00000000110110110001111101001010
00000001111110101010001110100001
00000101101111011000111111101000
11111000001110100001111110100101
11111010000001001001111001111000
11111111011010100110011010110100
11111010101100111100001000101101
11111011110000001100000001011010
00000000010111111111010010011011
00000000101110100011100011111110
00000101110001001111000100001101
11111101101011010011000011001011
11111101110011000011001100011011
00000010101010101011111001001110
11111001010101100100000011100101
11111011000001110011111001100000
00000100011101010101000110110100
11111100011110011110011001110100
11111010100110000110100101000011
00000100100010101000110011101000
11111111011001000011011100001101
11111110011100011100100111001100
11111011111101111010100000110111
11111100101100111101001011110101
