00001100010110011100010010111110
00001011100010110011011010101100
11101100101010001000100100110000
11111011001111100100101001101010
11111100100100101111010100111011
11110110001000111011010001001010
11110111110100111000101111011101
00001110110110100010101011110001
00000100100110010000010110000010
11110111100000011001111101010010
00000010001001000111100111010000
00000001001000001110011010000010
00010001101001111010011001010101
11111001110100110110001010110110
11110100110000101100001001000010
11000110111101100010100100000101
11101010101011110000100100010001
00011011011010111001100011001000
11110101000001100000110001100001
11110101011000101010101100101000
00000111010111111110011000110111
11001111000100101011001010101111
00000100101010011100001100011000
11110010010111000011111001100011
11110111111011111001111010010100
00010011001001110100001001010010
00001010110101001001001110001001
11010011101100100100111100001101
11111111001011010100111111110100
11110111011100111101101111101011
