11111101100111101011010101110010
00000000100110100001110111001101
00000001000101000010110101000111
11111111000101101011101011001010
00000000011011011101000000010101
00000001011011100111010010101100
00000000001101000000010101011110
00000001001001010100011000000101
00000000010101011011011000101011
00000001000100111111101010101100
11111111011100010001110111011011
11111110001001100111001010100001
00000000101011100001011010100010
00000000111101011100111101100110
00000000110000111001001010111001
11111110110001010010100100011100
11111111001000111010010011101011
11111110000001111010111101100100
11111101100101011110000101110111
11111111101000110001000100000011
00000000011010000011111010110011
11111111011010010011001110111101
11111111010101110101010000010011
11111111110111001010011000011001
11111110111001000000011011111000
00000000011001001101111111001011
11111110100010000111011111100111
00000000011000001000010110110110
00000010001011100110000110011101
11111111111010111111100000111001
00000010001000100000000010001101
00000010110100001101101111010110
00000000100010010001110111010001
11111111000000001001001110101001
00000000111001000110000000000100
00000000001101001111001110001110
00000000101001111110011011100100
00000001011011100001000101100110
11111110110011111010111000011001
00000001110000010110101110101110
11111111010110100101111011111001
00000001101110010000100010101100
11111111111100110110100110001000
00000010000011000111100010001000
00000000100011000011010110101001
11111111011011011100100101110101
11111111100001101100111111011011
00000001001000100100110111100110
00000001110001111111010110101101
00000000100001011000101110001001
11111111010010001110100011111000
00000000000001111011111110010010
11111111110100000100110110100100
11111111111110100101100100111110
11111111110111111111010111000000
00000000111001101011101100110101
00000000100000101001101101100000
00000001110010110010001101100000
00000010000111010000101100010000
11111111010001010010001111101011
00000001100100101000100010011010
11111111101000110001000100110101
11111111001111011001001010001110
11111111100110001110100110101110
00000000111100110001101010111000
00000000100010111011010000101011
00000000101110101010010101110100
11111111011111101100101111001101
00000000000111111100111111010100
11111111100001101110100110011010
00000000110110101010011000001011
00000000010001011010011011111011
00000000011000101101000101011111
11111111110010011001100101010010
00000000100111110110110001100101
00000001101011100010000101110100
00000000100010101010011010010000
00000001010000001111100010011001
11111111011000111110100111011001
00000000010111000101011111000100
11111111001100111101000001100011
11111111010001101000001000111011
00000000011001010101010000010100
00000001001010101011111001101101
11111111100110010111010111100000
11111111011110100000111010111111
00000000011110100110000000000111
11111111101101010011111111011011
00000001011001010000000110000101
11111111000100010101001101010011
11111110101011001011011101011101
11111110100100111011101000011101
00000000101010100110110001110111
11111110001100010001001110110111
00000000101000001111110101001111
11111110101100100010111111110101
00000001010110100101000110010010
00000000111111100010110101010001
00000010011001111011001000011110
11111111010011000000100011111001
11111111110110000011110100000010
00000001111101001110010101110000
00000001111101111001000010011010
00000001010100101100110001010100
00000010000000010000101000001000
00000000100110100000000110111101
00000010010000000100000000010100
11111111101000100011001010000011
00000000000101011010010101100011
00000010011010001000001111110111
00000001010111001100001001111001
11111111101101100010000001001010
00000000001000000111011111000111
00000000011100110010111101001101
00000001101001101101100110100100
11111111110001001011000100010101
11111110000001001110110111101001
11111110100010011100010010101100
00000001000100100010000001001000
00000010010001111101111111100001
00000000000111000001111100010100
11111111000001011111111010010110
00000000111001100100001010110011
11111110111110100100110001000110
11111110000000000110011010110011
11111110000001000111100100110000
11111101010011101011000010101100
11111111101101001111000110110000
00000001111101100100010001001011
00000000001000111010101001000011
11111111101011100111110100010110
00000000111000101000101101011010
00000010010011101100100011010110
11111111010111001001100100010000
11111111110111011101011110011011
11111110100110101110100100111011
11111110000001111111100100001001
11111111011010100011110110011001
11111111111111101111100101100100
11111111101100111101101100001011
11111111001110100001001111000000
11111111000000001101000101110110
00000000001101001110001000010100
00000000101100111001010101101001
11111110110101000011100001111100
00000001010011001001010111000000
11111101011110000100101000001110
00000000110000011110011010111101
11111110010100100011101000101111
11111110000001001100011110010010
11111110101010100000001111100100
11111110100011010101010011110001
11111110010111001101000001011001
11111110000001011111011000001101
11111111110110001010010110011110
11111110100111110111011000010111
00000000110111010101110111100000
00000001111111110000110110011011
11111110101101011001101100110000
00000000100001110000011011000001
11111110111001001100011111100111
11111111000110000011000011101010
11111111101011011110010000010101
00000000111000010010001010100011
11111110000010110010101000010000
11111111101100011110001101110110
11111111001011100011010011101001
11111111001101111000001111000010
11111111101111000101111100010100
00000000011000000011111010110111
11111111001010100011101011000110
11111111111110001100110100110000
00000000001010001101100001111100
11111111110110110101011111111110
11111111010011010110010011100100
11111110111100111001110110111001
11111101110110011000111001010000
11111110011101000101110111001111
11111100000111110001110101110101
11111101011100111000111001011011
11111101100011011101101000110110
00000000000110110001000101001010
11111101101001110001001001011011
00000000011011001111110011001000
00000000101000001000000100000001
00000010000001100101011000101000
00000000111010101001010100000101
11111110011111100101001001110001
11111101101110111011110110001111
11111100100010000101111010111100
11111110110010011110000100010000
11111110101001011000010000001000
11111110101101010010001001100110
00000000100110000100111010101110
00000001010010011001101010111101
11111111100010001001000011001101
11111111010111000110001101001011
11111111010010101011111000101000
11111111101010000001110000001011
00000000000001001111100111110011
11111111010100001011101000000101
11111110010011001111100111010100
11111110010111110111000011100100
11111110110110110101110001110000
11111111000011100001000001101011
11111101100100110111101010110011
11111101011101111100110101010111
11111101001100000101100000001001
11111111110110000010011111010111
11111101110100000100101101011110
00000000010000110011111000000101
11111111010100010000001010101110
11111111101000000101001010000000
11111111100010011010000110101110
11111111111000011001110101011011
11111111011111011010110000000101
11111101011101000100001111100000
11111110001110111100110111000110
11111100010001001111110101001010
11111110010001010101111001111101
11111011111000000001100100111001
11111101111111001001101100101001
11111110001011110000111101110011
00000000100100011011010001111101
11111111100111001011011001010101
00000000011011100001000001011011
11111111111011101100001101110110
11111111010011010100100100100111
00000000010011111001101100111100
11111111100100111011100010100111
11111110000000111011010110011101
11111110101110100111110000101110
11111111000010100100100011111110
00000000010110111111001010000100
11111110111110100110111110101100
00000000011101110001101110010010
00000001011011011110110111000001
11111111011011001101111101100100
11111111111010010010011111110001
11111111101111010101010001110111
00000000000101100100101000100011
00000000000010110110100101111011
11111110011100011100110010110000
00000000010010101000001001100100
11111110010111111111001100010011
11111111001011001000001011101111
11111101010010100010111110010010
11111010100001110000010010100110
11111100010100011111000001000111
11111110010011110010100000001110
11111111100011101111000100010111
00000000000111101100011001000010
11111111011111010101010111010100
00000001000010111001011101000011
00000000101111111010001100001010
11111111001001101001011011000010
11111111110011010000111010100010
11111110111011100100111100101001
00000000000011000111100001011000
11111111100111001000001110101010
11111111001111111011111011001011
11111111101100011111000110010100
00000000001011101100101001110000
00000010101010000000110001001111
00000000100101101101000111000101
00000000110011011001010000000100
11111111111010010010101101110111
00000001001111000000011100111001
00000000110000001010101000010000
00000000001000001111011011110011
00000000000111001110001110010111
00000000111101001100101000100100
11111111110101011010000011010001
00000000011101110101110100100100
11111110101101000111100010101101
11111111110001010001001001101000
00000000001010100011011001101100
11111111001101110110110100011001
00000000111100110001000100000110
11111111110000011011010001000101
11111111000100001100101010110001
00000000100110011001010000100101
11111111011111100110101101111001
11111110001000000111011101001100
11111111111000011110011000100110
11111111110101000011011111000010
11111101111101001011011100010101
11111110111111011011110011011100
00000001010011101101110100110111
11111111100111001110101001001101
00000000111101101001101011000111
00000011101011110011000010110001
00000001111010000010100001011110
00000000001000110001000001010110
00000000100100011011110010011100
11111110110001000111111100100000
11111111000101100010010001100100
11111111001100011100010100101101
00000000111010000010011010110100
00000001101101010100011011111110
00000010100001101001100100101100
00000001111101001010110110001000
00000000100011011000100000011001
00000000100011011111010010111000
00000000111001111001001110000101
11111101111000101001010010111101
11111111001100110000111011001011
00000000000110110001010110001100
11111110001001011001101111011101
00000000001111011010001111011011
00000000010110001101000010000110
11111110010110011101110101010011
00000001110001101011110011010101
00000000010101011001000011000111
00000000110100001101011000111111
00000001001111111000011100010101
00000001011011010011100100001101
00000001100110100101100001000110
00000001001101111001110110011011
00000001111101110001001101011111
00000000100010100100011110001001
11111100011101000111011010110001
11111100010111101011001100101101
11111101111101111100011011000001
00000000100111110010010011100000
00000001010000101011111011111011
00000000001111110101010001110000
00000000110111111010110010111011
00000011001101110111011011011000
00000011001010101000010010011101
00000011100110001010100000110111
11111110111010111001101111110100
00000000100100010000111010010101
00000000100100111010001100001011
11111111111111111010101000010001
00000000011100100110000000010101
00000000110111011011001110010001
00000010000111101011000011110110
11111111110001111101111111001000
00000011000011010000101101111101
11111111011000100111100111011100
00000001111111110100011111001110
00000010010010101111110100011100
00000011000011010100101111001111
11111111111001010100001100001010
00000001011111011010000001100101
11111111100110001111000000100001
00000000000010101010011011000110
11111101011001110011101010010000
11111101010011000110111110111100
11111100000101101010001100111001
11111101100000001001100010111111
00000000001111101000000111110101
00000001010110100000100010100001
00000010001111111111001000000110
00000001001110001000001001011111
00000010101100110111100001000101
00000010010111001111011001011110
00000011100011011001011100000111
00000010011000011101001011101000
11111111011100101100110100011111
11111111101010001101100000101010
00000000110110011111000000010011
00000001011011111010000101010011
00000001101101011010110001101000
00000000011000100110111001010000
00000001101111011100111001100011
00000001000000100101001000111011
00000001001100011011001010111110
00000001101010001000011010111011
00000101011010010100011000001111
00000010011000101100111110110111
00000011100010010100000001011100
00000001000011111001011101011000
11111110111010001000001101101011
11111101111010010110111101011111
11111100111100011111100110011111
11111010011000101110001011100011
11111011100010011111001001110011
11111100111000100011001100101111
00000000100001011011101000110110
00000001011001010000111110110100
11111111010111011001000111011000
00000000011111000000100110010000
00000010000111001000000010111010
00000010101000101011001101100001
00000011110001100101110100111100
00000001101010111101000010100000
11111111010101001101000011001001
11111110010101010000010101101111
11111111111010111101011110000001
11111110111010101010001101000000
00000000000010000001000000011101
11111101101001000011001001111110
00000000110010110111101111100010
00000000000011110010001010100110
11111111011110110101110000111100
00000001111101110000100000100101
00000101110100000111101101011111
00000010101000000000100110010100
00000001101101001001010100110110
00000000001100111011010111111011
11111101001110000110110011011100
11111110000011001111110110000101
11111111100110100100010000111111
11111100100111100001110101110010
11111100111100101001010011110100
11111110111101001110000011010010
00000010001010000001110001001001
11111110110100010011110011000110
11111111001001001110000111111010
00000010000111110101001101011010
00000010010111001101101111100010
00000011101100010000101001111100
00000100100100001100111011001101
00000001011110110011000100000010
00000010001011001111001100011101
00000000101000000100101011010110
00000010010011011110101010011110
11111111100001010101011001111001
00000001011000010011100010110010
11111110011010001000010100100010
11111111010010100000011000001001
00000000101110011000100010111010
00000001011100111110011100001101
00000010000001100011011101000001
00000100111010111100010000110111
00000011100101101100000111111110
00000010111110100001111101001001
00000010010111110101100010001001
00000001111001000110010000100101
11111111111011001111111011101101
00000001100110010111000111001001
11111111100001000010010110110101
00000000000101101110001011000000
11111111111111001010011011111111
00000000111010001111111010011010
00000000100101000100111111011110
11111101011111101001110110011110
11111101111111110110010100010101
11111111111010001100010011111011
00000001001000011011110100100000
00000001111101111101101010010000
00000001100101101010000110101000
00000000110011110110010100100110
00000010011000111111001110001100
00000000011010000010010111100100
00000000010000110111111101100110
11111111001011001000011101100101
11111101011111011110110000000110
00000000000101101011001001100111
11111110101010110110011001010010
00000000001001111111101001011100
00000010010010010110000111001011
00000011010101111010010001000100
00000101011010101101010011100000
00000010001110101000001001010010
00000101110110000000110111000110
00000010111101100001000110010000
00000100011111010110010100100010
00000001011011001011000010101110
00000010101010100111101100100010
00000001010100110010111001101001
00000011011000111011010001110101
00000000100101001111010001111011
11111111101010001100111001010001
11111100101010000110011000101111
11111100001001111100010110111001
11111101111011100100100110101111
00000000111111100011010110100110
00000001110110001101011010100110
00000001010100100100101000000000
00000001010100111100001000010110
00000001111100100011001011101101
11111111001111110110000010011111
11111110000000000101101000101000
00000000110110001000010110111010
11111110111010111011001101010100
00000000010100110011101111011110
11111111100000011001010011111111
00000010010110101100010110001111
00000010010100010010011110011101
00000010011101101000000001000010
00000001110101011001010100000100
00000100010011111100101110000110
00000101010101000100111010100000
00001000010101010101110111111011
00000101000100000111101111111010
00000011101100110010011010110011
00000011011101100111110111100100
00000100010111010110001011101110
00000011110001010011001011101010
11111111111001100001101101011010
11111110001010110100100011001110
11111110100110010000001011000100
11111101100111101001101001111100
11111110110001110001001000000111
11111111011011100000010011100000
11111111000111100110101000000011
00000000000100101110011100101001
00000001001011001110010111101010
00000010000100011101111000110000
11111111010100110001110100011000
00000000100101101111101000100111
00000000110011010000000101110010
00000001011101110011010111001100
00000001000100110101111000010111
11111110100010000001110100100000
11111110110101100000101100110011
00000000001001100110100011111110
00000001011011101110101010011110
00000011011100011011010110000100
00000011011000001011101100000101
00000011111001101111100001011100
00000100110111110010010011101000
00000100111011010011011000011111
00000101001111011001011110010011
00000011111101001011100110110111
00000100110100000101001111110011
00000000000100101001001000011101
00000000111010001111000111111110
11111110011111101000111100101011
11111110001110101010010000010101
11111101101111100011000011111111
11111110110011011011000111111001
11111111000000011001100001110111
11111111100010010001101110001001
00000001001000011111111110010101
00000010000000100111110011101011
00000000010111000100101111111110
11111111100110011011101111110010
00000000110110010000101101001101
11111110111000101111010101110011
11111111001101110011011100101110
11111110110010000110011001011111
11111101110001111110011110100010
11111111000001100000101101111111
11111100111101101111111110001001
11111101100000100100101010101110
11111110100001010001100000111010
00000000110101000010001010100000
00000001101101111011001110111110
00000011100001000011000100001111
00000101000001011011000100011111
00000101100001011001001010011011
00000011010010000101100100011001
00000011100110110101111000110111
00000000001100000111001100010011
11111111100110011010101101011111
11111100011001011001111101010100
11111110101111010010001001110110
11111101111100110110100111100010
11111011000100001001110111010010
11111101010000001100100101100010
11111110011000100111110001111010
11111110101110001110010010001100
00000000010011110010110010110101
00000001100100001010110011111101
00000000100000011100110110100011
00000001110111011010110110010101
11111111111101100100010100001110
11111111010111101011111010001011
00000001101110101001011001100111
11111111010011111101100111011110
11111101101000000110011001111101
11111100100100000101101011101100
11111110100110100000001011001010
11111100110111100011001010011010
11111101110100011001001000101111
00000000111101110111000010001101
00000001110010000010110100111010
00000010101011011111011111111011
00000000101111100000000001111110
00000011100000100100100001011010
00000010111110110111001000110010
00000010011000111000001111010100
11111111101101111001000011001000
11111101111001010111010010111110
11111111010101010000000011011101
11111101010001100110110001000101
11111010111111000110000110111110
11111110001100110110111101101010
11111111101100001010100101101110
11111110111110110011010010100000
11111111101001110011011110000011
00000001011111110000110001011011
00000001011110111000111000010110
11111110110001000000111110000100
11111111101000111111100110100101
11111111011110101100011001011111
00000000000011000000010001110101
11111111000110000101000001001111
11111111111010000111001101010111
11111110011011000000101100001111
11111100010000111101010010001100
11111100101001111111111010101000
11111100001100101101011001001011
11111111010011111001100111101101
11111110011111110101011100100110
00000000110111011100000001010010
00000001000110001110001010110111
00000001011001111111101001010001
11111110101110110000001111001001
11111110111100011101100001101010
00000000000101111010000101110111
00000000011101100001010000010011
11111111000011110010101001110000
11111111011100111011000110110001
11111111000101000101100110111100
00000000001101100100000001011001
00000000000010001100110101011110
00000001110001011010101010100101
11111111110101001101100110111101
00000000011010001111101010101010
11111110101001011011010001110011
11111110101110010000100110100011
00000000111100011011100101111101
11111111101010100001001110011011
00000000111101000001100110101011
11111110110110010000110000001100
00000000001100101000011001010011
11111110000001111111011000111110
11111100011011110011101111011001
11111100000111111010111011001011
11111110100001001110001110100111
11111101000011110010101010000011
11111101100101110101110100111110
11111111110110101111110000100001
11111101001011111100111011101111
11111111000111000011010111010100
11111110111001011101001011101100
11111101011011100100000101010101
11111111000010111110001000111101
11111110100001100011110010101001
11111100101011001100011101011111
11111110110111011000111110110011
11111111101110110011001111111111
00000000101011000100101011011000
00000000111011101011111001111110
00000010101010111110110011101111
00000010000101110010101001011011
00000000100001110001101101100011
11111101010010011110011101011001
00000001000000100001001010010110
11111101110001000010000000100101
11111111010010110001000010110101
11111111110000010000010100100101
00000000100011111001100010101110
11111111011000011111101111101101
11111111110100111101110011110111
11111110010010111110001100011101
11111111010010011010001110100010
11111101000111011010100111011011
11111101011110010110100011100011
11111111100010101110001111010111
11111011111110001110101001110000
11111110000001111001101111001101
11111101000000001101100010100001
11111011111100110100001011010111
11111111001111001001100110000110
11111110011000000100111100000111
11111100011000111110111110100111
11111101010010010010010011010100
11111111000110111101111101010101
00000000101011101010101001001101
00000000011101101110110011011101
00000000001100110101111010010100
00000010111010000010001110000110
11111111000101000100100000101100
11111111100100100000001111111001
00000001100001110101011001001110
11111110111110010001111101100011
11111111101111001011101001111001
00000000110110000110101111110001
00000010000110000100001010001110
11111111111010110010101101110010
11111111111111010111010101011100
11111110111110101010001001001001
11111111100101101000110010110110
11111110101001000110000010101100
00000000000111011000001111001011
11111110110010000111111001101110
11111110100001010001010010101111
11111110000011010101011010110110
11111101000000100110100011110000
11111110000100101011100010110000
11111100110111010100000010101101
11111100000111100100100110001101
00000000010011011111011010010110
00000000100000010111000101001010
00000000111100000010110111111010
11111111001100110100011101110100
00000000011011011110001110010111
11111111110101110111000001110110
11111111101000100110100110101101
11111111011100010001101100010011
11111111010111100101010100101010
11111111111000010111011011011100
11111111100000111101010100011100
11111111011010010110111000001001
00000000001001110010010101100111
00000000010111101110101001101111
11111111110011000011101011110110
00000000010000000010110011000010
11111101111101010010101110000011
00000000011011000001011100001100
11111110111001001110110001000111
11111110101000000100011110010011
00000000010111111000011101000111
11111111010100001011101010001101
11111110110011001010000111001010
11111110011100001010001110110011
00000000010011111001001101100111
11111111001101101100110111100010
00000000111110110011101101000100
00000001100101011001100101110100
00000000100011001110001001111101
00000010000011000100001011010111
00000000100100011100100110111001
11111111110001111110100110110001
00000000000110110111100111001000
11111111111111101011100010000000
00000000111100000100011011000110
11111111001010000001100110000011
11111110111010101101000100010101
00000000000110010011001011010001
00000000111001000010011101110001
00000000101111011111101110001011
11111111110100010110000111101111
00000000100100101100011000010011
00000000001000100101100100110110
11111111110001111010010111110101
11111110111001111111111110100000
11111110000101000011100001100100
00000000110000000111100110111000
11111111110101100011000110110101
00000000010111101101101111100011
00000001101010110000011000001001
00000000110101010010010100011011
11111111010111010011011000011010
11111111010000101111000000110110
00000000101101110000000011011100
11111111110111111011100001101000
11111111011010101000100100000010
11111111001100000110110000110110
00000000101001110100001010110011
00000001010000111111100110100110
00000000100101110111110001111010
11111110110111001111000100101011
11111110000100010001101100010001
00000000001101000100000101010111
00000001000101011111000100000011
00000010011000001100000110111011
11111111110001011111000001101100
00000000111100101011100010001000
11111111000000011111010010010001
11111101100011100010011011101011
00000001010001011000011100111110
11111111001111100100111100111100
00000001100110000001111001010011
11111111100111110000001011010110
11111110011001010000011010001111
11111111101101001111101100101010
00000000101001011100111100111010
11111111110110101010101010100001
11111101010101110001000011011111
00000001001000100110100000101010
00000001101100010010110000011010
11111111011001100000010000100100
11111111100111111000100000011101
11111110101110111100001000000110
00000000110011111011101100101000
00000000001011110110011100101111
11111111011111001000010101001010
00000001001000110111000100001000
00000001011110011001110000111101
11111111011111111011100101010110
00000001110100011101010111011011
11111110111000101010100101101101
11111111111111110110000011111011
11111111011101011100010111001111
00000000010001101110111001100110
00000001011100010001000100111111
00000001000110110110101100100110
