00001001001110000101110011111001
00000001100001010000011100011101
11110001001010111000011010001100
00000011010000011110110101111011
00000001101010111001100010110000
00000011000001010101101001111101
11111110111100001000000011101010
00001010101001011010010100100100
11101100000010010011111010010110
00000101100000101001101100111011
00001100100111101101011110100011
11111010110000100100011011101000
11111110011111111100010000000001
11111010100110011111100010100101
00000111101011001001100110001101
00000111111111101101100011110110
11111000111100110000001010010011
11100100000101011011110000110101
00001111110001111000000001001100
11110110100011111011000111100000
11111111001100000110010101010111
11111111100111010000010101101010
00000010010010111000111110111111
11101101001010011101100111111100
00000100110000011010001010011110
11111011101011000110010010010010
11111100111010101110110111011100
11111001000110000110110011000101
11111101011001011011001010001110
11111110001110000111110001011010
