00000000001010011000001110111111
11111111100101001011000110100101
11111111111010010010110110100000
11111111100111001000010110111110
00000000010001011111011000100100
00000000000000000100010000100101
11111111101101001110011111010111
00000000000111101011110001111100
00000000001100101001101011111111
00000000000111011001011000000101
00000000010100000110111010110010
11111111111010011100111010100101
11111111111011001100000110101001
11111111101111000000101001000001
11111111111001010001110100111110
11111111110100011111110000001011
00000000110001110000000100110110
11111111110101101111110010010100
11111111100001100011101110011111
00000000000000000110000010001001
11111111101110101110010100100001
11111111110110111000010001110111
11111111110010001010001111111100
00000000000100111010100011111000
11111111111111010010100000110111
00000000000110110011000010110100
11111111110000010011011111111101
11111111111000110111001101011011
11111111111110000110010110010011
11111111100000101000010000100010
11111111111110000101000001001000
00000000010101011011100100100101
11111111111111001111010110010110
11111111110101001111010110101011
00000000001100001010110000001110
11111111111111100101111101000101
00000000011011111001110110110010
00000000110010100011011010100110
00000001001001010001000010110000
00000000111110100011000101111101
00000000010100010101111001010101
00000000111001011011111001101000
11111110110111001011001000001001
11111101010001101101110100100011
11111111101111100010100110010111
00000000100000011010001001100011
00000000000101000001011011110111
00000000101100010000011001110000
00000000011001101000011111110110
00000000011001000110100100101011
11111111110001011101010111011000
11111111011010000111111000010011
00000000011000100000010110001001
00000000001010111000001110011011
00000000000111000111000110000101
11111111100111001111101100100110
00000000001010111010100110111100
11111111110010111100100010110010
00000000000000110100111010100100
00000000011011100111010100100010
00000000101100010011001111000011
11111111100101001010001110110111
00000000111110111000001001110000
00000011010010111001010010011110
00000011111111011001101000000100
00000100001101110011101000001100
00000100011101110010010000011000
00000011101001010001100100011111
00000100111011010110100000110010
00000110100010011101100100101100
00000100000101111100100001110100
00000011000111100000110010000001
00000101010110011111010100110110
00000100111100001100111010000100
00000101010001101110110011101000
00000100000110110110010000010010
00000010000100011010100011000011
00000001011101010001001001100001
00000001101101111000100111010101
00000011111100000010100101111100
11111111000111101010101000111100
11111110001010001011110010010011
11111111100100001110000011001011
11111111111100010010010100001000
11111111101110011000000011110101
00000000100100001111011110110101
11111111111100000000100001001111
00000000110000110110010110010011
11111111101000010111001111000001
11111111111111011110111010011001
00000001010101011000111010101010
00000000001001010110011100101000
11111111111100111110001100101100
11111101111000100111100011110100
11111110011111011101101110000000
00001001001100011001100010111011
00001000000011111000001111101010
00000011011110110010000010000110
00000111111100111001001001101011
00001000011010001011010010011101
00000011000111011111100001110011
00000011110110011010100101101111
00001101110111101001100010110110
00001110110100101101001000010011
00001001101111111001000101101100
00001100100000101010001101101001
00001101110100011100010011101001
00000111100100110100001011110001
11111110100000010100011110101000
11111101001001011111111111101010
00000000010100101010010111110111
11111111110111011011010000011111
11111111110110010001001011100111
11111111110101111101101000110001
11111111111100110110101000001110
00000000000010100011001101101100
11111111110111100000011101110001
11111111101001110100111000110100
11111100110001001100110001100100
11111010101001010010010110101101
11111010101010001111000001100001
11111011101011011101001001011011
11111101100101100110001111101001
11111101100101111010011110110111
11110110100100101000101011101000
11111101110011110001001101010001
00000101101001000010001000101010
00000011111110011001000101011110
11111110101111011000001011011100
00001100101010000001001110100001
00010001011001001101100101101111
00011001001000010110011011100010
00010101101011001100110000010100
00010001010100001100111001001000
00010100110001000000100101000000
00001000110010000001110111100001
11111101111111111110100001000110
11111100100000111000011111010011
11111111110001001100000001011101
11111111011111000100001100100001
00000000000001001101101101110111
00000000011101011011101111000100
11111111111100110110101000001100
11111110111100001110110110100001
11111111001110111110101011000100
11111011110110001011011010101110
11111000101101101110111101100100
11110111101010110100010000100101
11111000001110100010111101100010
11111011111011001001100100010001
11111001100001010111111100111001
11101100001011011100011111011110
11110000001010111001010101010011
11101101001100101011010110000101
11110001001101100101000100010110
11110101100110001101110110101000
11111010011111010011000011011110
00000011010010101000100000100011
00010010110010010011000001100110
00010111000000010100101000110101
00010101110110101001110101100101
00001100011011100100111011110010
00001000010011111001001101010011
00000010000111011100001111011010
11111101100111000100111100001110
11111101010100011010010101001010
11111111101111010100001101111010
00000000010001011111010010101110
11111111110110111011010011110001
11111111111111010110110011110110
11111111101010111001001011101100
11111110101110001100010110101111
11111100111010110001000101111011
11111001111011111111010111101100
11110110110011001010100011111111
11110110111110001110101000010100
11110111011110001101000010000101
11111001010011101111100000010010
11110011100010101111000001110011
11101100110111001000001101000001
11101110011110111110011100011010
11101001110100011000011101000101
11110000010110111011101100001000
11110000101000011100010111000100
11110110001100101010100101001110
11111100100010011110001000100001
00000000001100101100000111010100
00000001111001110101011101001011
00000010100011111100111000101011
11111100111111010110000011000010
11111001111011011100111110001001
11110011000111011010000011010010
11111000100010011001001110101000
11111100111011010010000101100111
11111110101111010111010010010011
11111111111001011101100001101001
00000000101011000010111011000000
00000000010100100111000000011001
11111111111101001011111101101010
11111101010001011000100011110011
11111100100011100011000100111010
11111000111100101101010110000111
11110110011000000010010101010110
11110101110100111011010011000010
11110101111101010011000000001111
11110100011111010101101101000111
11101011000101101001101110110000
11110100100010011011001111111101
11110011100101101000010111010110
11101101011101010010000110110101
11101011000011100010101010001111
11110101100011101011111010111000
11111010011001010001010010011011
11110110111101100101111011000001
11101010001011110101000000001000
11101110110011010010000101101110
11110011001011001011110011110000
11110001010101101001000111001101
11110011001101011011110111011101
11110001100001110010100111011100
11110111100110001010111011001110
11111000111011111111101000010001
11111101110011011101001111010010
11111111010101000111000110000001
00000000000110101101010101000110
00000000001001101110100101010101
11111111111100100000110101011100
11111110110110101010100101000100
11111101011011010101101000010010
11110111100011011110111010101001
11110110100111000010001111000100
11110110100110100001111001010010
11110100110000101001111110001100
11110001000100111100010101010110
11101100001011010110100000110111
11110101110011000110101000011010
11110011101101011011001111001110
11110110000110000101110000100101
11101110111110101111111001100101
11110100110101100111000100000101
11111111101010011111010010101011
11111001010100011000111110000000
11100101000010110110101001001100
11100100010011001000110011001111
11101100011001101011101011100011
11101010001101110101000011010000
11101110000110110110101001110001
11110000011100011010010001011011
11110100001011110010111110000111
11111001000010000110101010110010
11111100100001010001011110110101
11111111011101111011010110111101
11111111101010111101101001000101
00000000001010001010110000111100
11111111100111111101000011110111
11111110000101111011010000001001
11111101001111110111110100101110
11111010001011100111001011101100
11111010010010111001111110101011
11111010111110011000001110110011
11111101101111010010000010100000
11110100000010001010110011111101
11101111111011111010100000010100
11110110011110001010100001000011
11110101101010101011011111100000
11111001010010010111001000100100
11111011010010110000100101110111
00000000111010100001000100011000
00000011010010010100110001100010
11100111110100001101111010001000
11011100010110101100111101010101
11100001101001101110010001001110
11101100100100100100000100110011
11100111011011111011101100000110
11100101101101100100101010000011
11101101101111011011101101111001
11110101001001001011111011100100
11111001011001111100100010011111
11111011100110001100110011101010
11111111110101101101010001010111
00000000000000101101101100111010
00000000000000100001101011100100
11111111001010101101101001100101
11111101010111111001011111000101
11111011011100000000111100011011
11111001011000111110000011110010
11111011110010001100110011001000
11111111100111000110100100100001
11111111110001001000011010110100
11110101110011010000101111001010
11111001110000010100011011111110
11111100111001101101101101101001
00000001000110011000011101001111
11111110001100111011110001010111
11111011100100000100100010100100
00000011001010000100001111101100
11111000101001011101001000010100
11100010110010001010111001110100
11100110101001011010011010010110
11110100101100110110001010110011
11110000011000000011001100011110
11100111001100101011100101100000
11101100010010011110100010110110
11101111011100001111111111000110
11110001000011100101111110001000
11110011001111011100100101110100
11111010100011100001110100101111
11111111010001001001011111101010
11111111101111101010110000011011
11111111101000011001111110111001
11111111101101001100010000111000
11111101111010010010101000011110
11111011101100000001110010001111
11111000000011111101111110000100
11111100100010110001111011001011
11111011001111000011110001000001
11111011110000111011011010010100
11111110010010101101010111100001
11110111110001110110110111110010
11111000000100100010100001111001
00000010010000011101001010011001
11111110011110010000000100101100
11110110101011110111110001100100
11110110110111110111101011011010
11101111111101001110000001111001
11101010100010000010000010001010
11101100101101010110010000000000
11111000100111111001101011000100
11110111010110001000111111000101
11110011101000010111110011010001
11110001010011000011010101101101
11101100001111100001000000111010
11101010111011000111111101001011
11110001000100100000101110110011
11111010110110101100001010110010
00000000010110011111111011110000
00000000000000011111011110000111
00000000000111011010010001010100
00000000001001101100101110001000
11111110011010001000110011110110
11111011101001110110000111100000
11110110011100010010010000111001
11111010010000000011101101111001
11111111111010011101000100000001
00000101000111010011000000101111
11111110011000100000010111001000
11111000100010111101001110001101
00000110000001100111101110000111
00000100001111000000110000100011
11111111000101100011111001000011
11110000010001101100011100000111
11111100001111111111011010110110
11111001100110001100011100101100
11110110110100110010001011100111
11110001011101010100100110000001
11110100111111011010100010011100
00000001110000000111101010111000
00000110000000101011001011111011
00000000101010001100111001111010
11111110101010110000010010011111
11111000110101101101100100010101
11111100011000100001000011110000
11111110100110110110110101010011
00000000011100110111111100111010
11111111011111011010011110011001
00000000000110101000100101010101
00000000100001000100110011100000
11111111101100011101110100100000
11111001111101001000000100001111
11110100100110011111000000101010
11111110000001001010111110101111
00000001110110110110010000110100
11111101011001101010000100001000
11111010111011010010010001101000
11111110011010111110011000110001
11111111010110000011111010101000
00001100111011011010100110111100
00001011000011100111111011001111
11111110001000111011010101100110
00000111101010000000100110101000
00001000110011001000000010011001
11111001110011100001001011010011
11101110010001100111000010111100
11111100101101000101011110101110
00001100011101101101110100100000
00010001101011111110001110001001
00001010010111001100100011111000
00001000101110001000001011101011
00000001001001110010100101100100
11111111011001010111100111111100
00000000001000010100111100110101
11111110011010100010001110100101
00000000011100010110101010111010
00000000110101100110011101011101
00000000000111001011100111010011
11111110110011011110001101111000
11111000101010000111010010110001
11110011011101101110001000100011
11111110001110110001111001010011
11111011111110001110001001000000
00000001111000000010001001101110
00000100011101111100110001010110
00000110111110011001111101001111
00001001000000011010011101110000
00001110000000000000101110101101
00000100011001111011100010010110
00001101010110100111111111101000
00001100010110111000110100110110
00001001110011010011110110010000
11111100110010101011111010010011
11110010001100010011001011010111
11111010010001000001011010100100
00001111011000010011001110110000
00001110001000010111100001000001
00001111010101000010101001110111
00001001011101111110000101000001
11111111110110001011111110010001
00000000101111001111000100110000
11111110000011000110110001011101
11111111011110010111110111010111
11111111111100011001010001110111
00000000000010011000000001001110
00000000001100110110000110010111
11111101011000000001000000000000
11111000101110101010100011100000
11110010011100111101100011100001
11110111101000010010100010001101
11111011001010101011110010101001
00000101011011011101010100011100
00001111110010010010100101000011
00001111001011110100111010001100
00010010000011010000110010110110
00001001111111110111001000001010
11111000110001001101011101001010
00001110111000001010111000000011
00000110000101110110111001001101
11111010010110100011010101000001
00000011101001101110110111111011
11111111111010001111001111010011
00000101101111000011000100111111
00010000110101110001000110110010
00001101001100010000111110111110
00001000011101001010010010001100
11111111101000011110010011111001
11111100101110110111110000101111
00000000000011101111001110111110
11111101100011011010000100011101
11111111101011000111001010101010
11111111100110010100100110111010
00000000001001000011111010010101
00000000001100101010111010101010
11111110000001111100110001101010
11111101110101010110001100110100
11110110001001001001000001011110
11111000000110001001111101110011
11111111100011001100010111101000
00001010101001111011110010000011
00010011111111101011101111000001
00010101011111001111100111001111
00010011110000111101001111111011
00000010100110110000101100110010
00000000111111101011000011001101
00000110101111101011010000110111
11111000011010000110101101010011
11101101100001010101111010110011
11111011101011101111111001011100
00000001000001000000011100000111
00000011100101011010100111110010
00000101111100110110010111111010
00000010010110111000110001011100
00000000110000001001011100110100
11111101010010010100110001000110
11111100000110001101000010011011
11111100100101011110000111011001
11111101111011100000111011101101
00000000000111110000000001010011
11111111011110011110100011000010
00000000010001110101101001100110
11111111101110101100011111111010
11111101011001010100110000110001
11111101010111011101101101000100
11111000010111001101001011101010
11110111001100110010111011010110
00000010011010001011111011000011
00001010110011001000101010010011
00001011100101010011100000011111
00010010110111110110010110111000
00010010101011111110111010000110
11111000100111011110101110000100
11110101010100100010110010011101
11111011001000101010011100001110
11110010100001011101000011010011
11110011000101010110010100101011
11111110100101101111111000101011
11111110010000110101100001000110
00000101010111101111011110100101
00000101010101010000011001001111
00000110010101100000001001101101
00000010011000100111111001010110
00000000000001111111100100001011
11111110101100100101110000110101
11111100110000111101110111110000
11111111000100101111100110100001
11111111101101111000011101001010
11111111100010011111110100101000
00000000010011111010110011011000
11111111100010111010010100110000
11111110011011010111011110010100
11110111000110101100011011011001
11110110111000001011011011011010
11110010011011111101110010001100
11111010100011000101001110011101
00000011101001110010010001100101
00010000001101001001110101110101
00010010010001011110001111101110
00000110111100100011001010011001
11111111111011110010000011000001
11111000101110001111101011100011
11110100011011111011010110111111
11101111100010001100111010010100
11111110110001110101010111010101
00001001101111011111100111110100
00000011110111111001111011111001
00000010100110101111010110000110
00000001100111100011110100000110
00000001100111101110101011101101
11111110001000000100000000110110
11111011100111110000011000011000
11111010101001010110101101000001
11111100101011011101011010000010
11111101110110011110010110000011
11111111101101010111100000001111
00000000001110100001110111111001
11111111111000000111100010001011
11111111110101110101000111011101
11111110100110100100101001100001
11110101001110001000101010100111
11110111011111110000000000110000
11110100110111011010001010100001
11111001100010001111100010110011
11111111100100101110001011001101
00001000101010000000010010000010
00001000000011011011010001110111
00010100010001110101000000001110
00010000101100010111011101001100
00000101011000100111010001011011
00000010011110101101111000100001
00000100010101101011111010100111
00001111110011010111100100010001
00001100111000110000110011100010
00000110110011011011011111001000
00000011000011110100001011111101
00000001010000101001001001100010
11111001001111101111100101110100
11111000011101110100100001011001
11110111100101111010011011100111
11111000111000011001101000111100
11111011010000001101011110000001
11111110011111101100111101010001
11111111111010010001110111000111
11111111101000001001000100010011
00000000111010010010110110000000
00000000000011100011101101100010
11111110110000001100010010110011
11110111011100100101010001110101
11111010010011111011110111110001
11110100000010110101111001111010
11110101110110010100110100001010
11110100110110011101100011111101
00000000110011100110110111100101
00000101010001111110101101000010
00000111011101101110010110111011
00011010101011000111100011110101
00011001110100000111011010010011
00010101011110100111110100111001
00001010010011010000010101101110
00000111000010111100011101011100
00010011011010110111010100100010
00001011011111000000110110001011
11111110001110110110101001011110
11111010110000111110110011011011
11111000000010110000100001110010
11110101010100101011000101001001
11110101010011100011111100100110
11111000001011100100110110001000
11111101110111001001100110011001
00000000010001010001001101110000
11111111101001010000010010100100
00000000010001011100000101010011
11111111111101000000101110011010
00000001000101011001011111110100
11111110011010011001010000001111
11111011001001101011100110100101
11111010100010010000101110000000
11111101100001101000100000100010
11111001111101010000100110110000
11110101001010011011011000000001
00000110100001000000101001000100
00001001111011101111000111010011
00001100011000001000000010011010
00010111111001010011101001100010
00011000110010110101010100101111
00001011111100000000011100010000
00000100000110000001110111101000
00001000100010110111000010100100
00001001011111010010110011010100
11111101001010001010100110100100
11111000010010010101010110110000
11110011111001001101011101111111
11110100111100000100010101111111
11110110110100100101110111101100
11111010000011011001110001101110
11111101001110011100101111000101
11111111011110011111001011000100
00000000001001001111001010100000
00000000000110100000111001100110
00000000000101100101100011100001
11111111110010010011110111001100
00000000011010011110001000000101
00000000000001011001011111101011
11111110011100000000000011110110
11111101010111100001111101101001
11111100010100110001011011000010
11111011100111000101000001010011
11110111110111111011111110001011
11111011001111011110101101001001
00000011111111010010111111010010
11111011001111011100001101110001
00000101011101000001111111101000
00000111001111110010101110110111
11111111001110001001111101011111
00000011110101100001100111001100
00000010001011110110110110001101
11110101101101100111100000011111
11101100000110101000111011011110
11101110100101011101010101110100
11110000101101000000000001111100
11110110100110110011100000010011
11111010000111111001110011001101
11111100100001100000001110111011
11111110101110001000101011111101
11111111011110110010000100001011
00000000010111100111000110101111
00000000011011010111001000110010
00000000000100000001011000111110
11111111111001000100111011001000
11111111100110011001000000110011
11111111101100100101011010100101
11111111000000000101111010011110
11111111010101101100101011011010
11111101000011000000011001110111
11110111101101010110110010000000
11110000111010001010110000111011
11101110001011110101101111100110
11110000111000100110110101011101
11110001101100000111101111111110
11110110101010000010100110111110
11111111001011010110111100010000
11111110011010010001110010000000
11111111001010001010100000111011
11110111100110001111010001011100
11101111111101001110001011101100
11110101001110011100011101010110
11111001000111010010110001001100
11111010010000101100001001011110
11111100100011010100101100100101
11111110001100001011101011010100
11111111101100110001000011101000
11111111101101001100001001011001
11111111101010111100011010001100
00000000001000001000011110100110
11111111110100110101000111001111
00000000011010011001000001101100
11111111101110010101111110000111
00000000011100111000101110010110
00000000000110101111100011101011
11111111110100011100100110111000
11111111100110001010001000000000
11111110110101111000000011000111
11111010100001110111101010011111
11111000011111011010101001001110
11110111001111001011001111111010
11110111000001110110101011111100
11110011111100010100100011001001
11110010000100100111110011110011
11110000111110111111010110101101
11110010101110111010001000111000
11111001000101010110101111010111
11110111101001011001011100000011
11110101110101001011001100001001
11111010010111001100011001111000
11111010110111111111111100011001
11111100110000011001111101010011
11111101101111010000011100010010
11111111010001100010111000000010
11111111010001101010100011111011
11111111100010010000010101101000
00000000000010011000111010000011
00000000001101010100010000100111
11111111100001101001100000010110
00000000011000101110111010010101
00000000001101011111011000100101
00000000000101110101000001010110
11111111111110101100001100000000
00000000000011011011010110110111
11111111010111100110111001100000
11111111000011000011001011011000
11111111011000100000100110110001
11111101110110110000000111110110
11111101101011110000011101110111
11111100111000000101010011101111
11111101011001011100101100111000
11111010110011000011011001111110
11111001001100000010100010000111
11111011001101110100010001111011
11111110111000100110101110101100
11111100010101100101101100100110
11111010111111111000011000100011
11111101010011110010100010010001
11111110111001001000111111111111
11111111001100001010110010100100
00000000000100011101101111101011
00000000100010000111111111110010
00000000001001001100000111010000
00000000010101000000001011100010
00000000010011000111011111100100
00000000010110111011110100111110
11111111101100010111010011011111
11111111111100111011010111100111
11111111001110100011011000010000
00000000010000001101000010110001
11111111011100110011101110100100
11111111101001000110110010011110
00000000000111010101011111110000
11111111100100110010110010111011
00000000100100001011001101101010
11111111110011001111010101110101
11111111000001001111100000111110
11111111010010101110100010101111
00000000001101111111100100011010
11111111110011011110100011101010
11111110110010010110010111011011
11111111000001111110101000011110
11111111010010111000110110101100
11111110111001011101011011011110
11111110110000011111000111011100
11111111000000011001011101000000
00000000001011111001101001100110
00000000001000110111000001000110
11111111111011100000000001101110
11111111101100100011010010001010
00000000000101010100001011011010
11111111111111100101110011111110
11111111100001010101010110010110
00000000011011110011001101000101
00000000100000010001011100000011
11111111110011101100010101101101
11111111111000010011101100100000
00000000010010010000001101001101
11111111110001001110010111110010
11111111111011011010111010001000
00000000000110100011111000001010
11111111110110010010101101010010
11111111011010111010111000111111
11111111100001111010110101101011
11111111101000010000100001011011
00000000010010100111010010011101
00000000000001111011111111111110
00000000001110001111001011101110
11111111010010011111011111001100
00000000001000111111001111000010
11111111011101110100010100000000
11111111111001010101011100111000
11111111111101101001111101100001
11111111111111101110011110101010
00000000000101111001100110111010
11111111111111100001101110000010
00000000010100110000101010111111
11111111011010010010001000110111
11111111101010011111000011111011
11111111111101100011000000111101
11111111111010110111010001010110
00000000000000111011111101010100
11111111101011001010111011000100
