11111111101010100011010010001011
11111111110001010010110011110010
11111111111101111001111101011110
00000000011001010001001000011011
00000000000000000101111100101010
11111111110101011100011101100101
00000000001010101000110011100110
00000000010011110010110111111010
11111111110001001001100011110110
11111111100010100001101111000110
11111111111100101100010111011111
11111111111111100101100110001101
00000000001101110011100110110011
00000000000110100101010110111111
11111111110110011111010011110011
00000000001101100000001100100011
11111111101010111001100001110110
11111111110011001011101001110000
00000000100110100011010001111001
11111111100011100111101001101011
11111111110110101101011111100100
11111111110111100111000110000001
11111111100100010000000100000011
11111111111101011011100100010010
11111111111111000011001000111111
11111111110110100110011100000111
11111111111100010100001001010000
00000000000001101111100110111010
11111111100101101001110001010001
00000000001100011001010101000010
11111111111100100010010111001010
11111111101010101110000000001100
00000000001101101111111110110100
11111111110001001100101000110111
11111111111111111001110011000001
11111111111100001100001001011010
11111111110110011000010101110111
00000000001110100001000011000110
11111111101111000010111010111110
00000000010000101110010011110001
00000000010001101111010101100010
11111111110010100101111001000110
11111111111110111100011011001100
00000000000010011100001101001001
00000000001011110110010010000010
00000000010001100110001001100000
00000000010011011000010111010100
00000000001111010000011100110111
11111111100000001011111111001000
11111111110101001010101110010011
00000000100001011000001001010110
11111111100001111011110111010010
11111111111010110010001010011110
00000000000100001000100111010111
00000000000001010011000101001010
00000000100100101001001000110110
00000000001001000111110101101110
11111111110010001001000011011011
11111111111011011111100000111110
00000000001111111001001001110100
00000000000111101010000010011011
00000000000001011111001001110110
00000000001001011000111100011101
00000000001110011000111001011101
11111111111010111110111100001101
00000000010001100111010110100001
11111111111001100111011101110011
11111111110011110001010011110010
00000000000011100111100010111100
00000000010001111000111000010111
00000000101010100110000010010110
11111111111000011011000000111111
00000000010010010010010111111100
00000000010101001110100010010111
00000000010000010011000100100011
00000000000111111011000000111110
00000000001011111000011000010001
11111111111101101101011011001111
11111111111010111100010000000010
11111111110010011010010110111000
00000000001011100110111010111011
00000000110000010000110001101001
11111111101000101100010101101010
11111111100100100101100110111010
00000000000000001010100100000111
00000000011001011001100100101111
11111111011110001001001101011101
11111111111111010011100100101010
00000000010010110101001001111001
11111111111100101010110111011110
11111111111111110100010111100110
11111111100011110100010001001101
00000000000101100011010010010100
00000000010001010100110101001111
00000000011000100100000010100010
00000000001110101011100101011110
11111111110100000011110010011011
11111111111110100011101110000010
11111111110010100110101101001001
00000000111001001010001110111001
00000000000001001111111010010001
00000000100110100101100000000100
00000000101101010000100001011100
00000000011111100000000110011001
00000000100000010011110000111110
00000000000001101100111011100111
11111111100011010011001011100010
11111111110101011100001000111011
11111111100011101111001001011111
11111111111110101110011001011111
11111111100110110001101000010101
11111111111100011110101101000101
11111111111010001100011001110010
00000000100100010001110101111110
00000000011000001011010011011000
11111111101010011100111101100010
11111111111101010011100001100101
00000000101011101110111110010011
11111111111011001101101011100101
11111111100100010001011011100101
11111111100010000101100000001010
00000000000100100000100100001100
11111111100011001101010001011110
11111111100110001111011111101010
11111111100100010001001111111010
11111111110111110100010011110000
00000000000010111011001001010010
00000000010110111111101101111100
00000000110010101101111000111001
00000000100101001011101011110111
00000000001010010011101011111110
00000000000011000011011010111110
11111111110010101011011101000000
00000000001000100110101101010011
11111111100001111101011111011010
00000000001101111000000101000101
11111111111011001000000001100111
00000000011000010001001011111111
11111111100010101111000110101100
00000000001001001111101111001010
11111111111011001010110011110001
00000000001100110001001011110111
00000000001000001111001110000010
00000000000000100001010010010001
11111111111101000101011000011111
00000000011111110000101100110010
00000000010110011100110100010011
00000000011010011111001111111110
00000000001000011000111000000111
00000000001100100000011010011101
11111111011111110110000110010111
11111111111011000000001001110000
11111111111110001100010110001110
00000000001000000101010010011001
11111111110010000010011010101011
11111111101000100001010101100000
11111111100010111001110011101101
11111111010110011011001001111111
11111111100010011001010011000011
11111111010101000100000100101000
11111111011100110100010111100011
00000000001010011110000011111011
00000000010010111110000010110110
00000000010000011010000011110010
00000000000110001100111110001101
11111111101101001010001101011101
00000000001011011011011000101010
11111111111010111101101000100001
00000000000001001100110101100111
00000000000011100011011110110101
00000000100100101001010111110001
11111111110010010000110111100100
11111111101011101110101001000010
11111111110111101101001100110110
11111111101011110010001111110000
11111111101001111011001010111001
11111111111100001011000000101110
00000000010100111000001000000101
00000000001101010110011010100101
11111111101011101110111101111000
11111111010010110111000000100111
11111111100010110000111001100101
11111110110111000100000011010001
11111110101111010001111011111010
11111111000010111101011010100111
11111111000101010110001111111100
11111111001010110100010010011100
11111111100011001010101000100000
11111111010111011010110111000000
11111111100100100111110110111101
11111111101001100100110110010000
11111111110110001101000100100000
00000000011100011001000011110010
00000000000011001100111010110111
00000000001000110100100111111101
11111111101011111010011100001111
11111111110111110101110100000001
00000000010000000000001110110010
11111111110010011010000001001011
11111111101011000001001000011011
00000000000111001001000000100101
11111111110110000010111101001010
11111111011111110101111010110000
11111111110110101011010100100000
11111111011001000100110000001101
11111111010110011000100011011100
11111111000010011001111001011111
11111111001101111111100100101000
11111110101101000000000010010101
11111110101000101000011100011000
11111110010100010001010000011100
11111101111110000101011110111010
11111110100011111111111001110100
11111110100110011101011101001110
11111110101111110010001101101100
11111110110101111000111100111010
11111110111100000101100111010001
11111111001010001011000001011101
11111111100011000101110000111011
11111111111011110001010110101100
00000000000011111110011111111110
00000000001111011001101100011001
00000000001100111010111001011101
11111111111001011011111000111100
11111111111111001110100110101010
00000000010000101100110111101010
00000000001101101101000000001000
00000000010110001001111111100101
00000000001000011001010101011011
00000000010101000001100100010011
11111111101001011101101110100011
11111111101111111000111011101101
11111111000000101001000111110101
11111111010010111110011101111010
11111110111010000110001101000101
11111110101111110111010111101010
11111110100000111101000010100110
11111101111101011011101101001011
11111110010000100101000110110110
11111110101100100100100110101001
11111101110101001001010000011000
11111110000101011000110000101011
11111110011011101000011101110001
11111110001001000110110000111011
11111111001100100011010000010111
11111111100110111011100000111001
11111111011101100110011111000011
00000000001010001101110100100110
00000000010110010011010101001110
00000000001010101010100010101101
00000000010001011001010111010011
00000000010111101011111100110101
00000000011011000111011111100101
00000000000110110100110100000110
00000000011001000010001011111001
11111111010001111011101001010100
11111111100110100111000011000011
11111111001111101001010010000011
11111111001011011001001101000100
11111111011011111101011101100101
11111110001111111011110010010101
11111111010100011110101100100011
11111111000111001000100011000011
11111110011001101000101100110111
11111110101100110010011110100000
11111110011001111110011111000010
11111110101011110111111100001101
11111111000011011110100000010111
11111110110100101100000111010011
11111110001100001101111111001011
11111110001011000011101010111100
11111110010010000111111111000111
11111110110011101011101100110011
11111110110101100010101010010001
11111111011010101101010111010111
11111111011111000111111110011001
11111111100100010001101110011100
11111111111110100101111010001110
00000000010101100011110010000101
11111111110111001110011010010001
00000000000101100111110010101101
00000000001110100110101100001010
11111111111101110011011100111101
11111111111011011110110010000110
11111111011000100010101001010000
00000000001111111011001001011101
11111111010110010010011001101101
11111111000101110110011001010001
11111111001010010111111001100001
11111110011011001100100111001110
11111110010011000100001110001000
11111111011001001101100010001011
11111110111010011010101010000111
11111111100111111001111011101110
11111111111100111011101000110111
11111111100110000110110010111010
11111110110001010110110100011000
11111110100011001100110010011100
11111110100101001100111100011111
11111110011110001100011100101010
11111110110111010110110001111101
11111110010010101111000111001001
11111111100111010011101101101001
00000000010010010110011111110111
11111111111010011001000000111010
11111111111100101001101101100110
00000000010000101001100011010001
00000000000000001101100100100110
11111111110000110010010000110100
11111111110000010110010101011001
11111111110011001101110001011000
00000000001111101100000111111000
00000000001001101011100011101000
00000000000100010111101110111010
00000000000000101110110011000101
11111110101001100110101010110111
11111110101001101010101000100001
11111111001001010101010101111111
11111111110101110000111010110101
11111111100101000000110101000010
11111111001101010100010010101111
11111111111001100001111100100011
11111111011010011000000100110000
11111110101100001110110010100110
11111101111011101010011100100100
11111110010111000101110011111101
11111110000110100111110010100100
11111101110111001110010110000110
11111111000110101100010000001010
11111111001111100001101110101010
11111110111100110011011010000010
11111111110100001111100111100111
11111111101100011100111010101001
00000000000111101010101110001011
11111111100010010111111001101101
00000000010011001110110011111000
00000000110111101111110000001110
11111111011101100100001000101100
00000000011011011000001100010111
11111111111011101011001001000110
11111111100100001101010000010010
11111111110011000001000111011001
11111111001011001110011111011100
11111111000010000100001011110100
11111111011100010010000001110001
11111111011111001001000111010011
11111111100110111011000001011110
11111111100100111101011111101011
00000000000000111111100111011000
00000000000111111000000000001111
11111110111000110001100101111110
11111111000011101110100011010010
11111110001001010010011101111000
11111101001000101110000111110101
11111101011010011010000000010000
11111101111100011001100011101110
11111110101110110000001100001011
11111111101110000100100110100110
00000000001101111100010010110111
11111111111101100111110010101001
00000000000001100111111011011000
00000000000011001111111100101111
00000000001101100110101101001101
11111111110011000011110110100001
11111111101101001010000011100011
11111111110101111110111001000111
11111111011110101010101001110000
00000000000010001100011010100110
11111111100111001000000001010100
11111111110111001001011110010011
11111111001011101001100000010100
11111111100101010111100011101110
11111111100101000100111100100010
11111111101010110011110111111100
00000000000011110111011110111111
00000000000101011110001100101010
11111111110010000100100000011011
11111111100011011101001010100110
11111110111101111010010111001010
11111110101011011001110110011001
11111110010100101111111110100001
11111101101000010001011010001110
11111101101010000010011101100011
11111110100100111110011011001110
11111111100101111110100011110111
00000000001110010011110101000010
00000000010110110000010111101101
11111111101011100000110001010110
00000000101001011010011000101010
11111111111011011000011101101011
11111111100100101010000001001001
00000000001001000011101010000110
11111111010011110010101101111100
11111111110100111000111110110101
11111111110111111000000010000111
00000000010000010011010110000101
11111111011101100101110001000110
11111111100101110111001000100000
11111111011010010011100001000101
11111111001011000110010111001100
11111111100111011111010101111100
00000000000110110101111011010000
11111111111100101101101000011110
11111111100011011000001000010001
11111111000110001000100000100110
11111111010100011001011001101010
11111110011010000001111101101010
11111110011110100100110000101111
11111101111101010001001011101111
11111101110001101000101100110101
11111110111101111100001101011111
11111111011101111110011110101000
00000000001101001101111100001010
00000000011000011101100001110111
00000000110000110100011010101101
00000000001010000011101101000110
00000000010011001101001011010101
11111111111101101100000001110110
00000000000000101100000100100110
11111111100001010111001110010110
11111111010111000100010001110100
00000000011010001110101011010011
00000000010110101011001100111001
00000000000100111100001010100011
00000000001010010100110101011010
11111111110100100011000111101101
11111111001111100101010110010010
11111111010010111110101010100111
11111111101101011100111000111111
00000000010011001010100101100010
11111111111000100000000111010010
11111111001011000010010011011001
11111110101101110000001011110010
11111110101000000100100001100110
11111110110011011011000111011010
11111110001011100011101000110111
11111101111000110110001110100000
11111110011010001101010001111110
11111111000001010101100001011111
11111111100000100110001010111000
00000000011101000010001001100001
00000000010100110011010001001011
00000000000101111110111111100001
00000000000111100111010110010111
00000000011010110000111010111010
11111111100011001100110100000001
11111111111110000000111001101000
00000000010110010111010000111110
00000000000001000101011001111000
11111111111011010000101110010110
00000000000111011000110101000010
11111111111010100110001101000010
00000000010011101011000001100011
11111111101000011111011000101011
11111111010100011000110011011110
11111111110101010010000111001010
11111111110001010110110011010001
11111111110110111100001101110001
11111111011010100110010010001011
11111111000001011111010001000100
11111110100101110001110101101011
11111110011101010101111010100100
11111110011010011110111101000000
11111101101010111010011110101011
11111101010011010100011001100110
11111101100000111111010111010111
11111110100101100110100001000001
11111111010000101111100101101110
00000000010011011100101111110010
00000000010011000111001010111111
00000000010011011110110010101011
00000000100111011010010000111010
11111111110111010011000001011000
11111111111001100111111111111010
11111111110000000100100010001110
11111111111011100000010011101110
11111111110010000110001010100000
11111111100110110110110011111000
00000000000110100000011101110110
00000000000000111001111011111110
11111111101110101100101010101011
11111111101111110111111000100100
00000000001000111010101111111101
00000000000011010000000010101111
11111111100110010010000010000110
11111111111000111110001000010111
11111111101101001100000001101100
11111111000101100100001010111000
11111110101101010111110100010000
11111110100110111011110011101100
11111110011111011100001000011011
11111101110001111101111010111000
11111101010100001100111001010011
11111101110110111011101100010111
11111110100110000010000001100110
11111111101011000011000110110100
11111111111010101111100100011101
00000000111101011001000100101101
00000000100110101001001100001111
00000000001001110000010001111110
00000000000011010011101111100011
00000000001011010111000011111001
00000000000101010110000111000110
00000000001000110110000110110111
11111111100111110000101100000001
11111111111010011000010111000011
11111111110001010101100110110100
00000000001101110100111100001011
00000000001010100000010100111110
00000000001100101110000001001000
00000000010011001010001110011101
11111111111011100010100000110110
11111111101001011110100100101100
00000000001000110011101001011110
11111111111000100010001011101010
11111110111001000100000001110010
11111111000000100011101001101101
11111110110000011100101110101001
11111110001001111110101001010110
11111101011101100101101010000010
11111101101000000001111001001011
11111110100001110111110100110100
11111110111110000111000001001000
00000000000011011110100101000011
00000000011100000011000010011011
00000000110001101100001101011110
11111111110100110000011110010101
00000000000001110011010101010001
00000000000001001101010001101000
11111111101001000010001100100101
00000000010111000111010100011011
11111111111111010000110010111010
11111111110100000011100110111010
00000000001100011010001001111010
11111111100011010100100001010111
00000000100000010001010011011110
11111111011010001101111101010011
00000000001000001001011001111110
00000000001100100001001100011110
00000000001001001000000110011100
00000000001100111010100000000000
11111111111110110101111110111111
00000000001010111001001111001011
00000000011011001000000111111110
00000000000100001111111000111000
11111111101101000101001000010101
11111111001010100011011001001100
11111110110011100001011101100010
11111110111100001010011010110110
11111111110001011001001011111100
11111111100001110101011001100110
11111111110100111011010100001110
00000000000000100100001011100011
11111111111100100010001111010110
11111111110011100000001110011100
11111111110000100000000011001100
11111111111110101100111000000010
11111111100100010010101101111000
11111111101111111101011111101000
00000000011110010000111010010001
11111111110111110111110000001001
00000000000000010011101111101011
11111111111111111010100100010011
00000000010110100010010001000001
11111111001111001000000101100010
00000000001011011101001001011010
00000000011111100100111111000111
00000000000100010001001100000101
00000000100000100001111110010101
00000000011110000001110010011000
00000000101101011011111011110101
00000000011101010001101111011010
00000000010111011110101010011101
00000000001000110100110001100010
00000000011000110111111100001011
11111111010011101101100110100000
11111111101000100010011010111011
00000000000111001101000100100111
00000000001000101010101000111011
11111111100110110111110010001000
11111111101100101000010111101000
00000000001110010100000110010010
00000000010110000000101101001101
11111111110000001000111101011000
11111111110111001100011101111011
11111111010001111111011000001110
00000000100111000110011101100110
00000000101111000111101100001011
11111111100011101110011101100100
11111111111000010101110001101010
11111111101101001010001100100000
00000000011001011100111110100001
00000000000101110110100000111100
00000000000010000010101101110010
00000000001101111001001110000001
11111111011010111101101010110100
11111111110001101010100000011011
11111111101001100100100101010001
00000000000111111000111111110000
11111111100010110101010101001000
11111111111010000110000010111000
11111111100011100100100111101011
11111111101100011011110100101100
11111111000010001011101111010000
11111111010100100010110111100001
11111111100010011011000001010010
11111111010011101001000010011101
11111111110110010000100010101100
00000000000100010001101000001010
00000000000010010110010000100111
00000000011001010011000010000101
00000000010011001110001011110001
11111111110000101011110011001101
11111111111001000010110011111011
00000000010000111110010111101010
00000000000111111111001010111110
11111111110110101111011001000010
00000000000111111101001000100011
00000000010100011111000000010100
11111111101010100010110111111111
00000000000110010111101101000010
11111111101000110101001101111001
11111111011011001001111110011011
11111111111001100101100001110100
11111111011101000101000000100101
11111111010111100111011110001011
11111111000000010101101110110100
11111110101110011011111011011101
11111110100110100101110011011010
11111110110001010000000001011101
11111110101101110010001110011010
11111110100100010100000011110001
11111110111100101101101011100000
11111111010001001011010000011101
11111111110110001101011000110111
11111111110100011111000000010111
00000000001101000010011010011111
00000000000001100011010111010001
11111111110011010110101110010111
11111111111110001001010001101001
11111111101110010110001011001011
00000000010111101101111000011010
11111111111000101011000101111101
11111111111101110110010011010000
11111111101100100000011011100000
00000000001000011100110011101011
00000000000110010101111111010110
00000000000011011001100001001001
11111111111001110001010001110100
00000000010000001010001111010000
00000000010010101010101100101011
11111111010110110110001000101101
11111111100010000100010000000000
11111111001110111100000111101110
11111111000101011011011011011011
11111111011101100100010101111111
11111110001101000111110011001000
11111110111000010101111110011110
11111110100010011010101011011000
11111111010010000111111111010101
11111111001101101101000111011101
11111111010010010110100101111011
11111111100111110000110100000011
11111111101000100100010111001010
11111111111001001111001100010010
11111111111110101100010010100100
00000000000001011001000100110010
00000000011011100101100010101100
00000000001101111011000101000110
00000000000100111010001101101101
11111111111110101111000001100001
11111111111000011110010000100001
11111111100110110100110111010001
00000000001011101100001111000011
00000000100001000110110011101001
11111111110011110100111000010001
11111111110011111100111100011000
11111111101100010011001101001000
00000000000011011001100011011111
11111111110010111111000110001100
11111111110001011001110001010101
11111111011101100100000110100100
11111111010101111011001010000001
11111111001000110111100011110101
11111110011010010001010101001111
11111111100010011001000001100111
11111110011101000011010010110011
11111110110101000100100110110011
11111111001101110011111111010010
11111111111011100111011110110100
11111111001101111101011000110000
11111111010101111101100110001101
11111111101010001101001011100000
11111111010101001110101000111111
11111111110101001101000111101100
11111111110100111001101001100100
11111111100110111011001010110000
00000000010011101000101110011011
11111111111111100011111101010000
00000000101011001111010101111001
11111111110000101001100000001011
00000000010010100011010000100010
00000000011000000011010000101011
11111111111000110111001010101101
00000000011100111111000101111011
11111111111110111100010110101010
11111111011000010011111111101011
00000000010111011100011110011100
11111111111101111010110111010010
11111111100110100100011100101010
11111111100111111010100100000110
11111111100001101101110101001010
11111111110001110001000010111011
11111111000110001101100100111001
11111111101111101110100010101001
11111111100101100110000010110011
11111111100100111000001101000101
11111111011111000100110000110101
11111111110011110000101110100001
11111111100111101110000001001110
11111111111101001001101000011110
11111111111000100011111100101000
11111111111110101111100110100111
11111111101010011010011001010001
11111111011101101110111111110101
11111111101111101101101010001110
00000000000000011101111100001101
11111111011111100111011011101110
11111111110101001011010110100101
11111111101001101000111011110110
00000000001110011101101110111101
00000000000111011110101101011001
00000000001000000011111000100110
11111111111010000000000011101110
11111111111101100010011010100111
00000000000101011011011100110110
11111111100010110110100101101011
11111111001110000001111000110110
00000000010101000010011100001101
11111111111100110011000101011000
11111111111111101000101100110111
11111111011110110010011100011111
11111111100100000100010000010100
00000000010100011010101001000111
11111111100011100000010011110100
11111111111010110110010011000000
11111111111010011011000111000110
11111111111110111000010011111100
00000000000110010100011100011000
00000000011100001101110001010111
11111111011010110000010100100111
11111111110010011000010010101100
00000000010000111001011010111010
11111111111010100010100010010011
11111111100100101001101111101011
11111111111000111001111011011100
00000000000001110111001001111000
11111111110010101010111001011111
11111111010011101101010010010101
11111111101111010110110100101110
11111111111110001000110011001101
11111111101010000001110001000011
00000000011101111111110000011110
11111111101101010101100010110010
11111111110001101010110001110010
11111111011101110110101110011010
11111111100110010011110010000000
00000000011010110010100010111001
00000000000001000000010100110010
00000000011010101101000100111111
11111111111011000100001000000110
11111111100101010110010100111110
00000000000110101111011011100011
00000000100001001001011011011111
00000000100111011101000011111010
11111111111001100010101110101000
00000000001100010011000010011010
00000000011101000011111010010110
00000000000000111000001010011100
11111111101010100001001011101111
00000000010101010001001100111011
11111111110001011111101011111001
11111111101010101100110010101111
11111111101001010111001111111011
