11111111111001111000110101001010
00000010101101100001000000110000
11111110001011100010101001111010
11111101110110101011010111111000
11111111000100011110001110010101
11111111011010000100101001110110
11111110110110110011011011001010
11111101111100001100010110111100
11111101111101001001100001111100
00000001010010111010010011110110
11111001111110011110001100010010
00000010001111000110010100000110
11111110101110001111011010110101
11111101001100000000100100110111
11111111100001001100100011100100
11111110001111100001101110100011
00000001000001100100101011100001
00000011011100001100000101101110
00000000000101100101000100111100
11111111101001100100011101001001
11111100000100011001111011110001
00000000001010010011101010101110
00000000111100111110011111110101
00000010100111111110111111101111
11111101011111111010011011010010
11111110110001010010100010110001
00000001001111110100110001010101
00000001001011111000001101101000
11111100001000011110010110101001
00000001100001011101010101101110
