11110101010111010011101011011110
00000010111000111000011001001011
11101000110110000101010100001100
11101111010001010111000111110110
11100010111001111100110101010001
00001001101110001010011111011101
11101011101100001011111111001111
11111100001010110010010101010000
11100100110001001100011101010111
11101111111110011101011111011011
11111011011001100001100100101000
11111101000101001001110010000110
11100100100101100100011011011001
00000110000101010111100111011000
11111001111011101100110110011010
