11100001110010001001010010110001
11110110110101101100100011111010
11011000101000111001000000100101
11111001011011011101101101101110
11100000100111111110110000010101
11111010101000010011100011111000
11010111111101110000101000001000
11110110111001100001100110100100
11011111100111011101111101111001
11100010100001001001100001001000
11110111100101000000010111010100
00000001110110010010100010101011
11011100001101110001110010000101
11110010111111100111000100101000
11111000110110010111000011010101
