10111100000010001111001110000011
11110000010101100011001111000011
11100001110101011111011011000010
11111000001111000000000100100000
11111111000000101100010011011000
11111000101100001010101000010101
11100101000100101111101110011100
11111110001110100001110001010010
00001000101001000010111100101110
11001110010010000101100011001111
11101110000111100101011011001000
11011101101100000010010111111011
11101111110011010111110101111000
11011000000011100010010111011101
11001010001100010001001111100111
