11110010010111100100110010100011
00000010111011111011001100011110
00000000110100110010101100101100
11111110011110100000101010111011
00001001011001101000110101111011
00000100000011001110000001100110
00000110011111010110000100101010
11110000111010100001100111101000
11101110010111001001110011100110
11101010100011111101001110110010
00000101100010001001111000000001
11111001100111000101011000100111
00000010111011011110011011100011
00000111100001000000000111110001
00001011011100001101101010101001
00001100110111110011000001101101
00000010001111011111000101101000
00000110011111000100110000110011
00000100100011010110011011100101
00000000101000011000110110010110
00001111111111111100000010001100
11111100001011101000100101111000
11110110111001111010100001100000
00000110000001011000001100100000
11110100111010001101110000010110
11111010101110001001010010101101
11110001001011001100101000001001
00010000110101011101100001101010
11110101010010100001000011011000
11111000111001010100101000110110
