11011010001111111000100100010110
11111100010110001110110000110101
11100101001010001100000111010011
11111001001011001011011001011101
11011101000110010101101111101111
00100110101001110000001100101110
11111101000011101010001011111000
11100101100101000000100101101101
11110110101011010100101110101100
11110010100000100111101010101111
11011111101111001011000001110000
11011101111110001000100111101011
00000110000001100011000010100010
11101101100110010110111111010110
00010001001111001001100001000101
11110110111000010001101110101100
11111001011001001001101101110001
00000110101001011101110000010011
00001111111100011101100110000011
11011111111000101100010101110110
11110010110110000001101011010111
00100000011010011001000010110111
11110101110001100101000110000101
00000101101110001110001001011101
00000110011100100111110110010001
11111100000000001000110000111001
00000100111010010100100001011111
11101111110001010110111101000111
11111010011010100100000101111001
00101110110101100111110111011011
