00000000010011011001001101100011
00000011101000010111111110011011
11111111011000101010101000110001
11111101010010101000101101001101
11111111101011111100100000000101
00000001000011110101010111101011
00000001001110000100110001001010
11111110000011100111001010000010
11111101011110110010101000110010
11111110000100001110011010011100
11111100001010100010010100010000
11111111110010000101110011000101
00000001100100000010000011110101
11111111110100111010000110100111
11111011111100001011001110001001
11111101000000100000111001010011
00000010101111101110111101010101
11111100011110000101101111110111
11111110010000100110000001010011
11111110001101011011011111110111
00000000000000000100100100111001
11111010111100001101010101111000
00000001111011001010000111001010
11111110110110100111101000111001
00000101010110111100111110100110
00000000000011011011010011100100
11111100111000001011000010010001
11111110001111110011010001111110
00000001000011111011110011001000
11111101010000001000101011000001
