00000101010100100010011111110100
00000110001011100010111100100000
00010010100100101011001111100101
00000110001001011001001100000110
00010100001001101011011011111111
00000111011111110011100111000010
00000101010100010111000011010100
00000000100111111001110100111011
00001000100011000010010011101011
00001011001101000000111111001110
11111111110001010010000100100101
00001100001100011000010010001101
00001101000101110110111001000100
00000010001001011000101111111010
00000100010101101100011110001101
00001001111010100001111100111100
00000101100010000110001010110100
00000101000111010010111000000110
11111101111010011010001001100100
00000101100001001010001000011010
