00000000011000011101110000010101
00000000111111111010110001101111
11111111110110001111101111011110
00000000001111000000010110111000
00000000001101011010010101111011
11111111000100001101010111111011
11111111010011010100011110010100
11111111111011001000110010101101
11111111111101000010011101011100
00000000011001011111110100101100
00000000100000110111011010101001
11111111111001111011010000110001
11111111110010010110000011000011
11111111101100000110000010101101
00000000001000010101010010000111
00000001010000110101100101100010
11111111001101010010100000100100
11111111101100100010011010000111
00000000011100100111101111111100
00000000100110010001110000010011
00000000000010111010010111011001
00000000100010010100110101110011
11111111101110100111101000110001
00000000000001111000001001011100
00000000001110100111001000011011
00000000101011000111101010010000
00000000111010101100110100110111
11111111011011111010010111011100
11111111011111100110101011011000
11111111100111111010011011101000
00000000100001000100101011110100
11111111110000100101100011110000
11111111110011010000110000111100
00000000010010001010001001000101
00000000101000011100101000010111
11111110001110011000000101110110
00000000101100111110011011110101
11111111111100011011100000011100
11111111101010110110111010100011
00000000011001111101001110000111
11111111111000110100111100011001
00000000000110111000010000011111
11111111111101001111101000001101
00000000010000001110010010011110
00000000010100010111001101110111
00000000001011101011000000000100
00000000001011100111110101101011
11111111100001001011000111010011
00000000001111101010111111010111
11111111110101000010100100011010
00000000110010101111110010001010
00000000110111110000011000110010
11111111101100110100111001000011
11111111001101111011010010101011
11111111101011001000101100100111
00000000101101110000001110100010
11111111011010011010010001010011
00000000000010101000010011110001
11111111001101111011011010011111
11111110110110001000101010101001
00000000010010110001000010010001
11111111010011001110011111110101
11111111111010010001111011001111
11111111110000010011000001011001
11111111111110011000000111101010
00000001100111011001011001000101
11111110101100001100110010001001
11111111001100001011110000101000
11111111110010100000010001100100
11111111010100000100010010100111
11111111100010110100111001010001
00000000110100001110001001001000
11111111111010010000110000111000
11111111101100111110011101101010
00000000001101000110111111100001
11111111100000011010100111010000
00000000111110001000001110111110
00000000000110111010010001100011
00000001000111010111000000111010
00000000001001011001111101100101
00000000100000101101110011011101
00000000100000110111101001111100
11111111110010000101100100010101
00000000001010010011011101000010
00000000000000110111100110010110
11111111101000001101010101001011
11111111101011111011100001011011
11111111101011011111001101000010
11111111101100110010011100010111
11111111001111000000000101001010
11111111010111011011100011001100
00000000110010100001001110001010
11111111100110100001010000101010
11111111001110000011110001011111
00000001001010111111100011011111
00000000000111101000100110010010
11111111100011101111111100011010
00000000010100111100101000011111
11111111111001001000100101100011
11111111001001010001011000110101
00000000000100011100011110110110
11111111110011001111010001001011
00000000010011101111111110010001
00000000000000101000110110100110
11111111011000110001000100010101
00000000011011111000100100011101
11111111111101101001001001011101
00000000100111101011100110110010
11111111111001100011000110100000
11111111110101101110010111010000
11111110111100010000011011001011
00000000000100011000000101111111
11111111111110000101010100111110
00000000111000100110111100111101
11111111111100011011101110011011
00000000000110001000010101011100
00000000001101101111011010101111
11111111010000010100111101111101
00000000001011101010000010100101
11111111111001100110000100111101
00000000111011001110100011010101
11111111111101001101011110001100
00000000000101010110011000010111
00000000100111001110001000010010
00000000000011100111111011001111
00000000011010100101101101101101
11111110110011011011011001010110
11111111001111100011100010011010
00000000011111101000100011110001
11111111101101110010001101011110
11111111011011000011010110011100
00000000010010001011001011100011
11111111100111110101010010110100
11111111100010111100110010111100
11111111110000100010010110011001
11111111110011111000100111110100
00000000010101101111110000001100
11111111111100010001011011110010
00000000001110111011111111101111
00000000000100010011011000110010
11111110111100110010011110111110
00000000110110111011110110111011
11111111110100100110100101010111
00000000000100001100110010111110
11111111101100110110011111110101
11111111101100101101000001100001
00000000110001011110101011011110
11111111010101011110101100000110
00000000001111100111100110101100
11111111011000011111110101101100
00000000001101010011110011001000
00000000111010011001110001000000
00000000111001000010011011100101
00000000101010001000011000000010
00000000111110101000101011100001
00000000001111001001101110011101
00000000000000000111100010110000
11111111101111110110001100010000
11111111000111011001101010000011
11111111011011000000011000011100
11111111100111101101101110000100
11111111111000001100101010000111
11111111111111111100110101001010
00000000000010111111010100011111
00000000001110001011101011110111
00000000010111101000100010100011
00000000100110010101100011000010
00000000101010100011100001000001
11111111101111001011101101111101
00000000111100100101111111101110
11111111110011011101100000111010
11111111100111011100010011110111
00000000100110001000011001100010
11111111111101101110110011100011
00000000110110011101000010010110
00000000111111111110110110111011
11111111101001011000001110100001
00000000010100111100111010111000
00000000001101011001000110111111
11111111111100010000101000001101
00000000000100101001101100010100
00000000000000111000110101111111
00000000000001111110000001011000
11111110111001101101000111000110
00000000011001110010110011000111
00000000011001011000010110010101
00000000100110000010110010010010
00000000001001000001011110010001
11111111001001111010100110101010
11111111100000000101110001011000
00000000100110110111011101110010
00000000010001111000110100010000
00000000011001100010001111100011
11111111111101101111101000000100
00000000001000011101110100111011
11111111011101101101011000010101
11111111111001001011110001011100
00000000110100010111000010001101
00000000011001011100111111000110
00000000011011100110010110111100
00000000010101010111100111100010
00000000100111010001011101000100
11111111110000011100001100110000
11111111110110101111110001111001
00000000010000010001101111101111
00000001110010101101110011110100
11111111011001010010010000110110
11111111011001000001111100011111
11111111111110001101111000101010
11111111110111001111010001101001
11111111001010000111000100001110
00000000011010111100110010111011
11111111000100000111011101111011
00000000011010110010101000010101
00000000101100100100110000011100
00000000000100001110000011001100
11111111101001101111010011011011
00000000001001001101011101010001
11111111101000001001000010001010
00000000000010001000110000011001
00000000110101001001111101111101
00000000001000011000100001000010
11111111011010011100010000110010
00000001010101101010110101000000
00000000011100000001110000101000
00000000011010101001000011100001
11111111111111001110000110011011
11111111101010011111110101000100
11111111101101010111101010101101
00000000011000101110111010110010
11111111100111110001111100000111
00000000010001010000110011111001
00000000011110000111011111110111
00000000000101000001101110110000
11111111000110011111100110111101
00000000010000011001110110001110
11111111110000011011101000111000
00000000001010001100100111101000
00000000001001101010010111110010
00000000000100001010001101100110
00000000111101001011101010000011
00000000001000111101000011100010
11111111000011100011100010111111
00000000010111001001111100010111
11111111001001111010110010111001
00000000010100111011100111001111
00000000001001001010011011101111
11111111010011111100100011000001
11111111101111010011111100100001
00000000000101110011110110111000
11111111101111010010111100000001
00000000110010100001100010111111
11111111110101011110001110110000
11111111110101101110001010101000
11111111000100101000001010100001
00000000000100110100011100110111
00000000010110110010110100111100
11111111101110101011001100011011
00000000000100100011000111001010
11111111110101101001000101001110
11111111010001011100111010100111
00000000101101010110110000011000
11111111011010111111001100000000
00000000101111101010010100011110
11111111111001100000011011100110
11111111011010101110100110111110
00000000110011100001101100111001
00000000000101100110010001101100
11111111101111111110111111111011
00000000100100100001111110110111
11111111011100001101010011010100
00000000110000100111000100101000
11111111011111001000111010001010
00000000100000111001100101000101
00000000010010100001010111000110
00000000011011011100010100101001
00000000101111110011110010110100
11111111010110010010111001101010
00000001000001001010100000101000
00000000001110100101100011100100
00000000000000011010101000100001
11111111110111100011000000100011
00000000001110000100100101110000
00000000100000011111101000011010
11111110110001111101011000101011
11111111000101110001010111011001
00000001010111000110110000011011
11111111111100001000110101010010
00000000001001110100011100010010
00000000001110010110101111110011
11111110011100101000111010011110
11111111011111011111111111010110
00000000101000110110101101101000
11111111111001110011011110010100
00000001001100010101101100110101
00000000000010100110100001001100
00000000101000001101110101110101
00000000001000010111111010000111
11111111011000100101000010001100
11111111011000010111000001110111
11111111101101101100101011011100
11111111001110110101001000101001
00000000000001000011100011010011
00000000000011100110011110100101
11111111100110011111000110111000
11111110110100101010110101101000
11111111101100110100111110101010
00000001010111110001100001100000
11111111100100111111010010010100
00000000101111000010101111010110
11111111110101101000001110111000
00000000011110001000101000011001
00000000000010100010110001110110
00000000101111110111011011011111
11111111000010100101110011010000
11111111101111010100010100111110
00000000100110111001100001110111
11111111010110100101110000001010
00000000011000100100110000011111
11111111110100001101010000111101
00000000111010100010101100000100
11111111100111100010100001100110
11111111111100011100111011100101
11111111000111001001101100001101
00000000101110001011100000101010
11111111100000010010101000101101
00000000111100110001101101010110
00000000100010011001110000000011
00000000000110001000101011101111
00000000100110011000111100111000
11111111001100010011110001011001
11111111010100100011100011011001
11111111111100101101011100100101
00000001100000001101101001101011
00000000110011001111001001111000
00000000101011101101011101001111
11111111011101101101111000011000
11111111110100110101111111100010
11111111101010010011111111111100
00000000100000000010011010011010
00000000001111111100011010000011
11111111001110001001011001101001
00000000010100010100110101100000
11111111000101000100011101000000
11111111010100000111101001101010
11111111101001001111111000111111
00000000001110111011110100000000
11111111011110010111111100010110
11111111000011001101101110011110
00000000010101001100010111100011
11111111101101100010011000101111
00000001000100101011010000000100
00000000101011011101111110001011
00000000000111100111110011101101
00000001010000001000000011000110
00000000000010011100111011111110
00000001000100111011010111110101
11111111010100011101001000000100
00000000110101000010010000111000
00000000000001100010000000011010
00000000100100001001100000111100
11111111110000111101010010111111
11111111010011001001010110111101
00000000100010001101001110010001
00000000101001000111000110100001
00000000001011110101110001111101
00000000110000011100101010110000
00000000001000100011011010001010
00000000100111100110110010011000
11111111111100010110000110111011
11111111100111100111010101111010
11111111101101011110100010101101
11111111110111111110100100000011
00000000110011000010011011010010
11111111101001000001010100111001
00000000011110110111001000011110
00000000000010011010110101101100
11111111011011110101101000110100
11111111011111010001000101011010
11111111111010011011011101000101
11111110010001011101011110010101
00000000000011110011010001010100
11111111010100110011111011100111
00000000001010111011101000011101
00000000011110001110101000010111
00000001011000110111010110011110
00000000000110111010001111001000
00000000101101000100011001101110
00000000000011010001011101100101
00000000000001001100111000111001
11111111000001010011000011110000
00000000010001000011100110101100
11111111110110000110001101000010
00000000010011010111001000111010
00000000000001001111111010000101
11111111111011000110010111100110
00000000001111101110010100011110
00000000001100011100000001000011
00000000001101010100010011111111
11111110111001010011011000010010
11111111100110001010100101011000
00000000110111100011010111111011
11111111110010111101101000111011
00000000010011100001011010110111
00000000000101110100000010101110
00000000100010101110010010110100
11111111110011100110000111001001
11111111110111000001000111110101
00000000010010101010111000000001
00000000010110000110011101001101
00000000010100000011000100100011
11111111111100110101010010100101
00000000001100100111101101100110
00000000001001100011001000011100
00000000001000100100011011000111
00000000001011010011000011010011
00000000000000110010010000011100
00000000100110011011001001100110
00000000101100100011001010101111
11111111001111100010010100100101
11111111100111010000011101110011
11111111000101000010111111110011
00000001000000011100101001100111
00000000011100010100011101010000
11111111111000011111010111100101
00000000011000000110101110111110
00000000010100101111001111011101
11111111110011000111010110110001
11111110111001100101111111101101
11111111110011100010101101010010
00000000000001110110111110011011
00000000011101010010110100110001
00000000001100000100111101000101
11111111101001000110010101110101
11111111111100111100010010001110
11111111111011100011111110111001
11111111011101011101111000010100
11111111111100110100110001111100
00000000011011100101110001011111
11111111010100110110001111101000
00000000100100101011111010011101
11111111001011001101011101000100
11111111110011000000011111001001
11111111110001101110100011011001
11111111010011110101001101000111
00000000011110010101000011010100
11111111110110101100010010100001
11111111010000110011111011001101
11111111010101111101010010001100
11111111001010100111000110001011
00000000101001011101010100011111
11111111011010001001101100011000
00000000000101001000110011011110
11111111111100010111110010111010
11111111111001101101010010000100
00000000100000110111001010011011
00000000001110011010010010010101
11111111101110000100110011100101
00000001000010110100000001100111
00000000011011001010100001000010
00000001001111001010010010011011
00000000000100001000101111011001
11111111011011110011010010110000
00000001000101110000101010001000
00000000000100011011001010000010
11111111111101010000100110101010
11111110110111011011011101001000
11111111101101100110011100001110
11111111110100101011111001000011
00000001000011110101011000101110
00000000011000110001100011001011
00000000011101101011111011000010
11111111101010011110101111011001
00000000100100110110101110100111
00000000000010110011101001000110
00000000001101110010110001001001
11111111111111011110000110000000
00000000010010011101011110010111
11111111100110110110100010111001
11111111111110111001110000111011
00000000110110010100110111101101
00000000100000010000010011011111
00000000100011000100101101010011
00000000010111011010100000111010
00000000000010101010100001010101
00000000110110011000001001111100
00000000100011011111100100101110
11111111000100101000110101110100
00000000110011011011011011110101
11111111111111101011110110000101
00000000011100000000001011001001
11111111101000000110001000000111
11111111100101110111010001101010
00000000001110011000001001100110
00000000100101110001010001000110
00000000001010011000101011111100
00000000010110111010100111001101
11111111100000100101101000001110
00000000001000011110001111110011
11111111101011101110010100110101
11111111001110111000100000110011
00000000001100000100111011010010
00000000011011001111000001000110
00000000100000100111001101101011
00000000101101100101001110110110
00000000000101100001101001000000
00000000010000100101100111101001
00000000101101011011001000010010
00000000110110010010111100101110
00000000110010010100000110010110
11111111111010100010011000110001
11111110111100001111001001110001
00000000001001101001011001001001
00000000110100011001011000001100
11111110110000000100101010111010
00000000101100010000111100000010
00000000111111010111011010101100
11111111100111010101110001001101
00000000010100001010101000010100
00000000011000100101001100111001
11111111111100110101101001010000
00000000000100010111101111101000
11111111101111100110001001011001
11111111011101101101111000011110
11111111010000011100001000100010
00000000111101000000001010110001
00000000011011110001011100000100
00000000011101000010110001111100
11111111100110100001000011010001
00000000000111111110100000010011
11111111101001010000011011111010
11111111110001111001001101101001
11111111000111000010101010000011
00000000111010111001111001010001
11111111011101010100010111010011
11111110111011111100110010111010
00000000010010000010001110100110
00000000001011011111010110100001
00000001001000111011011001001100
00000000011000100100110111110000
00000000000111000000000010110000
00000000110101000010111010110101
11111111110001111001000011000111
11111111101111100000000110110001
00000000011001101111111010111101
00000000001001111110100010111011
00000001000101110001100000000111
11111111111110101100011110001110
11111111100101101100011101110100
00000000100100110100010101011011
11111111010101110100011110111110
00000000100100000110101011101011
00000000101000010111110010000011
00000000010010010011101110110001
11111111011111101000000111100001
11111111110110011010011011001111
00000001000011100101001010001101
11111111100001100111010000011110
00000000101100001010110001110101
11111111100110110111100001101010
11111111010100000011000111011001
00000001000001101110101110000100
11111111011011001110001001001100
11111111100000111111111011001101
00000000000100001110101101000010
11111111110110110001000010010100
11111111100110010100000110110000
11111111100100001101010110011011
00000000110110101011111101011001
00000000100001000101110000111000
00000000001010010011001111000000
11111111011110010111101100010110
00000000010101010100011111001011
11111111001010001101010110111000
00000000011001011110100100011110
11111111110011110101101000001000
00000000101100110000111111111110
00000000000010011011000101011101
00000001000111111101000010111001
11111111101100000100011111000111
11111111011101110110111110001100
11111111101100011010000010000101
11111110101011100000010110110001
00000001001010101110110001010010
11111111110001111111001110101001
00000000010111001111000100100111
00000000100000110000010011100100
00000000110101111100111000001001
11111110111110110110000001001101
11111111010010010011010100110011
00000001001110100011001100101011
11111111000111111110011110000111
11111111101101001010101010101011
11111111000110110110110010011010
11111111010111000110011100110010
00000000100011100111001001110011
11111111110100110000111101011101
11111111111101011100011000001101
00000000100101001111001010011110
00000000010000001100110111000101
00000000010000000001110000010001
11111111110110110110110111000110
00000000110011111001111011111010
11111110101101111111100000011010
11111111010000101000001001000011
00000000110100100011101111010000
00000000000101100010000101000010
11111111111010100000010111011001
00000000000011011001010110100010
11111111110000101111000101011011
00000000110101100010001101000011
00000000011011111000011101110100
11111111110100110001101110110010
00000000110011001011100010000111
11111111111011000101011001110001
11111111011100011110000110100001
11111111110110101010000010101001
00000000001100100110011000101011
11111111110011111000100100110100
11111111010010011010100000000100
00000000000101001100110101001010
11111111100000110111100111000110
00000000000110111111110000110101
00000000000101110000110100010101
11111111111000110100000101011011
00000000011001011001100011000100
11111111110101101001100100100101
11111111111111011001101001000100
00000000011001010101010010011001
11111110110100010001010100110010
00000000101011011110010110000110
11111111010010100001001110101001
11111111000000000000010001111010
11111111110010011101010011110011
00000000001100010101111101001101
00000000011001111000001111000000
00000000001000000110001101001110
11111111100101101111010100100111
00000001000100000001001001000000
11111111110010011000000101010001
00000000100111000001001101111010
00000001001001001100010100001100
11111111101011010111000000101111
11111111111010101001011000010111
11111111101101010000111110010001
00000000100111011100100010010101
00000001000100001010011010010110
11111111010000101101100011001110
00000000001001000000111010011000
11111111011111010011100101001010
00000001000101011110011010100000
00000000101011100011100011111110
00000000001000010010100100101111
00000000000010001011011010101000
00000000100100110100110001111110
00000000111001000111111011101010
11111111101001100011101010111110
00000000001110001100100100010000
11111111101110001001100010001111
11111111011000100000111110100011
00000000000001101111011001101001
11111111011001000011011101110110
00000000110000101100011110010101
11111111001100010010010010001101
00000000100111100111101101000100
11111111010011110000010100011110
11111111010111101010011101101110
11111111111011001101100100100011
00000000010111111101000010101010
00000000000101101001001100100100
11111111110101111110110001100001
00000000111011110111001111111011
11111111101001010110110110000110
11111111110111101000011111000111
00000000000001010001001000011101
11111111101000010111100101100110
11111111011010010100101110110001
11111111110111001111100100100101
00000000000110011011000111101010
00000000001101101100101111100110
00000000001000001011100011110001
00000000100001010110110011010101
00000000000101011010100011111010
11111111101001001110111011011111
11111111100111010010001001100101
00000000001001010011011010000111
00000000010110000001101000010011
00000001101001010011110011101001
11111111001001010000111001110101
00000000101111010011110100100100
11111111110001000000011001100011
00000000110011010101011100111001
00000000001101111110011110110110
11111111101101100100111101101010
11111111000010010110001111111110
00000000000101000100001100010001
00000000010111000111110111001111
00000000001011000010111011100110
11111111101011111110110110111111
11111111111110011111110111110010
11111111011100101011100000101110
00000000101011101111000001111010
00000000110001001001100111100110
11111111101001101001101111000010
00000001010111001001101100001011
11111111101011110011011011101110
00000000100001001001000001111001
11111111100010000110100010100111
00000000101010010011011111010101
00000001001001100010101100101111
11111111110001010000110111111011
11111111000000001100010111101001
00000000000000100001011000100011
00000000011001000010001110011111
11111111111001100001111001000001
00000000011010100011110010000101
11111111111100110011110010000110
11111111110001110100100011100011
00000000101111111100111010111100
00000000111010110101101010100111
00000000011001101110110010110011
11111111111111000100100000000000
11111111111100111000001000101001
00000000011101011001011100010001
11111111101001100010000111010010
00000000100000110011011001000011
00000000100011010000001010000010
00000001000000100011010010011011
11111110010110100001000110001110
00000000000100000001011110001100
00000000011111001001110100111010
00000000010010001010000000000111
11111110101100101011100101101000
11111111001011101000010011111101
11111111100100110000110100111100
00000000000011100111110101110111
00000000100110101100101110011111
00000000010111101001001000011110
00000000110000100111110011011011
00000001000110100011110010111110
11111111010010010100110011100110
00000000000000100110001111110000
11111111000100101100111100010101
11111111111100001101110111000110
00000000001110100010111111101010
00000000100001101000101110010110
00000000010100000110010111101001
11111111011010010111101000000000
00000000011110011000111001110010
00000000011101101000001001110000
00000000000011110101101110000100
11111111001011111010100010010000
11111111000010010011000111111010
00000000010001001010110011111111
00000000011100100010001000100101
11111111010000110100001000010000
11111111101100111001101010100100
11111111100001110100010000111010
00000000100010000000001001010110
00000000000001110101001011011101
00000000100101011011001100011111
11111111100101101110101111101000
00000001001010100101100111011010
11111111111110101001111101000110
00000000100001001100010100001011
11111111111100010100100111110100
11111111011010100001010011111000
00000000001001011011001100011010
11111111001001111011001111101010
11111111110010111111000100010100
00000000110110000101100101110101
11111110111111011100001000100000
00000000100000100110000111000010
00000000011001010000100101000010
11111111100011011111011000110111
11111111100000011101110100111110
00000000011110111101111001100011
00000000010001011101001100000000
11111111010011001101011011100111
00000000100101101011011111101000
00000000100010110100010111011111
11111111110011100000110000011010
11111111100111010101111111010010
11111111101001110000001011101110
