11111111101000110010111011011111
11111111000001010101111011110000
00000000010001110010011101001110
11111111100011011100101011101111
11111111011011011000010100010011
00000000100111110110001100111111
00000000000110000100100000000001
11111110111111110010001111000010
00000000111010110111011110100111
11111111110111000010001100001101
11111111101111100000101001001000
11111111110001100100101101001011
00000000010100011010110010100010
11111111011101110110100010011010
11111111001001101101011000100100
00000001001100010001001110100011
00000000101111100001101101010111
11111111100010011010110001111111
11111111101001011111111111011101
11111111110111101100111111101011
11111111010011011001000111101010
11111111101110110000110010000111
11111111111100110101101100000000
00000000011110110011011000110111
11111111101100110001001010010111
11111111010100010111011010100001
11111111111110110010010000011000
00000000010110010110011000110101
11111111011110110100001001011101
00000000010001100001110100111010
00000000011101100110000011100000
00000000011101000101010100111101
00000000110001001100010001011010
11111111100001001001111001101111
00000000110110010101100100000110
11111111101100001010111101100010
00000000000101100010011000000000
00000000101101100111010111100000
00000000000110001000011110001100
11111111100100101101101100011110
11111111000110111010101010100111
00000000000110110010011001111111
00000000000011101010000000100100
00000000111111000100000011010011
00000000011000000110111100101001
00000000010000100011111000101100
00000000011100001010001000111010
11111111001111111111010011111111
00000000101011110010011101001111
11111111101010010010011100110000
00000000011010011000010111010001
00000000101111110010011100110000
11111111001100101010100010000000
11111111111111111100101110111101
00000000110010011111011111111101
11111111110000101000011010101111
00000000000100001111010100010110
11111110111001000010001011011010
00000000001001001101000001111001
11111111111001000000010001110010
11111111111000111100110100100110
11111111111001001110010000110001
00000000000011011011000011000011
11111111100111111100111010011010
00000001011010111011001001110111
11111111010111000001001101101111
00000000010110001001111111010000
00000000000000101011011001000011
11111111101110010111001011000010
00000000011111001111111110011011
00000000001011001001110011100110
11111111101111111000010000110111
11111111001101000000011011111111
00000000010101111000010101101000
11111111010010101010011010101001
11111111110110100110100111000111
00000000000110110110010100001000
11111111011100000011110110111001
00000001000011001000010101011111
11111111101111010001111101111010
00000000000111110010101101100110
00000000011010111001111000011101
00000000000000101001010111000001
11111111111010010011100001001110
11111111011100110000001100011100
11111111100110100011100000111110
00000000100111100010001110100000
00000000101100101111010111001001
11111111110010101001001010101110
11111111011110001010000110000100
00000000110010010000010111110100
00000000100010101101111101101001
00000000111010000001000000110010
00000000001001000011101111110111
00000000000010101011111011000110
00000000010111111101101010001011
11111111011010110100001101111100
00000000000010011101001101100011
11111111010101110110000111111100
00000001100111110100101111000110
00000000000101000001100010101001
11111111110101100100100000001001
00000000010100010100010011100011
00000000011110110111011101100110
00000000100101100101100011010111
11111111101000011011100100011010
00000000101010111111011010001011
11111110111100011101110110111110
11111110111110110011110111000100
00000000010111010111000111100110
00000000100011100111010110100101
11111111111110101100101011000011
11111111001001001100011011010110
00000000001101110010000101001110
00000000111000101000111010110111
11111111101011111001011110000111
11111111100100000000001001001000
00000000010000000110010111011111
11111111101100011000110010001000
00000000100100011010000001110001
11111111110100101000111110010101
11111110111100111001110000001111
11111111001110000110010000100100
00000000100001111011001101111101
11111111101110110111101100110001
11111111001111100011000011110101
11111111101000101010110001011111
00000000001111101011010001100101
00000000010111101111101100101110
11111111001000100110101111000000
11111111111011000001011010000111
00000000010000000111100111111110
11111111010000100011010000100111
00000001001101101001110001000010
11111111000110000011010101111000
11111111011101110011111110111010
00000000001000000110010110101110
00000000000110011111110111011110
11111111011010000001000100000001
11111111010100110100101111101100
00000000001100100101111011000111
00000000100111000110101011111001
11111111100110001010100111101101
11111111100100111010110010000100
11111111100110010000010001001111
00000000110000101101110001101010
00000000000001101010110000011001
00000000001101010101000110100100
11111110111111111110000101000001
11111111110100111101111000101100
00000000010100110101111100101101
11111111011000101000101100011100
00000000100011001011011111101000
11111111110001111101100011011111
11111111111000111101111100101110
00000000001110011011101010011111
11111111100100010100110000000000
11111110110010101111101100101001
11111111011000011110100101001110
11111111100010100001011010111101
00000000000111100100011100010101
00000000000111111011100111011101
11111111110111001010111011011010
11111111010010110000011000010010
11111111101111111001110101110111
00000000110110110010110011010111
11111111110110110110111111010111
00000000010000101000100001010001
00000000110001110001101011111010
00000000001000010010111001011010
11111111000010011000111001101100
00000000111000110011001000001000
11111111010110001001101000011000
11111111110001011101010101000100
11111111101000110110001110001111
11111111011100111001010000001011
00000000111000110100100010010101
11111111100111011101001000110000
00000000001101110001010110100000
00000000100011000011001101110110
11111111111110111101011000001110
11111111011100000101110000011101
00000000111010100101110001000110
00000000001010100101010000010000
11111111110100100111011110001111
00000000100010110000110100001101
00000000110011001000100011101001
11111111100000000111010010100010
00000001011101110001101100001101
00000000010010001111110110001101
00000000100100110001011101011001
00000000110000011000011111001000
00000000001000010101111110010011
00000000001001010100110000101010
11111111010111110101111101000011
00000000011100000011001110100111
00000000110010110000101011101100
00000000001010010101110011001111
00000000010100111010010000001000
00000000000000011101011010011100
00000000011000110100110000011110
00000000010011101011001001000110
11111111000111101110011110111011
11111111110101101101111110000100
11111111010101101001010000000110
11111111110100001001001011011110
11111110110110110110111010100001
11111111100001111011011000011110
11111111011010010010000011010101
00000000100010000110010110001001
00000000101101011111000001010011
11111111101110110000011111000011
00000000010111110000011110010110
00000000011110001000000000000011
11111111110001011100110101010111
11111111101101100011011011001100
00000001101101011100010001011000
11111111101010100000101101000001
00000001001000001101100011011101
00000000000100111010000100010100
00000000110011010110110100010000
11111111011001111101001000010000
11111111101001111010111111001010
11111111100000100000100111110000
11111110111101011000001111011110
00000001000010110110101101111101
00000000000101011011010100001111
11111111101110111011001111100001
11111111010101011110001000111001
00000000011000011100010100110101
00000000000110000100110000111010
11111111000001000011000010010010
00000000001000001001001110010001
11111111100110011111100100111111
00000000011100110101001101001101
00000000000101011111011010111101
11111111010100001011100101010011
00000000001011011101100010001011
00000000010110011010110010001011
00000000011001110100000101110010
00000000010110101110111001100001
00000000001110101110100001011011
00000000100001011110011111110110
11111111101101011010010010110011
11111111111111011100111000110111
00000000101010100010100101110100
11111111101101110111110111110110
11111111001000101000110010001110
11111111011010000110100110110111
11111110011000001101001011000101
00000000001101011101110101001000
00000000110100010001111000101010
00000000101001000000110010100111
00000000010111010100001100011101
00000000101001100010110000101101
00000000010011101111010011010110
11111111011001111001011100011001
00000001010011101010010111011010
11111111110111010111000000111101
11111111110010111111000010110100
11111110110100111011100111010000
00000000000011001111010111110110
00000000100001101011010000010001
11111111110011111100001110011110
11111111100110101010101110001000
11111111110011110101001011101011
11111111110000010101111000011000
00000000001001110101101000100001
11111111101011000011011100000000
11111111100001111101101001001011
11111111111011110010111000000101
11111111100111010000001011111011
00000000000010111111001001100110
00000000100001010000101011100110
11111111011010110001111010000111
00000001100000010111111011001001
11111111100101110010110001001110
00000000010100000000000101010101
00000000000010110000101011010101
00000001001000100001101101100110
11111111001111101101010100110011
00000000010111111110101111011010
00000001010000110010000000101110
00000000001001010101110010011001
11111110011111101100110011100111
11111111110011011100011001111000
00000000101000011111011100100111
11111111110011001011111110001100
00000000100100101101111110101001
11111111111110000101111100000000
11111111100110000010111010110010
00000000001111001101110000101010
11111111100001001000010101101101
11111111100011001101000111111011
00000000001101101010011101100000
00000000011000000010111011000000
00000000100010010110001000000011
11111111111110001000011000101101
00000001000011111110000010010001
00000000000101111010110110110011
00000000110011000100010011010011
11111111011100111000101010000100
00000000000010101110010101001110
00000001000101111111011110000110
00000000000001000000101101000001
11111111101111111011111110011001
00000000010100000111110000000011
00000001001010011110101101110110
00000000011000011000100011101111
11111111110011100001110110111110
00000000001000111110101011011100
11111111111011100001000000010011
00000000010100111011011000010011
00000000110100010100110010100110
11111111000000111101000110110100
00000000000011111011001010100001
11111111011101010010000010001010
00000000001001001011010101111011
11111111111110111010001010100111
00000000010111110001001101001000
11111111101010110001000111110101
11111111010000101001010011011100
00000000010000010101010100000110
00000000010000101011010011110000
00000001001010101101010010101010
11111110101001110101101011111011
11111111101101100010100100010010
00000000001110001110110010011100
11111111001011101110001101110011
00000000001110000101000100100010
00000000010100011101011101100000
00000000010110000000101101001011
11111111111100001001100000001011
00000000110101001101101010011110
00000000101110111100110000011100
00000000010111110010010011010100
11111111111110011011101011000110
11111110111111110111001110110011
00000000010111101101011001100111
11111111111100111001001010011010
11111111110100111100101001101111
11111111011001101010110101010110
00000000001100001001111101111001
00000000010111111010111101000000
00000000111101000110101101010101
11111110011011111100010010111001
11111111010100100100100001100111
11111111100010101100001011001111
00000000110100000001111111111110
00000000010010111010000011111010
00000000100000010100010111000011
11111111000010010110000001001101
11111111101101101101111111010000
00000000010100010011101010010000
11111111010100101100011110010111
00000000100100101110010011101110
00000000010110111110111101011110
11111111011100111101111000100011
11111111110011111001101001011100
00000000000110011101110110101010
00000000000010000100101011110110
11111111110110010100110101111001
11111111100010110100011110110010
00000000011000000110010100111100
11111111010010001011010101011000
00000000100010010101110001110101
00000000100100111010110101110110
11111110111100111010011100011000
00000000110011000010111010010111
11111111001000111000110111011101
11111111000100111110101010110101
00000000000111100000010110110010
11111110011111010000001000110010
11111111101101100011001111010110
00000000000010110010011101000111
11111111100010001010001011001111
00000000010011001110001000010010
11111111111100011011111100100111
11111111011011111110101000011010
11111111111001010111010001111110
00000000000010110101000010110001
11111111001100011010000001101010
00000000000111100010010111100100
00000000110111110100101011101100
00000000001111110111111011111110
00000001001100101101100000100001
00000000011001100100100011101010
00000000011110101101011101101101
00000000010010000001100010000001
11111111100001100000001000011100
11111111100001101101100001010000
00000000110100101111010010111101
00000000100101101010011011101101
11111111011101010110100010101110
00000000001111101011001000010001
11111111110011111011010110110000
11111111110110001000010010001001
11111111100010010110000011000001
11111111111111001001101100011011
00000001001110010111011101111001
11111111011001110010110101111100
00000000010000001010001101011110
11111111100010000000100010001110
00000000001101011101011110111111
00000000011101010010000111101110
00000000000100010100100110000000
00000000001011101111110111001100
11111111110111111111111110010101
00000000001100001010111101100110
11111110111110101110100001111001
00000000000001010010001100110010
11111111110000100011010011101000
00000000000111111100111110010001
11111111011110011001011001111011
00000000101101011111000100010100
11111111110101100010100000110111
00000000011001011110001110111010
11111111110101010100010011111111
11111111010110011011010011101001
00000000000110010101010000000000
11111111110110010001110000101011
00000001010100011110001111101000
11111111101111001011110101111000
00000001011001001000000111100001
00000001001001110101011011111100
11111111111011011001011011100010
11111111101101100010100010011101
11111111110101100101100100001110
00000000001110101101100101010010
00000000110001101101111111011011
11111111111010100000101111011010
00000000011010001010101011011100
00000000110000111111011110100000
00000000010011001110001101010101
11111111101110000100011010000001
11111111011111010011001000001001
00000000010100111000110010011111
11111111001101111011011000001010
00000000010011101011000000111100
00000000010101000000110011001000
11111111100110011100011101001001
11111111100111010110001010010000
11111111001100011001010101100011
11111111101100011011101011010111
11111111100111000001000010011110
00000000000001110011011101000100
00000000100010011011010000000001
11111111110111000111000011001010
00000000011000101001101111100110
11111111110101111100110000100100
00000000000001100110000001010111
00000000010011010100101110000011
00000000110101010100110011010010
11111111010001100001001001111100
11111111100110010000011010001011
00000000101010110111110110000100
00000000001111011000100101010111
11111111101110111001111101000000
11111111010101110011000101111010
00000000010000001011100110101000
00000000000100000100001000101000
00000000000110111000101001110101
11111111011111011111011101110010
00000000001100001010100111010100
00000000100010010101101110001000
00000000100100001110001110000011
11111111110100100110100101000010
00000000111101101110011011011011
00000000100110000111110101011011
00000000110011101101110111011111
11111111101010110000010110000111
11111111110101111100010000010111
00000000000000000111100101111111
00000000010000111101000100001001
11111111110011111100100011011011
00000000111010000010000111111100
00000000010111100100000011110001
00000000101011011100100011110010
11111110100110011001110001001010
11111111111100111100010101110010
00000000000101101100111111001001
11111111110100111010000011000010
00000000000000111110100010100111
11111111111001100000011101001110
00000000100010001100111110100111
11111111110100010010011001001001
00000000000101001001110011101011
11111111110010101100101001101101
11111111010001010010100111001001
11111111101110100110100110110110
00000000100101010101010000011100
11111111110000010011101011110001
00000001001100011111101101010111
11111111101111101010101101100101
00000001100011100010000010110010
00000000000101111001111010111001
00000000101110100110100111010110
11111111011111011110100101000101
11111111100101100111010100010101
00000001101001101111101101001011
00000001001011111110001101111111
00000000011101000001100001111011
00000001011010001101011111001110
00000000101101010000111100010101
11111111110101001001000001000110
11111111111011011011101101110101
00000000011010101111101001111100
11111111111111101000001010001110
11111111110001110110101011011110
00000000100101101001001000001110
00000000010001100111100111111010
11111111101010010101010010101011
00000000000111100001011000101000
11111111101000001010000000101101
00000000010001000100010011010001
00000000000110011000111001101011
11111111011100111011101110101001
00000000001110000111011101011011
11111111111000100011011111000010
00000001000110010011000101101110
11111111110000101000100100100001
11111111010110011111111101111110
00000000001100101000111101000011
11111111111001001010100101101000
00000000101011100001101101110010
11111111100110101010110001010000
00000000011100110000110100010111
11111111011100110110001110010010
11111111000110100010111100000001
00000000010011011100001010101110
00000000100100010100110000101011
00000000000001110101011011010101
00000000001011001111101111000100
11111111101110000011011100101111
11111111010011110011101000000100
00000000001001001010001110101101
11111111010001101010101011000111
11111111100100011100000111010110
00000001001110111000100101010101
11111111000100111001111001001111
11111110011110011001101011100110
11111110110111101001101100110001
00000000110100101111110110110110
00000000010100111000011111111000
11111111111101101000001000111010
11111111100001101110110010110010
11111111010111000011000000110000
00000001000101101110100010101100
11111111001011100100101101111101
00000000110011011111100111010110
11111111100001111000000001100110
11111111110001110011111100100101
11111111100110011111010101110001
00000000001011000101001011111100
11111111110000110101000110011000
00000000100111110100110001010100
00000000100110010110111111011110
11111111111110100000101111010111
11111110101011001000100011000011
00000000110000101010100111101100
11111111100010000100111000000111
00000000010001000011000001101110
11111111111010101100111001110010
11111111110111100010010100010000
00000000000010111000100101000001
00000000110001101001110100100000
11111110010111000101011010010110
00000000000100011011100101001100
00000000000000001111010111100001
11111111110011110010100100000111
11111111101111101101010110011111
11111111110100000011000010110111
00000000000011010110101001110000
11111111111101111010010001000100
00000000100001111111111100101011
11111111011010000011100100011010
00000000000110000111000000111101
11111111100011000110010011110101
00000000010000110100011011010100
00000000110010110111001011111011
11111111010110110001000001010101
00000000000010001000011110010011
00000000101000000111000001100011
11111111000110111010000111100110
11111111110111110001000100000100
00000000010011101110111000111111
11111111011111111110101100101010
11111111010111011010010101010110
11111111100010110100101111001011
11111111000011011101101000111011
11111111101110001101101101111011
00000000011000111111100001010110
00000000100011111111011010011000
11111111111111011110011001101001
00000000100100111011111100001010
00000000011010110000101001101010
00000000001010000111111101111111
00000000001100110000100001011000
00000000000010110100010100101110
00000000010101010000111110100110
00000000110011001111110010010100
11111110110110110110101011011111
11111111010100011101010001001101
11111111101011100100000100100011
11111110110110100100101011010001
00000000001011110110010101010110
11111111111100100111000000010101
11111110101011011111101001011110
00000000000110001110010100001101
00000000000111010101100001001000
00000001000101000110011111011111
00000000000110110111101100011111
00000000000100111000101100000111
00000000011010111111110111000111
11111111111101101000010010100011
11111111110110110111100001011111
00000000110000010110111010101001
11111111100111111011101101111110
11111111010111010100001110100001
11111111111011110011111111111111
11111111111001011001101011111000
00000001010011001100110111111011
00000000100011110010101110111010
00000000111100111100001011001100
00000000001101000011101100110111
11111111000011111010000001000011
11111111101100010101101001111110
00000000001101110011011111111100
00000000000111010011111011000111
11111111101011000110110011101111
11111111110101001110110001111110
00000000010001011000000101110110
11111111101001000111110010001000
11111111010110111100001000011111
11111111010110011011111111111001
11111111100111010010110101110011
11111111111111101110111100110000
00000000100100101110100111101100
11111111011110111010000101001111
00000000100001000011000111010100
11111111011011100001000101110001
00000001001100011011001111000111
11111111111000000110110100000011
11111111110111001101001101101110
11111111101101110100100110100010
00000000110010100000000100000101
00000001000001111101111011101101
11111111111111000011011101100100
00000000111111010011101001001111
11111111100011111111010110110111
11111111111101110010010100001011
00000000110010010101111111110101
00000000001000110110101001010000
11111111111001000011001011100101
00000000001101001110001011111100
00000000100010011111001100011010
11111111000001101111010001101010
00000001001110011011111101110101
00000000001100000000011011010101
11111111001111110000100100000001
00000000011000001110010010101101
11111111101000110010101010111101
00000000001000001110010000000101
00000001100001100000001000110101
00000000001010100111011110110010
00000000110111101011110111110001
11111111000111100001010000100001
00000000001011000110111100101110
11111111111001010111010001110111
00000000000001010010011000011010
11111111110000011101100100000010
00000000001111101010101000010010
11111111111100000100011101111111
00000000110001011000100001100101
11111111111100000100000011010110
11111111101100110011101111100111
11111111101010100111111111110001
00000000100111001110011001110000
11111111010010101010010101111100
11111111011101110101001111110011
00000000001111000100110101000111
11111111101111010100100100000101
11111111011110111111001110110001
00000000110001100100110000111111
11111111111100111110010100111010
00000000101101100011011010110011
11111111101110110010001001100111
11111111000111111001100010000100
11111111101110110000111100000000
11111111100010111100011110111000
11111111110011011010011001110111
00000000011001001100001101110011
11111111010111101010001000001011
11111111011000100001001000111011
00000000000000110110111101011111
00000001010000110010000000101101
11111111110001001111110001110010
11111111100101001110100000011101
11111111110101110001101101001111
11111111010001010001100100100100
11111111110011011111111101111100
11111111000111010000000101000011
11111111101010111110110000100100
11111111110100011111001110101111
11111111010100111101010101111101
11111111101001000010110011001101
00000000000010111001111001110110
11111111111001001000011110001011
00000000101001001000111100110000
00000000101001001101001001100010
11111111000111111011111101000111
00000000101111010110010111000100
00000000011000001100101000001011
11111111110110010101000010010100
11111111110011011000111110100110
00000000010000111111110001001010
11111110111010101110100111101101
00000000011111001000000000111001
11111111101101011101111001100010
11111111111000100000011010100100
00000000101010110110111010111110
00000000100101100100011011001011
00000000000100100111010111111001
00000000001100011101111111100101
00000001011100110100010011010011
11111111101010111010011000100100
11111111111010001101110010101110
11111111000010001101101100101011
11111111111011111100111011011110
11111111110010101000000101000011
00000000010001011110000000000110
11111111011001010100111001101000
00000000010100010010110000110010
11111111101000101100111000100111
00000000000100111100001110101111
00000000010001101111000010101011
00000000110001001000001111001100
00000000100010111011001010100001
11111111111101011000011100111000
00000000011001101000000101011000
11111110111100100001011001100111
11111111011001010010011011101110
00000000110001001100001011100110
11111111111010010111111101010110
00000000110100101100000011101111
00000000101001111111010011011111
11111111110101010001010101010001
00000000001011011010001000100001
00000001001000100110001010110111
00000000010011000011100100000100
11111110111010010100001111010010
11111111110010111000110101101101
11111111111110110100010011110111
11111111001111111111010000010111
00000000010010010000000111101111
00000000100001010100010011101110
00000000111101001100111111100010
00000000110000001111011011001110
00000000010100010011111001010101
00000000101011011111010010011100
11111111000000100111010010111100
11111111100010111000001110010000
11111111100000110000010010001100
11111111111011110010011001000011
00000000100110101011101101011110
00000000011001001000111100110011
11111110100100100001000000101000
00000000000110000001010110010011
00000000011110011111101100101011
11111111111101100110101010111011
00000000001001101111011111010001
11111111101101010101000011000001
00000000100111011001111101111001
00000000000110100010100101100110
11111111111111101110100000000110
00000000001011001011001010110010
00000000101011100100000110010000
00000000111111001110001110111011
11111111100000000000010011010101
00000000001110011110100000010001
11111111010101000100111110011111
00000000000011010101010110010000
11111110111000011010010010111101
00000001111000110011111100110110
