00000000010101101100111011001111
11111111100101110000010011011001
00000000100101010001011110110010
00000010000110010000101101010111
00000001101111101011101100000111
00000010011000001111100111100101
11111111111100110110010111111100
00000001010100111001001100110011
11111101001101110001100010100000
11111110100011110111111010010101
11111111011001100110100101000001
11111111100101001000001101100100
00000001101100010010010100101110
11111111101100011100100111011000
00000010010000010010010110010100
11111111000111010011100111010100
00000000101100100100111011111111
11111111011001001101110101010110
00000100010010100010111000101100
00000000110110001001011011001010
00000010010111010100001111110011
00000000001001100100110011100111
11111111110001010001000100110010
00000010110111110001010111011011
00000011000111010110010110010010
00000000010100000110000110101011
11111101101111011011010110000010
00000100110110111101001010100011
00000001010110010010011110010011
11111100101100011101000110001111
00000011000110101110000100101100
00000001100000111010100111100111
00000001011001101111110110001100
00000000000100001110000111000100
11111111000111011010101101011000
00000001001010010011101101001101
00000000100100011111100100111100
00000001010100000111100110011111
00000001001110001001101011010100
00000000101010101110100110000101
11111111101001100110000001001000
00000100110011110000110111110100
11111101100000011100100100110101
00000001110001111111110011100001
00000000110111000000001101110000
00000001101111011000100000100101
11111111000100000000001001110001
11111101000100101001001110111100
11111111010000100101010001001110
11111100010100110110010101010101
11111110010100100100101100000010
11111111111110001010111111000110
00000000110110111011001001111010
00000100001101101110101100100100
11111101111000000001100000000000
11111110101010000110101110101001
11111011100010000000100010111111
00000010001101010110001011100001
00000010110101000001001011111011
00000001100000010011101001111101
