11111100011010100000110111001001
11111110111001111001101011110000
11111111110011001011000011001110
00000000111100001000110010011011
11111101011100101111011000001100
00000010101001100000110110010111
00000100011000001100011101001100
00000000001100111001110000001110
11111101000110110001000110100110
11111101011010110110010001010100
11111101111010001110100101000111
11111111001101101110100101010111
11111110110101011100110000100110
00000001111100111000011000001011
00000001101011110000100000110011
11111101101100010011111011110100
11111101101111000111111011011111
11111111000100100001111010011000
00000000101100111000011010001111
00000010111111011100001010001001
11111111110100101011001110011111
11111111001100011111010110001111
11111111010110111111101001111110
00000000000001011101001011000001
11111100101101111111001001000101
00000000101011011001010000101011
11111111100011000111100101001000
00000000000100101101110000001101
11111110111010111001011011110111
00000000010110011010110111001101
00000001110100110110111000101010
00000000000111100100000001111010
11111111100101111001011111011101
11111110110110111010001001100011
00000010110111111100001101111111
11111101110000011111110010100111
00000010011110001100001110110010
00000001101100110100001110010001
00000000110110110000001000100011
00000000010101111000101000101010
00000000100100110000001010010101
11111111011000110111111001110010
00000000001011101010001000100010
11111110100000100101110100010001
00000001011110100001001100000011
00000001011001100001011011100000
11111111101001010000011101001101
11111101100101101101001110111001
00000000110100000000101111000110
11111011010100101001110110000100
00000000000000010011011101111001
00000001000100111001010000000110
00000001010100010010101001110100
11111101111010110011000111001010
11111110110011110110100001111101
00000001101111000010101001001010
11111111001100010111000000001111
00000000010001001100111101101000
00000100000101100000100010011010
11111111001001011101100101110111
