11111110111010001101111110010100
00000011001001010111001001000010
00000010001110001100110111010101
11111110011101101100111110011011
00000000111100110010010110001001
00000001001011100011011011001100
00000000011100000111000110111101
11111110010110110010010001101010
00000001001011000110000110101001
11111111100010110010011101101001
00000001100001000010110000000111
00000001001000011101110110110011
11111111010101101010100100011000
00000000011000001101110001001111
11111110010100011011000000011101
00000000011101000001001101010100
00000101110011001111010110100101
00000100011001011011100100010001
00000000000000000000110111111011
11111111110101111100000101000001
11111111100100101100101100111100
00000001110110110011101111000001
11111101100101110111011110000111
11111101111101100001001100011010
00000010000001111000001011100101
00000001011101010111111100000001
11111101101010010011110011001101
11111111000100011110111000111111
00000000101100010111110000110000
00000000110001101010100111010110
00000010100000010110000011100111
11111011111110110000111111001010
11111101111110000110111000110111
11111100001101001100111111010001
00000001111011000101001100110111
11111101010000011110010001111110
11111100111010000001001101000001
11111101000010111101011111001110
11111110000100100010100001011110
00000000010001011000100010111110
00000001111011000001111011100101
11111101000110101110101001111011
00000010100011111110000110011001
11111110000011001111010100110110
00000010011001100101011011011010
11111011000111000010010011001001
11111011101010001011000011110101
11111111101010101011100011101011
11111110101011101111110000011111
00000100110010110001101100010010
