00000001001000110000011001111111
00000000110000101101111010011001
11111111100011001011000100010111
11111011101100010101011110011001
11111111010100100110010100111111
11111111011011000010010101100011
11111110101110001101111001011111
11111110110100111111011000111001
11111101001001111100000000110101
00000010000001001101110001100010
11111111011101001110000111100000
00000000111011011010101011110001
00000100111110011100011010100000
11111110110110010000100101001011
11111110111110110100011101001000
00000001101111101011000011100011
11111111111110011000100110110010
11111111110001101110100010101000
00000000110000111111000111101110
00000010100100010111110000011011
11111111110101100101111000110111
11111110001000100101000111011110
11111101101011001010101110111101
11111101111111001000101011111110
11111110011101010110011101100010
11111011100111110001000010100001
00000011011011100111010101000110
11111101001011100100001001110100
11111110100100000111000010100010
00000101010011110000000101011100
00000001110010110110111100100111
11111111000101011010100001010110
00000000001011000100111111010100
11111110011010011001111011110011
00000000111110110011010000111001
00000010101011111011011001010010
11111111111111100100110100011101
11111111110001000010001000111100
11111101110110100111111111101101
00000001001000011010000101101000
00000011110010000110001110110001
00000000100110010100110010010110
11111110100001000111011011110110
11111101010100101101101101111110
11111111101111100010010001010100
11111011100010100001101010010010
00000010110100010111001111000101
11111111000000111101000000100000
00000010101011110111110001010101
11111111111111000011101110011010
